{
  "version": "1.0",
  "truncation": null,
  "padding": null,
  "added_tokens": [
    {
      "id": 0,
      "content": "[UNK]",
      "single_word": false,
      "lstrip": false,
      "rstrip": false,
      "normalized": false,
      "special": true
    },
    {
      "id": 1,
      "content": "[CLS]",
      "single_word": false,
      "lstrip": false,
      "rstrip": false,
      "normalized": false,
      "special": true
    },
    {
      "id": 2,
      "content": "[SEP]",
      "single_word": false,
      "lstrip": false,
      "rstrip": false,
      "normalized": false,
      "special": true
    },
    {
      "id": 3,
      "content": "[PAD]",
      "single_word": false,
      "lstrip": false,
      "rstrip": false,
      "normalized": false,
      "special": true
    },
    {
      "id": 4,
      "content": "[MASK]",
      "single_word": false,
      "lstrip": false,
      "rstrip": false,
      "normalized": false,
      "special": true
    }
  ],
  "normalizer": {
    "type": "Sequence",
    "normalizers": [
      {
        "type": "NFC"
      },
      {
        "type": "StripAccents"
      },
      {
        "type": "BertNormalizer",
        "clean_text": true,
        "handle_chinese_chars": true,
        "strip_accents": null,
        "lowercase": true
      }
    ]
  },
  "pre_tokenizer": {
    "type": "Sequence",
    "pretokenizers": [
      {
        "type": "Whitespace"
      },
      {
        "type": "BertPreTokenizer"
      }
    ]
  },
  "post_processor": null,
  "decoder": null,
  "model": {
    "type": "BPE",
    "dropout": null,
    "unk_token": "[UNK]",
    "continuing_subword_prefix": null,
    "end_of_word_suffix": null,
    "fuse_unk": false,
    "byte_fallback": false,
    "ignore_merges": false,
    "vocab": {
      "[UNK]": 0,
      "[CLS]": 1,
      "[SEP]": 2,
      "[PAD]": 3,
      "[MASK]": 4,
      "!": 5,
      "\"": 6,
      "#": 7,
      "$": 8,
      "%": 9,
      "&": 10,
      "'": 11,
      "(": 12,
      ")": 13,
      "*": 14,
      "+": 15,
      ",": 16,
      "-": 17,
      ".": 18,
      "/": 19,
      "0": 20,
      "1": 21,
      "2": 22,
      "3": 23,
      "4": 24,
      "5": 25,
      "6": 26,
      "7": 27,
      "8": 28,
      "9": 29,
      ":": 30,
      ";": 31,
      "<": 32,
      "=": 33,
      ">": 34,
      "?": 35,
      "@": 36,
      "[": 37,
      "\\": 38,
      "]": 39,
      "^": 40,
      "_": 41,
      "`": 42,
      "a": 43,
      "b": 44,
      "c": 45,
      "d": 46,
      "e": 47,
      "f": 48,
      "g": 49,
      "h": 50,
      "i": 51,
      "j": 52,
      "k": 53,
      "l": 54,
      "m": 55,
      "n": 56,
      "o": 57,
      "p": 58,
      "q": 59,
      "r": 60,
      "s": 61,
      "t": 62,
      "u": 63,
      "v": 64,
      "w": 65,
      "x": 66,
      "y": 67,
      "z": 68,
      "{": 69,
      "|": 70,
      "}": 71,
      "~": 72,
      "¡": 73,
      "¢": 74,
      "£": 75,
      "¤": 76,
      "¥": 77,
      "¦": 78,
      "§": 79,
      "¨": 80,
      "©": 81,
      "ª": 82,
      "«": 83,
      "¬": 84,
      "®": 85,
      "¯": 86,
      "°": 87,
      "±": 88,
      "²": 89,
      "³": 90,
      "´": 91,
      "µ": 92,
      "¶": 93,
      "·": 94,
      "¸": 95,
      "¹": 96,
      "º": 97,
      "»": 98,
      "¼": 99,
      "½": 100,
      "¾": 101,
      "¿": 102,
      "×": 103,
      "ß": 104,
      "æ": 105,
      "ð": 106,
      "÷": 107,
      "ø": 108,
      "þ": 109,
      "đ": 110,
      "ı": 111,
      "ł": 112,
      "œ": 113,
      "ǁ": 114,
      "ǆ": 115,
      "ɓ": 116,
      "ə": 117,
      "ɪ": 118,
      "ʼ": 119,
      "ʿ": 120,
      "ˇ": 121,
      "ː": 122,
      "˘": 123,
      "˙": 124,
      "˚": 125,
      "˛": 126,
      "˜": 127,
      "˝": 128,
      "α": 129,
      "β": 130,
      "γ": 131,
      "δ": 132,
      "ε": 133,
      "ζ": 134,
      "η": 135,
      "θ": 136,
      "ι": 137,
      "κ": 138,
      "λ": 139,
      "μ": 140,
      "ν": 141,
      "ο": 142,
      "π": 143,
      "ρ": 144,
      "σ": 145,
      "τ": 146,
      "φ": 147,
      "ψ": 148,
      "ω": 149,
      "а": 150,
      "б": 151,
      "в": 152,
      "г": 153,
      "д": 154,
      "е": 155,
      "ж": 156,
      "з": 157,
      "и": 158,
      "к": 159,
      "л": 160,
      "м": 161,
      "н": 162,
      "о": 163,
      "п": 164,
      "р": 165,
      "с": 166,
      "т": 167,
      "у": 168,
      "ф": 169,
      "х": 170,
      "ц": 171,
      "ч": 172,
      "ш": 173,
      "щ": 174,
      "ъ": 175,
      "ы": 176,
      "ь": 177,
      "э": 178,
      "ю": 179,
      "я": 180,
      "є": 181,
      "ѕ": 182,
      "і": 183,
      "ғ": 184,
      "қ": 185,
      "ң": 186,
      "ү": 187,
      "ұ": 188,
      "ә": 189,
      "ө": 190,
      "׃": 191,
      "،": 192,
      "ا": 193,
      "ة": 194,
      "ت": 195,
      "ج": 196,
      "ح": 197,
      "د": 198,
      "ر": 199,
      "س": 200,
      "ق": 201,
      "ك": 202,
      "ل": 203,
      "م": 204,
      "ن": 205,
      "و": 206,
      "ي": 207,
      "ی": 208,
      "अ": 209,
      "आ": 210,
      "इ": 211,
      "ई": 212,
      "उ": 213,
      "ऊ": 214,
      "ऋ": 215,
      "ऌ": 216,
      "ऍ": 217,
      "ऎ": 218,
      "ए": 219,
      "ऐ": 220,
      "ऑ": 221,
      "ऒ": 222,
      "ओ": 223,
      "औ": 224,
      "क": 225,
      "ख": 226,
      "ग": 227,
      "घ": 228,
      "ङ": 229,
      "च": 230,
      "छ": 231,
      "ज": 232,
      "झ": 233,
      "ञ": 234,
      "ट": 235,
      "ठ": 236,
      "ड": 237,
      "ढ": 238,
      "ण": 239,
      "त": 240,
      "थ": 241,
      "द": 242,
      "ध": 243,
      "न": 244,
      "प": 245,
      "फ": 246,
      "ब": 247,
      "भ": 248,
      "म": 249,
      "य": 250,
      "र": 251,
      "ल": 252,
      "ळ": 253,
      "व": 254,
      "श": 255,
      "ष": 256,
      "स": 257,
      "ह": 258,
      "ऽ": 259,
      "ॐ": 260,
      "ॠ": 261,
      "ॡ": 262,
      "।": 263,
      "॥": 264,
      "०": 265,
      "१": 266,
      "२": 267,
      "३": 268,
      "४": 269,
      "५": 270,
      "६": 271,
      "७": 272,
      "८": 273,
      "९": 274,
      "॰": 275,
      "ক": 276,
      "চ": 277,
      "ঠ": 278,
      "থ": 279,
      "দ": 280,
      "ন": 281,
      "ব": 282,
      "ভ": 283,
      "র": 284,
      "ষ": 285,
      "স": 286,
      "ਦ": 287,
      "ਲ": 288,
      "પ": 289,
      "બ": 290,
      "ᄍ": 291,
      "ᅢ": 292,
      "‐": 293,
      "‑": 294,
      "–": 295,
      "—": 296,
      "―": 297,
      "‘": 298,
      "’": 299,
      "‚": 300,
      "“": 301,
      "”": 302,
      "„": 303,
      "†": 304,
      "‡": 305,
      "•": 306,
      "…": 307,
      "‰": 308,
      "′": 309,
      "⁰": 310,
      "⁴": 311,
      "⁵": 312,
      "⁶": 313,
      "⁷": 314,
      "⁻": 315,
      "₀": 316,
      "₁": 317,
      "₂": 318,
      "€": 319,
      "₹": 320,
      "™": 321,
      "⅓": 322,
      "⅔": 323,
      "⅕": 324,
      "⅖": 325,
      "⅗": 326,
      "⅘": 327,
      "⅙": 328,
      "←": 329,
      "→": 330,
      "⇒": 331,
      "∂": 332,
      "−": 333,
      "∕": 334,
      "√": 335,
      "∞": 336,
      "∣": 337,
      "∨": 338,
      "∶": 339,
      "≤": 340,
      "≥": 341,
      "⋯": 342,
      "⌈": 343,
      "⌉": 344,
      "⌊": 345,
      "⌋": 346,
      "⌘": 347,
      "⏎": 348,
      "─": 349,
      "═": 350,
      "■": 351,
      "☺": 352,
      "☻": 353,
      "♪": 354,
      "♫": 355,
      "➣": 356,
      "、": 357,
      "。": 358,
      "あ": 359,
      "い": 360,
      "う": 361,
      "え": 362,
      "か": 363,
      "き": 364,
      "く": 365,
      "け": 366,
      "こ": 367,
      "さ": 368,
      "し": 369,
      "す": 370,
      "せ": 371,
      "そ": 372,
      "た": 373,
      "ち": 374,
      "っ": 375,
      "つ": 376,
      "て": 377,
      "と": 378,
      "な": 379,
      "に": 380,
      "の": 381,
      "は": 382,
      "ひ": 383,
      "へ": 384,
      "ま": 385,
      "み": 386,
      "め": 387,
      "も": 388,
      "よ": 389,
      "ら": 390,
      "り": 391,
      "る": 392,
      "れ": 393,
      "を": 394,
      "ん": 395,
      "ァ": 396,
      "ア": 397,
      "ィ": 398,
      "イ": 399,
      "ウ": 400,
      "エ": 401,
      "ォ": 402,
      "オ": 403,
      "カ": 404,
      "ク": 405,
      "コ": 406,
      "サ": 407,
      "シ": 408,
      "ス": 409,
      "タ": 410,
      "ッ": 411,
      "テ": 412,
      "ト": 413,
      "ニ": 414,
      "ネ": 415,
      "ハ": 416,
      "ヒ": 417,
      "フ": 418,
      "ヘ": 419,
      "ホ": 420,
      "マ": 421,
      "ム": 422,
      "メ": 423,
      "モ": 424,
      "ョ": 425,
      "ラ": 426,
      "リ": 427,
      "ル": 428,
      "レ": 429,
      "ロ": 430,
      "ワ": 431,
      "ン": 432,
      "ー": 433,
      "一": 434,
      "上": 435,
      "下": 436,
      "不": 437,
      "両": 438,
      "並": 439,
      "中": 440,
      "了": 441,
      "他": 442,
      "付": 443,
      "作": 444,
      "使": 445,
      "保": 446,
      "信": 447,
      "傭": 448,
      "優": 449,
      "元": 450,
      "先": 451,
      "入": 452,
      "全": 453,
      "共": 454,
      "内": 455,
      "再": 456,
      "出": 457,
      "分": 458,
      "切": 459,
      "利": 460,
      "削": 461,
      "前": 462,
      "力": 463,
      "加": 464,
      "動": 465,
      "化": 466,
      "匿": 467,
      "参": 468,
      "可": 469,
      "同": 470,
      "名": 471,
      "否": 472,
      "含": 473,
      "員": 474,
      "國": 475,
      "堀": 476,
      "報": 477,
      "境": 478,
      "変": 479,
      "外": 480,
      "大": 481,
      "失": 482,
      "妖": 483,
      "始": 484,
      "字": 485,
      "存": 486,
      "定": 487,
      "容": 488,
      "対": 489,
      "小": 490,
      "広": 491,
      "度": 492,
      "庸": 493,
      "当": 494,
      "待": 495,
      "後": 496,
      "従": 497,
      "必": 498,
      "悠": 499,
      "情": 500,
      "態": 501,
      "憂": 502,
      "成": 503,
      "戻": 504,
      "所": 505,
      "手": 506,
      "打": 507,
      "承": 508,
      "択": 509,
      "抹": 510,
      "拒": 511,
      "接": 512,
      "揺": 513,
      "擁": 514,
      "敗": 515,
      "数": 516,
      "断": 517,
      "新": 518,
      "方": 519,
      "既": 520,
      "明": 521,
      "時": 522,
      "曜": 523,
      "更": 524,
      "替": 525,
      "最": 526,
      "有": 527,
      "未": 528,
      "本": 529,
      "様": 530,
      "正": 531,
      "毎": 532,
      "求": 533,
      "洋": 534,
      "消": 535,
      "満": 536,
      "溶": 537,
      "漢": 538,
      "点": 539,
      "熔": 540,
      "版": 541,
      "状": 542,
      "環": 543,
      "用": 544,
      "由": 545,
      "病": 546,
      "登": 547,
      "直": 548,
      "知": 549,
      "短": 550,
      "確": 551,
      "示": 552,
      "秒": 553,
      "秦": 554,
      "細": 555,
      "終": 556,
      "続": 557,
      "編": 558,
      "置": 559,
      "羊": 560,
      "耀": 561,
      "者": 562,
      "能": 563,
      "脱": 564,
      "自": 565,
      "致": 566,
      "般": 567,
      "色": 568,
      "葉": 569,
      "行": 570,
      "表": 571,
      "複": 572,
      "要": 573,
      "見": 574,
      "規": 575,
      "覧": 576,
      "設": 577,
      "詳": 578,
      "認": 579,
      "謡": 580,
      "设": 581,
      "象": 582,
      "起": 583,
      "越": 584,
      "追": 585,
      "送": 586,
      "通": 587,
      "連": 588,
      "遥": 589,
      "選": 590,
      "重": 591,
      "録": 592,
      "開": 593,
      "関": 594,
      "除": 595,
      "集": 596,
      "離": 597,
      "順": 598,
      "預": 599,
      "ﬁ": 600,
      "ﬂ": 601,
      "：": 602,
      "？": 603,
      "￼": 604,
      "th": 605,
      "in": 606,
      "the": 607,
      "an": 608,
      "re": 609,
      "on": 610,
      "er": 611,
      "at": 612,
      "पर": 613,
      "en": 614,
      "कर": 615,
      "is": 616,
      "or": 617,
      "al": 618,
      "of": 619,
      "ou": 620,
      "and": 621,
      "ed": 622,
      "es": 623,
      "ar": 624,
      "it": 625,
      "to": 626,
      "as": 627,
      "और": 628,
      "ing": 629,
      "ion": 630,
      "ic": 631,
      "le": 632,
      "st": 633,
      "se": 634,
      "om": 635,
      "ent": 636,
      "तर": 637,
      "be": 638,
      "il": 639,
      "wh": 640,
      "ve": 641,
      "ac": 642,
      "de": 643,
      "सक": 644,
      "सम": 645,
      "for": 646,
      "no": 647,
      "ro": 648,
      "he": 649,
      "नह": 650,
      "all": 651,
      "am": 652,
      "वर": 653,
      "ch": 654,
      "ad": 655,
      "im": 656,
      "ation": 657,
      "you": 658,
      "ay": 659,
      "नक": 660,
      "पन": 661,
      "तम": 662,
      "un": 663,
      "ct": 664,
      "ver": 665,
      "we": 666,
      "कय": 667,
      "हत": 668,
      "id": 669,
      "सर": 670,
      "लए": 671,
      "कत": 672,
      "su": 673,
      "मन": 674,
      "लग": 675,
      "दर": 676,
      "ce": 677,
      "एक": 678,
      "कष": 679,
      "जन": 680,
      "tr": 681,
      "lo": 682,
      "ir": 683,
      "ut": 684,
      "गर": 685,
      "li": 686,
      "are": 687,
      "ab": 688,
      "that": 689,
      "सथ": 690,
      "con": 691,
      "ly": 692,
      "ag": 693,
      "ur": 694,
      "sh": 695,
      "नय": 696,
      "di": 697,
      "ol": 698,
      "मर": 699,
      "इस": 700,
      "ter": 701,
      "com": 702,
      "ment": 703,
      "pro": 704,
      "करन": 705,
      "हर": 706,
      "ha": 707,
      "not": 708,
      "सत": 709,
      "wi": 710,
      "pe": 711,
      "gh": 712,
      "वह": 713,
      "res": 714,
      "रत": 715,
      "यह": 716,
      "ill": 717,
      "रह": 718,
      "दय": 719,
      "दन": 720,
      "with": 721,
      "ul": 722,
      "us": 723,
      "पत": 724,
      "अपन": 725,
      "ess": 726,
      "वल": 727,
      "बर": 728,
      "fr": 729,
      "te": 730,
      "go": 731,
      "so": 732,
      "mo": 733,
      "po": 734,
      "वय": 735,
      "मल": 736,
      "ne": 737,
      "ri": 738,
      "ate": 739,
      "कस": 740,
      "per": 741,
      "उस": 742,
      "टर": 743,
      "they": 744,
      "do": 745,
      "ma": 746,
      "करत": 747,
      "me": 748,
      "this": 749,
      "ex": 750,
      "ld": 751,
      "by": 752,
      "our": 753,
      "fe": 754,
      "ther": 755,
      "ap": 756,
      "जत": 757,
      "if": 758,
      "दश": 759,
      "ts": 760,
      "बन": 761,
      "उनक": 762,
      "ke": 763,
      "वश": 764,
      "अध": 765,
      "सव": 766,
      "नर": 767,
      "कल": 768,
      "pl": 769,
      "बद": 770,
      "फर": 771,
      "oun": 772,
      "हम": 773,
      "गय": 774,
      "have": 775,
      "from": 776,
      "was": 777,
      "परत": 778,
      "his": 779,
      "हन": 780,
      "ain": 781,
      "op": 782,
      "ity": 783,
      "will": 784,
      "who": 785,
      "ge": 786,
      "them": 787,
      "pr": 788,
      "अन": 789,
      "तक": 790,
      "कम": 791,
      "one": 792,
      "करय": 793,
      "कन": 794,
      "est": 795,
      "has": 796,
      "उसक": 797,
      "indi": 798,
      "der": 799,
      "ah": 800,
      "qu": 801,
      "लय": 802,
      "wor": 803,
      "ich": 804,
      "सन": 805,
      "धर": 806,
      "man": 807,
      "सब": 808,
      "act": 809,
      "but": 810,
      "हल": 811,
      "जर": 812,
      "ci": 813,
      "सकत": 814,
      "art": 815,
      "चन": 816,
      "which": 817,
      "वन": 818,
      "ive": 819,
      "ght": 820,
      "रप": 821,
      "जब": 822,
      "सल": 823,
      "उप": 824,
      "dis": 825,
      "शर": 826,
      "भरत": 827,
      "रज": 828,
      "their": 829,
      "red": 830,
      "20": 831,
      "लल": 832,
      "ould": 833,
      "कह": 834,
      "तय": 835,
      "gr": 836,
      "out": 837,
      "तथ": 838,
      "ies": 839,
      "end": 840,
      "ers": 841,
      "od": 842,
      "au": 843,
      "ant": 844,
      "चर": 845,
      "उनह": 846,
      "उन": 847,
      "कई": 848,
      "ard": 849,
      "दख": 850,
      "जस": 851,
      "ind": 852,
      "sa": 853,
      "age": 854,
      "19": 855,
      "लन": 856,
      "तन": 857,
      "धन": 858,
      "ction": 859,
      "iv": 860,
      "कछ": 861,
      "up": 862,
      "परय": 863,
      "si": 864,
      "ous": 865,
      "there": 866,
      "um": 867,
      "ऐस": 868,
      "यद": 869,
      "आप": 870,
      "ow": 871,
      "ta": 872,
      "बल": 873,
      "ure": 874,
      "pres": 875,
      "ame": 876,
      "मत": 877,
      "em": 878,
      "हए": 879,
      "por": 880,
      "ll": 881,
      "any": 882,
      "ish": 883,
      "fo": 884,
      "ra": 885,
      "now": 886,
      "your": 887,
      "allah": 888,
      "दवर": 889,
      "him": 890,
      "खद": 891,
      "et": 892,
      "cl": 893,
      "ear": 894,
      "ust": 895,
      "co": 896,
      "ans": 897,
      "रष": 898,
      "can": 899,
      "शन": 900,
      "रख": 901,
      "लत": 902,
      "bo": 903,
      "परण": 904,
      "वत": 905,
      "ong": 906,
      "other": 907,
      "ev": 908,
      "ated": 909,
      "इन": 910,
      "ren": 911,
      "बत": 912,
      "able": 913,
      "हग": 914,
      "vi": 915,
      "india": 916,
      "करण": 917,
      "सह": 918,
      "सद": 919,
      "जए": 920,
      "ord": 921,
      "ist": 922,
      "its": 923,
      "गत": 924,
      "रषटर": 925,
      "ance": 926,
      "av": 927,
      "when": 928,
      "day": 929,
      "षट": 930,
      "ose": 931,
      "यन": 932,
      "भग": 933,
      "ass": 934,
      "ach": 935,
      "af": 936,
      "br": 937,
      "सभ": 938,
      "ome": 939,
      "pre": 940,
      "form": 941,
      "fi": 942,
      "वस": 943,
      "comm": 944,
      "cre": 945,
      "pt": 946,
      "coun": 947,
      "जल": 948,
      "पस": 949,
      "gn": 950,
      "आय": 951,
      "चत": 952,
      "port": 953,
      "ever": 954,
      "gu": 955,
      "हमर": 956,
      "comp": 957,
      "ary": 958,
      "फल": 959,
      "रथ": 960,
      "वज": 961,
      "ip": 962,
      "min": 963,
      "what": 964,
      "part": 965,
      "know": 966,
      "those": 967,
      "वद": 968,
      "तमहर": 969,
      "ice": 970,
      "उत": 971,
      "ast": 972,
      "ions": 973,
      "had": 974,
      "ललह": 975,
      "ak": 976,
      "लख": 977,
      "ser": 978,
      "अललह": 979,
      "tim": 980,
      "नत": 981,
      "fore": 982,
      "बड": 983,
      "00": 984,
      "been": 985,
      "यग": 986,
      "दत": 987,
      "इसक": 988,
      "hi": 989,
      "ud": 990,
      "were": 991,
      "ence": 992,
      "कश": 993,
      "then": 994,
      "ople": 995,
      "people": 996,
      "bl": 997,
      "under": 998,
      "je": 999,
      "way": 1000,
      "god": 1001,
      "नम": 1002,
      "ok": 1003,
      "पहल": 1004,
      "ber": 1005,
      "beli": 1006,
      "ace": 1007,
      "टन": 1008,
      "str": 1009,
      "du": 1010,
      "said": 1011,
      "ful": 1012,
      "करम": 1013,
      "चछ": 1014,
      "पड": 1015,
      "my": 1016,
      "ine": 1017,
      "ally": 1018,
      "सच": 1019,
      "shall": 1020,
      "सय": 1021,
      "गल": 1022,
      "low": 1023,
      "पद": 1024,
      "धय": 1025,
      "बच": 1026,
      "ase": 1027,
      "ound": 1028,
      "pos": 1029,
      "समय": 1030,
      "cent": 1031,
      "spe": 1032,
      "भर": 1033,
      "work": 1034,
      "sp": 1035,
      "come": 1036,
      "ations": 1037,
      "कट": 1038,
      "some": 1039,
      "सस": 1040,
      "also": 1041,
      "fa": 1042,
      "मतर": 1043,
      "ings": 1044,
      "may": 1045,
      "परव": 1046,
      "ident": 1047,
      "new": 1048,
      "ef": 1049,
      "cont": 1050,
      "ens": 1051,
      "int": 1052,
      "ical": 1053,
      "कषतर": 1054,
      "sub": 1055,
      "बहत": 1056,
      "बध": 1057,
      "पल": 1058,
      "अभ": 1059,
      "यत": 1060,
      "डर": 1061,
      "sel": 1062,
      "अधक": 1063,
      "अव": 1064,
      "शत": 1065,
      "tur": 1066,
      "ty": 1067,
      "वरष": 1068,
      "अगर": 1069,
      "whe": 1070,
      "say": 1071,
      "ho": 1072,
      "ough": 1073,
      "cess": 1074,
      "her": 1075,
      "lord": 1076,
      "ple": 1077,
      "यक": 1078,
      "वयकत": 1079,
      "sc": 1080,
      "iz": 1081,
      "ack": 1082,
      "खल": 1083,
      "ble": 1084,
      "eng": 1085,
      "पह": 1086,
      "vis": 1087,
      "off": 1088,
      "such": 1089,
      "mar": 1090,
      "वसत": 1091,
      "tw": 1092,
      "परवर": 1093,
      "उनहन": 1094,
      "ition": 1095,
      "मण": 1096,
      "रजय": 1097,
      "only": 1098,
      "gre": 1099,
      "सतर": 1100,
      "vern": 1101,
      "ater": 1102,
      "भव": 1103,
      "time": 1104,
      "year": 1105,
      "ise": 1106,
      "मक": 1107,
      "समन": 1108,
      "ory": 1109,
      "कषण": 1110,
      "201": 1111,
      "govern": 1112,
      "तरह": 1113,
      "खय": 1114,
      "ial": 1115,
      "par": 1116,
      "try": 1117,
      "ath": 1118,
      "would": 1119,
      "after": 1120,
      "हमन": 1121,
      "ite": 1122,
      "इल": 1123,
      "over": 1124,
      "जएग": 1125,
      "king": 1126,
      "fol": 1127,
      "धत": 1128,
      "son": 1129,
      "aw": 1130,
      "अनय": 1131,
      "बढ": 1132,
      "these": 1133,
      "हआ": 1134,
      "अतर": 1135,
      "सट": 1136,
      "चल": 1137,
      "har": 1138,
      "than": 1139,
      "nation": 1140,
      "परपत": 1141,
      "ject": 1142,
      "dow": 1143,
      "ree": 1144,
      "des": 1145,
      "reg": 1146,
      "ted": 1147,
      "mu": 1148,
      "sy": 1149,
      "like": 1150,
      "ause": 1151,
      "जञ": 1152,
      "गई": 1153,
      "trans": 1154,
      "सथत": 1155,
      "सरकर": 1156,
      "cr": 1157,
      "गए": 1158,
      "ang": 1159,
      "name": 1160,
      "more": 1161,
      "मद": 1162,
      "cur": 1163,
      "पश": 1164,
      "पक": 1165,
      "ue": 1166,
      "lect": 1167,
      "gen": 1168,
      "ओर": 1169,
      "ities": 1170,
      "made": 1171,
      "ob": 1172,
      "about": 1173,
      "सथन": 1174,
      "cer": 1175,
      "should": 1176,
      "col": 1177,
      "ight": 1178,
      "बह": 1179,
      "bet": 1180,
      "रषटरपत": 1181,
      "see": 1182,
      "खर": 1183,
      "जसक": 1184,
      "चक": 1185,
      "set": 1186,
      "thing": 1187,
      "नन": 1188,
      "पय": 1189,
      "दसर": 1190,
      "serv": 1191,
      "लक": 1192,
      "inter": 1193,
      "vers": 1194,
      "कए": 1195,
      "ult": 1196,
      "आर": 1197,
      "डल": 1198,
      "into": 1199,
      "ild": 1200,
      "मह": 1201,
      "row": 1202,
      "मझ": 1203,
      "करग": 1204,
      "वक": 1205,
      "fir": 1206,
      "परकर": 1207,
      "पछ": 1208,
      "ph": 1209,
      "ress": 1210,
      "government": 1211,
      "आपक": 1212,
      "ck": 1213,
      "vid": 1214,
      "wr": 1215,
      "giv": 1216,
      "तत": 1217,
      "add": 1218,
      "षय": 1219,
      "ces": 1220,
      "el": 1221,
      "pu": 1222,
      "अचछ": 1223,
      "बस": 1224,
      "state": 1225,
      "चहए": 1226,
      "डय": 1227,
      "200": 1228,
      "mess": 1229,
      "most": 1230,
      "पतर": 1231,
      "two": 1232,
      "president": 1233,
      "where": 1234,
      "soci": 1235,
      "ep": 1236,
      "पट": 1237,
      "खत": 1238,
      "val": 1239,
      "mon": 1240,
      "समझ": 1241,
      "tri": 1242,
      "pol": 1243,
      "velo": 1244,
      "ness": 1245,
      "जम": 1246,
      "एव": 1247,
      "शक": 1248,
      "जनत": 1249,
      "धरत": 1250,
      "turn": 1251,
      "ting": 1252,
      "नश": 1253,
      "inde": 1254,
      "good": 1255,
      "tain": 1256,
      "ईमन": 1257,
      "led": 1258,
      "ari": 1259,
      "inst": 1260,
      "ves": 1261,
      "भरतय": 1262,
      "develo": 1263,
      "अत": 1264,
      "घर": 1265,
      "eve": 1266,
      "मज": 1267,
      "mem": 1268,
      "ship": 1269,
      "used": 1270,
      "सफ": 1271,
      "गण": 1272,
      "fin": 1273,
      "before": 1274,
      "ward": 1275,
      "log": 1276,
      "जड": 1277,
      "ile": 1278,
      "develop": 1279,
      "ates": 1280,
      "वरण": 1281,
      "षण": 1282,
      "national": 1283,
      "अब": 1284,
      "दयग": 1285,
      "old": 1286,
      "वदय": 1287,
      "नयम": 1288,
      "world": 1289,
      "हई": 1290,
      "ange": 1291,
      "thr": 1292,
      "वकस": 1293,
      "life": 1294,
      "pur": 1295,
      "ments": 1296,
      "दव": 1297,
      "call": 1298,
      "med": 1299,
      "रसल": 1300,
      "itut": 1301,
      "cept": 1302,
      "well": 1303,
      "again": 1304,
      "ily": 1305,
      "nor": 1306,
      "minis": 1307,
      "जह": 1308,
      "cy": 1309,
      "ash": 1310,
      "ific": 1311,
      "ved": 1312,
      "गरह": 1313,
      "person": 1314,
      "self": 1315,
      "sure": 1316,
      "tion": 1317,
      "तमह": 1318,
      "बक": 1319,
      "ual": 1320,
      "सप": 1321,
      "section": 1322,
      "दग": 1323,
      "शल": 1324,
      "ors": 1325,
      "ide": 1326,
      "जय": 1327,
      "cause": 1328,
      "rel": 1329,
      "खड": 1330,
      "cour": 1331,
      "every": 1332,
      "feren": 1333,
      "fer": 1334,
      "get": 1335,
      "publ": 1336,
      "रग": 1337,
      "sign": 1338,
      "टक": 1339,
      "fl": 1340,
      "war": 1341,
      "ia": 1342,
      "रब": 1343,
      "तरक": 1344,
      "चज": 1345,
      "dif": 1346,
      "जवन": 1347,
      "परम": 1348,
      "sur": 1349,
      "she": 1350,
      "iss": 1351,
      "दम": 1352,
      "att": 1353,
      "wer": 1354,
      "बदल": 1355,
      "ms": 1356,
      "उद": 1357,
      "could": 1358,
      "indian": 1359,
      "लकन": 1360,
      "ning": 1361,
      "मस": 1362,
      "ठन": 1363,
      "being": 1364,
      "उसन": 1365,
      "produ": 1366,
      "चहत": 1367,
      "आग": 1368,
      "ating": 1369,
      "वशष": 1370,
      "oc": 1371,
      "mat": 1372,
      "just": 1373,
      "ig": 1374,
      "यकत": 1375,
      "ban": 1376,
      "आई": 1377,
      "tru": 1378,
      "through": 1379,
      "read": 1380,
      "stand": 1381,
      "arch": 1382,
      "high": 1383,
      "ave": 1384,
      "रषटरय": 1385,
      "लड": 1386,
      "book": 1387,
      "uc": 1388,
      "dr": 1389,
      "down": 1390,
      "तमक": 1391,
      "शकष": 1392,
      "land": 1393,
      "mer": 1394,
      "बहर": 1395,
      "long": 1396,
      "परदन": 1397,
      "stru": 1398,
      "very": 1399,
      "bu": 1400,
      "परयग": 1401,
      "make": 1402,
      "use": 1403,
      "ati": 1404,
      "char": 1405,
      "many": 1406,
      "even": 1407,
      "तब": 1408,
      "inv": 1409,
      "inte": 1410,
      "ving": 1411,
      "महत": 1412,
      "ative": 1413,
      "ye": 1414,
      "let": 1415,
      "men": 1416,
      "cal": 1417,
      "hel": 1418,
      "rect": 1419,
      "परक": 1420,
      "मट": 1421,
      "right": 1422,
      "आज": 1423,
      "वध": 1424,
      "need": 1425,
      "lear": 1426,
      "gener": 1427,
      "10": 1428,
      "first": 1429,
      "less": 1430,
      "सबध": 1431,
      "back": 1432,
      "दषट": 1433,
      "उपयग": 1434,
      "वभ": 1435,
      "मधय": 1436,
      "did": 1437,
      "ks": 1438,
      "वयव": 1439,
      "नकल": 1440,
      "मदर": 1441,
      "फइल": 1442,
      "वशव": 1443,
      "सग": 1444,
      "own": 1445,
      "कदर": 1446,
      "भष": 1447,
      "अल": 1448,
      "num": 1449,
      "18": 1450,
      "country": 1451,
      "ten": 1452,
      "gan": 1453,
      "छड": 1454,
      "present": 1455,
      "ages": 1456,
      "follow": 1457,
      "दल": 1458,
      "does": 1459,
      "वजञ": 1460,
      "ign": 1461,
      "put": 1462,
      "cor": 1463,
      "यर": 1464,
      "rest": 1465,
      "tem": 1466,
      "here": 1467,
      "tal": 1468,
      "वचर": 1469,
      "sup": 1470,
      "पकष": 1471,
      "how": 1472,
      "भत": 1473,
      "ween": 1474,
      "between": 1475,
      "तरत": 1476,
      "बज": 1477,
      "ced": 1478,
      "jo": 1479,
      "cap": 1480,
      "छट": 1481,
      "hand": 1482,
      "ters": 1483,
      "रहत": 1484,
      "pa": 1485,
      "ry": 1486,
      "fun": 1487,
      "सहत": 1488,
      "public": 1489,
      "lim": 1490,
      "believe": 1491,
      "दध": 1492,
      "stem": 1493,
      "ism": 1494,
      "ular": 1495,
      "take": 1496,
      "तव": 1497,
      "चच": 1498,
      "upon": 1499,
      "ds": 1500,
      "आन": 1501,
      "सचन": 1502,
      "कवल": 1503,
      "play": 1504,
      "पहच": 1505,
      "dur": 1506,
      "indeed": 1507,
      "among": 1508,
      "रक": 1509,
      "hu": 1510,
      "जसम": 1511,
      "अधकर": 1512,
      "परश": 1513,
      "car": 1514,
      "years": 1515,
      "system": 1516,
      "शकत": 1517,
      "bas": 1518,
      "ents": 1519,
      "pect": 1520,
      "given": 1521,
      "बनन": 1522,
      "ink": 1523,
      "earth": 1524,
      "child": 1525,
      "चह": 1526,
      "आवश": 1527,
      "पज": 1528,
      "15": 1529,
      "जनक": 1530,
      "peri": 1531,
      "xt": 1532,
      "came": 1533,
      "ii": 1534,
      "requ": 1535,
      "भज": 1536,
      "leg": 1537,
      "great": 1538,
      "कयक": 1539,
      "power": 1540,
      "ied": 1541,
      "cial": 1542,
      "अरथ": 1543,
      "ht": 1544,
      "षठ": 1545,
      "cons": 1546,
      "den": 1547,
      "मरग": 1548,
      "ps": 1549,
      "press": 1550,
      "cord": 1551,
      "ility": 1552,
      "lig": 1553,
      "गह": 1554,
      "vie": 1555,
      "समज": 1556,
      "ask": 1557,
      "गन": 1558,
      "place": 1559,
      "inform": 1560,
      "भवन": 1561,
      "परसत": 1562,
      "थव": 1563,
      "cond": 1564,
      "भल": 1565,
      "accoun": 1566,
      "करक": 1567,
      "against": 1568,
      "pass": 1569,
      "la": 1570,
      "दगर": 1571,
      "ire": 1572,
      "सबस": 1573,
      "ited": 1574,
      "मलय": 1575,
      "इसम": 1576,
      "ail": 1577,
      "fect": 1578,
      "list": 1579,
      "बलक": 1580,
      "mus": 1581,
      "सवर": 1582,
      "धरण": 1583,
      "एस": 1584,
      "खन": 1585,
      "give": 1586,
      "ठक": 1587,
      "ious": 1588,
      "mal": 1589,
      "tern": 1590,
      "pri": 1591,
      "development": 1592,
      "ices": 1593,
      "incl": 1594,
      "sent": 1595,
      "ade": 1596,
      "ot": 1597,
      "order": 1598,
      "ict": 1599,
      "ature": 1600,
      "ought": 1601,
      "show": 1602,
      "12": 1603,
      "cho": 1604,
      "जव": 1605,
      "alth": 1606,
      "lit": 1607,
      "because": 1608,
      "sing": 1609,
      "fil": 1610,
      "परट": 1611,
      "लभ": 1612,
      "ls": 1613,
      "import": 1614,
      "यजन": 1615,
      "lar": 1616,
      "open": 1617,
      "provid": 1618,
      "तल": 1619,
      "ised": 1620,
      "कड": 1621,
      "gram": 1622,
      "तमन": 1623,
      "वतत": 1624,
      "ken": 1625,
      "ममल": 1626,
      "ner": 1627,
      "qual": 1628,
      "view": 1629,
      "uni": 1630,
      "ital": 1631,
      "तरफ": 1632,
      "while": 1633,
      "tech": 1634,
      "sm": 1635,
      "ission": 1636,
      "चय": 1637,
      "सखय": 1638,
      "सदश": 1639,
      "help": 1640,
      "main": 1641,
      "oper": 1642,
      "tre": 1643,
      "plan": 1644,
      "file": 1645,
      "उततर": 1646,
      "उपल": 1647,
      "बदध": 1648,
      "नट": 1649,
      "pon": 1650,
      "हथ": 1651,
      "परयजन": 1652,
      "रम": 1653,
      "prom": 1654,
      "कहत": 1655,
      "water": 1656,
      "गम": 1657,
      "अधनयम": 1658,
      "point": 1659,
      "बनय": 1660,
      "bar": 1661,
      "wom": 1662,
      "during": 1663,
      "नयय": 1664,
      "दरन": 1665,
      "fact": 1666,
      "direct": 1667,
      "महन": 1668,
      "lish": 1669,
      "उनस": 1670,
      "दशय": 1671,
      "far": 1672,
      "परस": 1673,
      "cus": 1674,
      "कभ": 1675,
      "plo": 1676,
      "अथव": 1677,
      "आद": 1678,
      "आधर": 1679,
      "move": 1680,
      "search": 1681,
      "ss": 1682,
      "must": 1683,
      "कषत": 1684,
      "ven": 1685,
      "तयर": 1686,
      "तरण": 1687,
      "pay": 1688,
      "lan": 1689,
      "sin": 1690,
      "कफ": 1691,
      "अनसर": 1692,
      "उसस": 1693,
      "indust": 1694,
      "इट": 1695,
      "सवय": 1696,
      "bal": 1697,
      "आत": 1698,
      "अधय": 1699,
      "लगत": 1700,
      "institut": 1701,
      "clo": 1702,
      "organ": 1703,
      "educ": 1704,
      "इसलए": 1705,
      "pp": 1706,
      "समत": 1707,
      "thor": 1708,
      "found": 1709,
      "pun": 1710,
      "ft": 1711,
      "number": 1712,
      "रखत": 1713,
      "fic": 1714,
      "मसल": 1715,
      "plic": 1716,
      "डक": 1717,
      "believer": 1718,
      "उठ": 1719,
      "परष": 1720,
      "उनम": 1721,
      "इसस": 1722,
      "परवरदगर": 1723,
      "अतय": 1724,
      "जमन": 1725,
      "पढ": 1726,
      "light": 1727,
      "ror": 1728,
      "information": 1729,
      "vari": 1730,
      "law": 1731,
      "fac": 1732,
      "differen": 1733,
      "अलग": 1734,
      "dev": 1735,
      "अर": 1736,
      "दसत": 1737,
      "वषय": 1738,
      "sol": 1739,
      "ru": 1740,
      "वड": 1741,
      "hy": 1742,
      "cri": 1743,
      "ouse": 1744,
      "उपलबध": 1745,
      "air": 1746,
      "les": 1747,
      "जनह": 1748,
      "tribut": 1749,
      "pend": 1750,
      "change": 1751,
      "कहन": 1752,
      "iness": 1753,
      "दयगक": 1754,
      "ick": 1755,
      "महतव": 1756,
      "पच": 1757,
      "lead": 1758,
      "टल": 1759,
      "als": 1760,
      "शबद": 1761,
      "सबधत": 1762,
      "sto": 1763,
      "head": 1764,
      "del": 1765,
      "truth": 1766,
      "fam": 1767,
      "सथय": 1768,
      "each": 1769,
      "अमर": 1770,
      "vel": 1771,
      "bi": 1772,
      "win": 1773,
      "शख": 1774,
      "सहयत": 1775,
      "na": 1776,
      "writ": 1777,
      "कनन": 1778,
      "199": 1779,
      "che": 1780,
      "believers": 1781,
      "bus": 1782,
      "away": 1783,
      "रखन": 1784,
      "both": 1785,
      "sou": 1786,
      "बट": 1787,
      "11": 1788,
      "शय": 1789,
      "ures": 1790,
      "हस": 1791,
      "मग": 1792,
      "ata": 1793,
      "van": 1794,
      "selves": 1795,
      "rece": 1796,
      "सतय": 1797,
      "शमल": 1798,
      "gress": 1799,
      "program": 1800,
      "नरमण": 1801,
      "घट": 1802,
      "dec": 1803,
      "process": 1804,
      "const": 1805,
      "समनय": 1806,
      "want": 1807,
      "surely": 1808,
      "author": 1809,
      "समरथ": 1810,
      "cas": 1811,
      "cut": 1812,
      "comple": 1813,
      "बचच": 1814,
      "अवसर": 1815,
      "ram": 1816,
      "education": 1817,
      "वभनन": 1818,
      "heav": 1819,
      "start": 1820,
      "मखय": 1821,
      "side": 1822,
      "commun": 1823,
      "ric": 1824,
      "मड": 1825,
      "issu": 1826,
      "सटर": 1827,
      "सदसय": 1828,
      "ared": 1829,
      "project": 1830,
      "उचच": 1831,
      "another": 1832,
      "grou": 1833,
      "अधन": 1834,
      "cu": 1835,
      "sul": 1836,
      "certain": 1837,
      "cannot": 1838,
      "करड": 1839,
      "offic": 1840,
      "net": 1841,
      "tax": 1842,
      "look": 1843,
      "account": 1844,
      "जयद": 1845,
      "hear": 1846,
      "मदद": 1847,
      "ben": 1848,
      "knowled": 1849,
      "select": 1850,
      "case": 1851,
      "econ": 1852,
      "econom": 1853,
      "नगर": 1854,
      "अनक": 1855,
      "vide": 1856,
      "whom": 1857,
      "pal": 1858,
      "दनय": 1859,
      "respon": 1860,
      "sim": 1861,
      "लम": 1862,
      "पठ": 1863,
      "हलक": 1864,
      "ants": 1865,
      "same": 1866,
      "hind": 1867,
      "आकर": 1868,
      "परथ": 1869,
      "logy": 1870,
      "सपषट": 1871,
      "prof": 1872,
      "हद": 1873,
      "ists": 1874,
      "000": 1875,
      "ys": 1876,
      "दखत": 1877,
      "bod": 1878,
      "find": 1879,
      "vir": 1880,
      "langu": 1881,
      "mad": 1882,
      "रहन": 1883,
      "house": 1884,
      "action": 1885,
      "परभव": 1886,
      "परमण": 1887,
      "centr": 1888,
      "नई": 1889,
      "last": 1890,
      "सकष": 1891,
      "isl": 1892,
      "लट": 1893,
      "ith": 1894,
      "ca": 1895,
      "knowledge": 1896,
      "cro": 1897,
      "यतर": 1898,
      "line": 1899,
      "परकरय": 1900,
      "पसत": 1901,
      "bro": 1902,
      "जरर": 1903,
      "कतब": 1904,
      "called": 1905,
      "सध": 1906,
      "grow": 1907,
      "post": 1908,
      "commit": 1909,
      "घटन": 1910,
      "human": 1911,
      "अपर": 1912,
      "partic": 1913,
      "message": 1914,
      "income": 1915,
      "sect": 1916,
      "मलत": 1917,
      "return": 1918,
      "mit": 1919,
      "kind": 1920,
      "dom": 1921,
      "जञन": 1922,
      "चलत": 1923,
      "ics": 1924,
      "gg": 1925,
      "उसम": 1926,
      "ned": 1927,
      "ways": 1928,
      "without": 1929,
      "ana": 1930,
      "unto": 1931,
      "period": 1932,
      "16": 1933,
      "things": 1934,
      "मय": 1935,
      "three": 1936,
      "vision": 1937,
      "ified": 1938,
      "गज": 1939,
      "ired": 1940,
      "ution": 1941,
      "jud": 1942,
      "ian": 1943,
      "etc": 1944,
      "appe": 1945,
      "झठ": 1946,
      "appro": 1947,
      "ort": 1948,
      "bre": 1949,
      "known": 1950,
      "वशवस": 1951,
      "णय": 1952,
      "except": 1953,
      "परतयक": 1954,
      "30": 1955,
      "ऊपर": 1956,
      "suc": 1957,
      "पथ": 1958,
      "हकम": 1959,
      "fear": 1960,
      "today": 1961,
      "ural": 1962,
      "ham": 1963,
      "वकत": 1964,
      "सघ": 1965,
      "eld": 1966,
      "आए": 1967,
      "कपन": 1968,
      "महल": 1969,
      "different": 1970,
      "मलन": 1971,
      "समह": 1972,
      "body": 1973,
      "गड": 1974,
      "relig": 1975,
      "avail": 1976,
      "एम": 1977,
      "दरशन": 1978,
      "sk": 1979,
      "interest": 1980,
      "जनम": 1981,
      "आयत": 1982,
      "spec": 1983,
      "अजब": 1984,
      "support": 1985,
      "सधन": 1986,
      "might": 1987,
      "shri": 1988,
      "sen": 1989,
      "contin": 1990,
      "rs": 1991,
      "ime": 1992,
      "kar": 1993,
      "nam": 1994,
      "bha": 1995,
      "अवध": 1996,
      "techno": 1997,
      "bed": 1998,
      "ससद": 1999,
      "gin": 2000,
      "सकल": 2001,
      "14": 2002,
      "hal": 2003,
      "women": 2004,
      "clear": 2005,
      "धरम": 2006,
      "ply": 2007,
      "dra": 2008,
      "sci": 2009,
      "mail": 2010,
      "वयवसथ": 2011,
      "नच": 2012,
      "children": 2013,
      "member": 2014,
      "bers": 2015,
      "ga": 2016,
      "ety": 2017,
      "hist": 2018,
      "50": 2019,
      "ount": 2020,
      "bes": 2021,
      "proper": 2022,
      "पहचन": 2023,
      "सथपत": 2024,
      "ann": 2025,
      "real": 2026,
      "ya": 2027,
      "messeng": 2028,
      "company": 2029,
      "सवत": 2030,
      "address": 2031,
      "ides": 2032,
      "itu": 2033,
      "allow": 2034,
      "includ": 2035,
      "एन": 2036,
      "small": 2037,
      "mor": 2038,
      "incre": 2039,
      "मधयम": 2040,
      "परधन": 2041,
      "much": 2042,
      "बनद": 2043,
      "respect": 2044,
      "hold": 2045,
      "मगर": 2046,
      "pi": 2047,
      "cell": 2048,
      "minister": 2049,
      "central": 2050,
      "curren": 2051,
      "करयकरम": 2052,
      "दशक": 2053,
      "मख": 2054,
      "means": 2055,
      "conne": 2056,
      "window": 2057,
      "नशचय": 2058,
      "सज": 2059,
      "unt": 2060,
      "ele": 2061,
      "बय": 2062,
      "वरग": 2063,
      "univers": 2064,
      "लकर": 2065,
      "sum": 2066,
      "सपत": 2067,
      "word": 2068,
      "नरधरत": 2069,
      "sche": 2070,
      "taken": 2071,
      "meet": 2072,
      "महर": 2073,
      "enter": 2074,
      "polic": 2075,
      "applic": 2076,
      "tle": 2077,
      "कनदर": 2078,
      "नमन": 2079,
      "sible": 2080,
      "परवरतन": 2081,
      "date": 2082,
      "aim": 2083,
      "business": 2084,
      "ket": 2085,
      "तज": 2086,
      "ext": 2087,
      "परयस": 2088,
      "पदन": 2089,
      "अमरक": 2090,
      "रहग": 2091,
      "exam": 2092,
      "वदयलय": 2093,
      "bur": 2094,
      "fri": 2095,
      "इनकर": 2096,
      "pet": 2097,
      "mind": 2098,
      "परर": 2099,
      "हकर": 2100,
      "बरह": 2101,
      "path": 2102,
      "सवध": 2103,
      "vent": 2104,
      "ze": 2105,
      "service": 2106,
      "वजञन": 2107,
      "44": 2108,
      "ref": 2109,
      "महतवपरण": 2110,
      "sat": 2111,
      "stud": 2112,
      "city": 2113,
      "गरम": 2114,
      "bring": 2115,
      "मजद": 2116,
      "बनए": 2117,
      "never": 2118,
      "wards": 2119,
      "esh": 2120,
      "इतन": 2121,
      "फसल": 2122,
      "friend": 2123,
      "mis": 2124,
      "bab": 2125,
      "करर": 2126,
      "ished": 2127,
      "आख": 2128,
      "free": 2129,
      "text": 2130,
      "अक": 2131,
      "effect": 2132,
      "13": 2133,
      "evil": 2134,
      "happ": 2135,
      "folder": 2136,
      "contro": 2137,
      "best": 2138,
      "षक": 2139,
      "accord": 2140,
      "धयन": 2141,
      "sal": 2142,
      "सख": 2143,
      "ससथन": 2144,
      "tail": 2145,
      "raj": 2146,
      "emplo": 2147,
      "ither": 2148,
      "fur": 2149,
      "25": 2150,
      "ament": 2151,
      "ched": 2152,
      "eas": 2153,
      "उदयग": 2154,
      "लब": 2155,
      "करनवल": 2156,
      "eds": 2157,
      "important": 2158,
      "हक": 2159,
      "whether": 2160,
      "transl": 2161,
      "हसस": 2162,
      "created": 2163,
      "दए": 2164,
      "social": 2165,
      "फट": 2166,
      "chang": 2167,
      "सझ": 2168,
      "जनकर": 2169,
      "tp": 2170,
      "भम": 2171,
      "ars": 2172,
      "कलप": 2173,
      "परतय": 2174,
      "परदयगक": 2175,
      "four": 2176,
      "ines": 2177,
      "bs": 2178,
      "सदर": 2179,
      "सतन": 2180,
      "group": 2181,
      "परकत": 2182,
      "gy": 2183,
      "rit": 2184,
      "वदश": 2185,
      "estab": 2186,
      "रश": 2187,
      "परतशत": 2188,
      "परशन": 2189,
      "activ": 2190,
      "bank": 2191,
      "mi": 2192,
      "सरव": 2193,
      "परकश": 2194,
      "thou": 2195,
      "जसन": 2196,
      "कनत": 2197,
      "दखन": 2198,
      "शरण": 2199,
      "establish": 2200,
      "रथक": 2201,
      "court": 2202,
      "आवशयकत": 2203,
      "17": 2204,
      "going": 2205,
      "ized": 2206,
      "नव": 2207,
      "196": 2208,
      "बशक": 2209,
      "punish": 2210,
      "become": 2211,
      "फलडर": 2212,
      "कपय": 2213,
      "पनन": 2214,
      "thus": 2215,
      "सधर": 2216,
      "सरकष": 2217,
      "फरम": 2218,
      "pop": 2219,
      "जबक": 2220,
      "मकत": 2221,
      "अप": 2222,
      "ससथ": 2223,
      "health": 2224,
      "days": 2225,
      "fail": 2226,
      "non": 2227,
      "rele": 2228,
      "faith": 2229,
      "ason": 2230,
      "लगन": 2231,
      "णड": 2232,
      "believ": 2233,
      "kes": 2234,
      "समपत": 2235,
      "month": 2236,
      "due": 2237,
      "बठ": 2238,
      "spir": 2239,
      "states": 2240,
      "पलन": 2241,
      "आरथक": 2242,
      "scri": 2243,
      "left": 2244,
      "benef": 2245,
      "समझत": 2246,
      "डट": 2247,
      "key": 2248,
      "pat": 2249,
      "invest": 2250,
      "keep": 2251,
      "ger": 2252,
      "वशल": 2253,
      "शहर": 2254,
      "too": 2255,
      "हट": 2256,
      "आतम": 2257,
      "quest": 2258,
      "provided": 2259,
      "general": 2260,
      "large": 2261,
      "पसतक": 2262,
      "ai": 2263,
      "language": 2264,
      "suf": 2265,
      "wrong": 2266,
      "सवधन": 2267,
      "maj": 2268,
      "ready": 2269,
      "mand": 2270,
      "prote": 2271,
      "within": 2272,
      "चतर": 2273,
      "times": 2274,
      "ives": 2275,
      "class": 2276,
      "ashtr": 2277,
      "परमख": 2278,
      "fire": 2279,
      "gl": 2280,
      "नद": 2281,
      "righ": 2282,
      "various": 2283,
      "ses": 2284,
      "कषय": 2285,
      "मनत": 2286,
      "रय": 2287,
      "nic": 2288,
      "wit": 2289,
      "muslim": 2290,
      "nat": 2291,
      "ones": 2292,
      "सरत": 2293,
      "build": 2294,
      "success": 2295,
      "option": 2296,
      "चलन": 2297,
      "error": 2298,
      "ica": 2299,
      "command": 2300,
      "though": 2301,
      "198": 2302,
      "वरत": 2303,
      "ator": 2304,
      "ived": 2305,
      "send": 2306,
      "face": 2307,
      "muk": 2308,
      "चम": 2309,
      "plain": 2310,
      "इत": 2311,
      "position": 2312,
      "accept": 2313,
      "polit": 2314,
      "आध": 2315,
      "amount": 2316,
      "जच": 2317,
      "rb": 2318,
      "han": 2319,
      "trad": 2320,
      "बहतर": 2321,
      "ulture": 2322,
      "others": 2323,
      "ctions": 2324,
      "product": 2325,
      "कसम": 2326,
      "verily": 2327,
      "बगल": 2328,
      "ient": 2329,
      "better": 2330,
      "दरश": 2331,
      "vol": 2332,
      "bir": 2333,
      "ji": 2334,
      "depart": 2335,
      "pan": 2336,
      "नरदषट": 2337,
      "http": 2338,
      "constitut": 2339,
      "technology": 2340,
      "रजन": 2341,
      "done": 2342,
      "ऋण": 2343,
      "que": 2344,
      "cle": 2345,
      "guid": 2346,
      "abo": 2347,
      "proble": 2348,
      "दद": 2349,
      "ination": 2350,
      "themselves": 2351,
      "ider": 2352,
      "तमस": 2353,
      "worship": 2354,
      "fort": 2355,
      "run": 2356,
      "कफर": 2357,
      "बरबर": 2358,
      "amer": 2359,
      "आदश": 2360,
      "associ": 2361,
      "दलल": 2362,
      "wise": 2363,
      "grap": 2364,
      "type": 2365,
      "वभग": 2366,
      "बग": 2367,
      "data": 2368,
      "full": 2369,
      "परणल": 2370,
      "available": 2371,
      "therefore": 2372,
      "पशचत": 2373,
      "cture": 2374,
      "पडत": 2375,
      "रस": 2376,
      "लखत": 2377,
      "tar": 2378,
      "research": 2379,
      "ali": 2380,
      "father": 2381,
      "गध": 2382,
      "jee": 2383,
      "blo": 2384,
      "adv": 2385,
      "लगभग": 2386,
      "value": 2387,
      "डन": 2388,
      "ify": 2389,
      "mission": 2390,
      "परभ": 2391,
      "उददशय": 2392,
      "policy": 2393,
      "परध": 2394,
      "concer": 2395,
      "und": 2396,
      "दस": 2397,
      "ton": 2398,
      "top": 2399,
      "detail": 2400,
      "सवकर": 2401,
      "food": 2402,
      "wa": 2403,
      "services": 2404,
      "please": 2405,
      "care": 2406,
      "ased": 2407,
      "पछल": 2408,
      "आश": 2409,
      "समसय": 2410,
      "परनत": 2411,
      "ards": 2412,
      "197": 2413,
      "tries": 2414,
      "elect": 2415,
      "aren": 2416,
      "ka": 2417,
      "remain": 2418,
      "howe": 2419,
      "छप": 2420,
      "gur": 2421,
      "समजक": 2422,
      "economic": 2423,
      "something": 2424,
      "yet": 2425,
      "however": 2426,
      "बजर": 2427,
      "वधय": 2428,
      "वशववदयलय": 2429,
      "comput": 2430,
      "ency": 2431,
      "जगह": 2432,
      "resul": 2433,
      "ization": 2434,
      "कषमत": 2435,
      "194": 2436,
      "cul": 2437,
      "सतत": 2438,
      "उतपद": 2439,
      "reco": 2440,
      "create": 2441,
      "dest": 2442,
      "aining": 2443,
      "home": 2444,
      "industri": 2445,
      "special": 2446,
      "सकर": 2447,
      "चयन": 2448,
      "don": 2449,
      "खश": 2450,
      "ability": 2451,
      "field": 2452,
      "वयपर": 2453,
      "चरय": 2454,
      "जओ": 2455,
      "cop": 2456,
      "htm": 2457,
      "उलल": 2458,
      "towards": 2459,
      "फक": 2460,
      "rul": 2461,
      "sess": 2462,
      "हसत": 2463,
      "नष": 2464,
      "pran": 2465,
      "family": 2466,
      "amp": 2467,
      "24": 2468,
      "ti": 2469,
      "ससकत": 2470,
      "परसतत": 2471,
      "exp": 2472,
      "current": 2473,
      "tor": 2474,
      "सरफ": 2475,
      "ional": 2476,
      "secur": 2477,
      "कषम": 2478,
      "speak": 2479,
      "appoint": 2480,
      "comes": 2481,
      "भक": 2482,
      "chi": 2483,
      "अतरकत": 2484,
      "आवशयक": 2485,
      "itions": 2486,
      "सहयग": 2487,
      "ferred": 2488,
      "नल": 2489,
      "हरण": 2490,
      "नए": 2491,
      "tee": 2492,
      "अग": 2493,
      "बनध": 2494,
      "live": 2495,
      "true": 2496,
      "think": 2497,
      "subject": 2498,
      "understand": 2499,
      "capital": 2500,
      "टम": 2501,
      "vious": 2502,
      "exist": 2503,
      "prop": 2504,
      "pose": 2505,
      "mark": 2506,
      "object": 2507,
      "एल": 2508,
      "equal": 2509,
      "load": 2510,
      "कतन": 2511,
      "परकष": 2512,
      "हनद": 2513,
      "वनय": 2514,
      "reach": 2515,
      "signs": 2516,
      "test": 2517,
      "plac": 2518,
      "pray": 2519,
      "करइ": 2520,
      "mukher": 2521,
      "नज": 2522,
      "सफल": 2523,
      "जसस": 2524,
      "जररत": 2525,
      "san": 2526,
      "आदम": 2527,
      "mukherjee": 2528,
      "second": 2529,
      "गव": 2530,
      "चकत": 2531,
      "prin": 2532,
      "death": 2533,
      "save": 2534,
      "liter": 2535,
      "seen": 2536,
      "सचत": 2537,
      "fair": 2538,
      "परणम": 2539,
      "finan": 2540,
      "बधन": 2541,
      "image": 2542,
      "नययलय": 2543,
      "रकत": 2544,
      "195": 2545,
      "punishment": 2546,
      "ववरण": 2547,
      "yes": 2548,
      "¤¾": 2549,
      "why": 2550,
      "vill": 2551,
      "chool": 2552,
      "members": 2553,
      "इनक": 2554,
      "रल": 2555,
      "school": 2556,
      "खज": 2557,
      "ains": 2558,
      "level": 2559,
      "परदश": 2560,
      "अगल": 2561,
      "सपरक": 2562,
      "ended": 2563,
      "iful": 2564,
      "equ": 2565,
      "words": 2566,
      "मब": 2567,
      "सचच": 2568,
      "यगय": 2569,
      "heavens": 2570,
      "ni": 2571,
      "ded": 2572,
      "यतन": 2573,
      "os": 2574,
      "एग": 2575,
      "वसय": 2576,
      "ption": 2577,
      "area": 2578,
      "islam": 2579,
      "ples": 2580,
      "society": 2581,
      "share": 2582,
      "local": 2583,
      "gether": 2584,
      "ained": 2585,
      "समगर": 2586,
      "वट": 2587,
      "love": 2588,
      "together": 2589,
      "scheme": 2590,
      "himself": 2591,
      "brought": 2592,
      "thy": 2593,
      "apati": 2594,
      "पषठ": 2595,
      "उतपदन": 2596,
      "bhavan": 2597,
      "operation": 2598,
      "कलन": 2599,
      "init": 2600,
      "lab": 2601,
      "यदध": 2602,
      "stat": 2603,
      "fall": 2604,
      "fre": 2605,
      "शवर": 2606,
      "ged": 2607,
      "kg": 2608,
      "भई": 2609,
      "flow": 2610,
      "परद": 2611,
      "medi": 2612,
      "hard": 2613,
      "एफ": 2614,
      "बरड": 2615,
      "clause": 2616,
      "commission": 2617,
      "draw": 2618,
      "pranab": 2619,
      "अतरगत": 2620,
      "chr": 2621,
      "ww": 2622,
      "mil": 2623,
      "descri": 2624,
      "वदध": 2625,
      "tract": 2626,
      "mb": 2627,
      "पण": 2628,
      "अनसधन": 2629,
      "मडल": 2630,
      "आकश": 2631,
      "मनव": 2632,
      "वशषट": 2633,
      "major": 2634,
      "फन": 2635,
      "charac": 2636,
      "उदय": 2637,
      "परवश": 2638,
      "near": 2639,
      "mic": 2640,
      "ground": 2641,
      "ateg": 2642,
      "based": 2643,
      "ont": 2644,
      "night": 2645,
      "termin": 2646,
      "cted": 2647,
      "gand": 2648,
      "common": 2649,
      "ually": 2650,
      "नरणय": 2651,
      "manage": 2652,
      "peace": 2653,
      "dist": 2654,
      "शरत": 2655,
      "ulation": 2656,
      "नवश": 2657,
      "इड": 2658,
      "instru": 2659,
      "वसतव": 2660,
      "लखन": 2661,
      "ource": 2662,
      "ately": 2663,
      "जञत": 2664,
      "pli": 2665,
      "teach": 2666,
      "तरट": 2667,
      "rashtr": 2668,
      "messenger": 2669,
      "international": 2670,
      "dou": 2671,
      "inal": 2672,
      "roy": 2673,
      "wish": 2674,
      "ceed": 2675,
      "reason": 2676,
      "since": 2677,
      "tural": 2678,
      "mes": 2679,
      "जहन": 2680,
      "परन": 2681,
      "cost": 2682,
      "कसन": 2683,
      "बब": 2684,
      "mone": 2685,
      "ran": 2686,
      "having": 2687,
      "half": 2688,
      "tic": 2689,
      "record": 2690,
      "pract": 2691,
      "mult": 2692,
      "reve": 2693,
      "पशचम": 2694,
      "docu": 2695,
      "control": 2696,
      "परगत": 2697,
      "वरध": 2698,
      "orig": 2699,
      "already": 2700,
      "सथपन": 2701,
      "मरत": 2702,
      "matter": 2703,
      "सगठन": 2704,
      "following": 2705,
      "bit": 2706,
      "consider": 2707,
      "agric": 2708,
      "सकरय": 2709,
      "ible": 2710,
      "sector": 2711,
      "force": 2712,
      "खबर": 2713,
      "अगरज": 2714,
      "कयमत": 2715,
      "loc": 2716,
      "bor": 2717,
      "वरतमन": 2718,
      "vo": 2719,
      "मलक": 2720,
      "23": 2721,
      "वसतर": 2722,
      "ऊच": 2723,
      "cir": 2724,
      "five": 2725,
      "fund": 2726,
      "cred": 2727,
      "वततय": 2728,
      "whole": 2729,
      "later": 2730,
      "rashtrapati": 2731,
      "सवसथय": 2732,
      "regard": 2733,
      "उतर": 2734,
      "according": 2735,
      "जलम": 2736,
      "little": 2737,
      "ference": 2738,
      "जनहन": 2739,
      "next": 2740,
      "शरर": 2741,
      "until": 2742,
      "foreign": 2743,
      "तमल": 2744,
      "हजर": 2745,
      "particular": 2746,
      "सबक": 2747,
      "stren": 2748,
      "उपधर": 2749,
      "above": 2750,
      "हदय": 2751,
      "sl": 2752,
      "countries": 2753,
      "secre": 2754,
      "areas": 2755,
      "acy": 2756,
      "va": 2757,
      "gave": 2758,
      "mag": 2759,
      "heart": 2760,
      "making": 2761,
      "board": 2762,
      "fully": 2763,
      "delhi": 2764,
      "मनषय": 2765,
      "इय": 2766,
      "हव": 2767,
      "सकषम": 2768,
      "achi": 2769,
      "खरच": 2770,
      "मतय": 2771,
      "bey": 2772,
      "सदध": 2773,
      "further": 2774,
      "provide": 2775,
      "wel": 2776,
      "जनन": 2777,
      "वपस": 2778,
      "spirit": 2779,
      "mother": 2780,
      "assess": 2781,
      "ling": 2782,
      "pain": 2783,
      "hon": 2784,
      "इतहस": 2785,
      "streng": 2786,
      "thir": 2787,
      "nothing": 2788,
      "brit": 2789,
      "always": 2790,
      "ठहर": 2791,
      "onment": 2792,
      "वदन": 2793,
      "ng": 2794,
      "बनत": 2795,
      "nature": 2796,
      "pot": 2797,
      "sun": 2798,
      "prime": 2799,
      "ising": 2800,
      "took": 2801,
      "still": 2802,
      "short": 2803,
      "26": 2804,
      "सश": 2805,
      "कमर": 2806,
      "complete": 2807,
      "नकट": 2808,
      "आसमन": 2809,
      "शकर": 2810,
      "दकषण": 2811,
      "कथ": 2812,
      "ternal": 2813,
      "परधनमतर": 2814,
      "नध": 2815,
      "authority": 2816,
      "asse": 2817,
      "giving": 2818,
      "ste": 2819,
      "few": 2820,
      "cit": 2821,
      "ury": 2822,
      "including": 2823,
      "application": 2824,
      "trust": 2825,
      "बढन": 2826,
      "possible": 2827,
      "भकत": 2828,
      "parli": 2829,
      "dut": 2830,
      "कव": 2831,
      "रचन": 2832,
      "दरशत": 2833,
      "ore": 2834,
      "express": 2835,
      "history": 2836,
      "अद": 2837,
      "aged": 2838,
      "access": 2839,
      "university": 2840,
      "tow": 2841,
      "using": 2842,
      "ery": 2843,
      "paren": 2844,
      "थड": 2845,
      "लकषय": 2846,
      "¤°": 2847,
      "सगत": 2848,
      "individ": 2849,
      "sw": 2850,
      "glo": 2851,
      "network": 2852,
      "यल": 2853,
      "claim": 2854,
      "regis": 2855,
      "दखए": 2856,
      "सथनय": 2857,
      "fav": 2858,
      "total": 2859,
      "parliament": 2860,
      "along": 2861,
      "tell": 2862,
      "हमश": 2863,
      "दड": 2864,
      "around": 2865,
      "isation": 2866,
      "मसलमन": 2867,
      "नरधरण": 2868,
      "mill": 2869,
      "अपकष": 2870,
      "वयवहर": 2871,
      "rate": 2872,
      "itor": 2873,
      "gard": 2874,
      "distr": 2875,
      "ports": 2876,
      "cil": 2877,
      "ically": 2878,
      "मटर": 2879,
      "office": 2880,
      "वरक": 2881,
      "ined": 2882,
      "necess": 2883,
      "ues": 2884,
      "adesh": 2885,
      "financial": 2886,
      "रन": 2887,
      "employ": 2888,
      "contribut": 2889,
      "उदहरण": 2890,
      "ize": 2891,
      "auto": 2892,
      "ances": 2893,
      "mean": 2894,
      "ification": 2895,
      "sever": 2896,
      "kgm": 2897,
      "occas": 2898,
      "thee": 2899,
      "meas": 2900,
      "custo": 2901,
      "ilities": 2902,
      "ond": 2903,
      "got": 2904,
      "भजन": 2905,
      "वण": 2906,
      "००": 2907,
      "कज": 2908,
      "industry": 2909,
      "ama": 2910,
      "selected": 2911,
      "मतरलय": 2912,
      "conf": 2913,
      "anim": 2914,
      "रपय": 2915,
      "whose": 2916,
      "political": 2917,
      "represent": 2918,
      "individual": 2919,
      "hearts": 2920,
      "22": 2921,
      "ततर": 2922,
      "gandhi": 2923,
      "हज": 2924,
      "religion": 2925,
      "close": 2926,
      "belong": 2927,
      "100": 2928,
      "prophe": 2929,
      "कबल": 2930,
      "चरण": 2931,
      "envir": 2932,
      "eu": 2933,
      "deeds": 2934,
      "security": 2935,
      "षत": 2936,
      "plant": 2937,
      "vil": 2938,
      "fel": 2939,
      "chief": 2940,
      "pen": 2941,
      "leave": 2942,
      "ener": 2943,
      "वकसत": 2944,
      "सकग": 2945,
      "पनर": 2946,
      "hab": 2947,
      "आम": 2948,
      "bill": 2949,
      "अनभव": 2950,
      "डसक": 2951,
      "witness": 2952,
      "course": 2953,
      "firm": 2954,
      "flu": 2955,
      "समर": 2956,
      "टट": 2957,
      "colle": 2958,
      "वहन": 2959,
      "rad": 2960,
      "management": 2961,
      "परथम": 2962,
      "report": 2963,
      "question": 2964,
      "department": 2965,
      "पटट": 2966,
      "ential": 2967,
      "सयकत": 2968,
      "तहत": 2969,
      "ems": 2970,
      "ततव": 2971,
      "ories": 2972,
      "नशचत": 2973,
      "assist": 2974,
      "dri": 2975,
      "अतम": 2976,
      "posed": 2977,
      "hol": 2978,
      "पलस": 2979,
      "hindi": 2980,
      "21": 2981,
      "शचत": 2982,
      "ches": 2983,
      "previous": 2984,
      "छव": 2985,
      "artic": 2986,
      "गनह": 2987,
      "remo": 2988,
      "कण": 2989,
      "करब": 2990,
      "28": 2991,
      "थर": 2992,
      "अनर": 2993,
      "mid": 2994,
      "आधरत": 2995,
      "held": 2996,
      "term": 2997,
      "sed": 2998,
      "money": 2999,
      "beng": 3000,
      "function": 3001,
      "idence": 3002,
      "रजनतक": 3003,
      "बप": 3004,
      "cert": 3005,
      "jun": 3006,
      "aled": 3007,
      "growth": 3008,
      "ala": 3009,
      "believed": 3010,
      "environment": 3011,
      "ससधन": 3012,
      "rection": 3013,
      "certainly": 3014,
      "chan": 3015,
      "यम": 3016,
      "मनन": 3017,
      "नससद": 3018,
      "mater": 3019,
      "नससदह": 3020,
      "ats": 3021,
      "cast": 3022,
      "ours": 3023,
      "files": 3024,
      "bud": 3025,
      "six": 3026,
      "promo": 3027,
      "vin": 3028,
      "hammad": 3029,
      "जद": 3030,
      "related": 3031,
      "visions": 3032,
      "og": 3033,
      "feel": 3034,
      "जबत": 3035,
      "aut": 3036,
      "adminis": 3037,
      "plement": 3038,
      "ju": 3039,
      "once": 3040,
      "compan": 3041,
      "भमक": 3042,
      "taking": 3043,
      "महम": 3044,
      "धक": 3045,
      "सनत": 3046,
      "chand": 3047,
      "बरहम": 3048,
      "road": 3049,
      "ek": 3050,
      "जलद": 3051,
      "crit": 3052,
      "failed": 3053,
      "pati": 3054,
      "forms": 3055,
      "मच": 3056,
      "इसलम": 3057,
      "नयतरण": 3058,
      "खब": 3059,
      "moder": 3060,
      "received": 3061,
      "visit": 3062,
      "ससर": 3063,
      "कलक": 3064,
      "2014": 3065,
      "quality": 3066,
      "several": 3067,
      "सफलत": 3068,
      "cing": 3069,
      "fill": 3070,
      "दसतवज": 3071,
      "bh": 3072,
      "शसन": 3073,
      "तमम": 3074,
      "copy": 3075,
      "wo": 3076,
      "फत": 3077,
      "अनमत": 3078,
      "probab": 3079,
      "सतरय": 3080,
      "agree": 3081,
      "यण": 3082,
      "gar": 3083,
      "itional": 3084,
      "जयग": 3085,
      "वचन": 3086,
      "step": 3087,
      "समदय": 3088,
      "टप": 3089,
      "tra": 3090,
      "young": 3091,
      "रसत": 3092,
      "भतर": 3093,
      "हलत": 3094,
      "meeting": 3095,
      "strong": 3096,
      "नशन": 3097,
      "english": 3098,
      "british": 3099,
      "अश": 3100,
      "खस": 3101,
      "display": 3102,
      "remember": 3103,
      "saw": 3104,
      "translation": 3105,
      "नहर": 3106,
      "sof": 3107,
      "वकलप": 3108,
      "decl": 3109,
      "27": 3110,
      "jan": 3111,
      "asses": 3112,
      "working": 3113,
      "union": 3114,
      "अतररषटरय": 3115,
      "bility": 3116,
      "जतन": 3117,
      "चट": 3118,
      "कषर": 3119,
      "सहयक": 3120,
      "aware": 3121,
      "mir": 3122,
      "उपयकत": 3123,
      "nar": 3124,
      "html": 3125,
      "tu": 3126,
      "रकष": 3127,
      "categ": 3128,
      "opport": 3129,
      "आरभ": 3130,
      "farm": 3131,
      "opportun": 3132,
      "ईस": 3133,
      "begin": 3134,
      "coming": 3135,
      "impro": 3136,
      "सरवर": 3137,
      "production": 3138,
      "stri": 3139,
      "muhammad": 3140,
      "soon": 3141,
      "recogn": 3142,
      "mas": 3143,
      "dar": 3144,
      "link": 3145,
      "atic": 3146,
      "cies": 3147,
      "graph": 3148,
      "तकनक": 3149,
      "user": 3150,
      "maint": 3151,
      "ried": 3152,
      "सहज": 3153,
      "सभव": 3154,
      "required": 3155,
      "अधययन": 3156,
      "ns": 3157,
      "acts": 3158,
      "forward": 3159,
      "नजल": 3160,
      "brother": 3161,
      "progress": 3162,
      "यथ": 3163,
      "जहननम": 3164,
      "occasion": 3165,
      "ministry": 3166,
      "दरज": 3167,
      "lot": 3168,
      "olution": 3169,
      "initi": 3170,
      "ऑफ": 3171,
      "सहतय": 3172,
      "became": 3173,
      "whate": 3174,
      "whatever": 3175,
      "अलव": 3176,
      "verse": 3177,
      "घड": 3178,
      "probably": 3179,
      "isra": 3180,
      "party": 3181,
      "external": 3182,
      "गवह": 3183,
      "ources": 3184,
      "committee": 3185,
      "singh": 3186,
      "आसन": 3187,
      "bt": 3188,
      "पगम": 3189,
      "60": 3190,
      "stre": 3191,
      "check": 3192,
      "sor": 3193,
      "role": 3194,
      "optional": 3195,
      "सगरह": 3196,
      "वरदध": 3197,
      "hor": 3198,
      "administr": 3199,
      "mercy": 3200,
      "सथल": 3201,
      "भगतन": 3202,
      "secret": 3203,
      "character": 3204,
      "भनन": 3205,
      "met": 3206,
      "princi": 3207,
      "ins": 3208,
      "either": 3209,
      "sha": 3210,
      "forth": 3211,
      "यव": 3212,
      "परबधन": 3213,
      "नयकत": 3214,
      "inno": 3215,
      "मशन": 3216,
      "guide": 3217,
      "gri": 3218,
      "server": 3219,
      "नतय": 3220,
      "फरक": 3221,
      "grant": 3222,
      "कदम": 3223,
      "मजबत": 3224,
      "property": 3225,
      "da": 3226,
      "reward": 3227,
      "जनवर": 3228,
      "mode": 3229,
      "समबनध": 3230,
      "पलट": 3231,
      "ges": 3232,
      "ences": 3233,
      "ja": 3234,
      "personal": 3235,
      "activities": 3236,
      "दनक": 3237,
      "def": 3238,
      "augh": 3239,
      "सहन": 3240,
      "उपसथत": 3241,
      "independ": 3242,
      "बझ": 3243,
      "knows": 3244,
      "hindu": 3245,
      "सवद": 3246,
      "hous": 3247,
      "deal": 3248,
      "pers": 3249,
      "कहग": 3250,
      "परवक": 3251,
      "उपकरण": 3252,
      "31": 3253,
      "सबत": 3254,
      "कद": 3255,
      "joy": 3256,
      "science": 3257,
      "south": 3258,
      "कगर": 3259,
      "hands": 3260,
      "corpor": 3261,
      "वजञनक": 3262,
      "उतपनन": 3263,
      "civil": 3264,
      "गहर": 3265,
      "rope": 3266,
      "कठन": 3267,
      "continu": 3268,
      "tered": 3269,
      "समरथन": 3270,
      "लडक": 3271,
      "ककष": 3272,
      "घन": 3273,
      "institutions": 3274,
      "fut": 3275,
      "trade": 3276,
      "example": 3277,
      "integr": 3278,
      "नरमत": 3279,
      "कप": 3280,
      "thought": 3281,
      "नयन": 3282,
      "works": 3283,
      "uary": 3284,
      "lak": 3285,
      "भय": 3286,
      "ude": 3287,
      "आखरत": 3288,
      "market": 3289,
      "implement": 3290,
      "webs": 3291,
      "charge": 3292,
      "changes": 3293,
      "ension": 3294,
      "सनन": 3295,
      "council": 3296,
      "rich": 3297,
      "anything": 3298,
      "पररभ": 3299,
      "चड": 3300,
      "mach": 3301,
      "fast": 3302,
      "वषण": 3303,
      "ped": 3304,
      "सखत": 3305,
      "2015": 3306,
      "situ": 3307,
      "दक": 3308,
      "परशकषण": 3309,
      "none": 3310,
      "material": 3311,
      "sis": 3312,
      "went": 3313,
      "ering": 3314,
      "सनशचत": 3315,
      "आपस": 3316,
      "ute": 3317,
      "constitution": 3318,
      "pradesh": 3319,
      "dele": 3320,
      "ऊरज": 3321,
      "इसतमल": 3322,
      "hara": 3323,
      "treat": 3324,
      "provisions": 3325,
      "बयन": 3326,
      "constru": 3327,
      "मनक": 3328,
      "ently": 3329,
      "fault": 3330,
      "करयलय": 3331,
      "purpose": 3332,
      "सधरण": 3333,
      "energy": 3334,
      "ense": 3335,
      "community": 3336,
      "वबस": 3337,
      "contact": 3338,
      "बलकल": 3339,
      "west": 3340,
      "programme": 3341,
      "modern": 3342,
      "color": 3343,
      "therein": 3344,
      "paid": 3345,
      "आधनक": 3346,
      "simil": 3347,
      "बम": 3348,
      "bel": 3349,
      "ened": 3350,
      "male": 3351,
      "पगमबर": 3352,
      "big": 3353,
      "exchange": 3354,
      "ises": 3355,
      "40": 3356,
      "कवत": 3357,
      "hath": 3358,
      "moses": 3359,
      "परयकत": 3360,
      "80": 3361,
      "गलत": 3362,
      "host": 3363,
      "version": 3364,
      "afr": 3365,
      "ively": 3366,
      "training": 3367,
      "ker": 3368,
      "बढत": 3369,
      "experi": 3370,
      "higher": 3371,
      "dy": 3372,
      "वजनक": 3373,
      "size": 3374,
      "itself": 3375,
      "उड": 3376,
      "necessary": 3377,
      "सरवजनक": 3378,
      "मश": 3379,
      "शकषक": 3380,
      "computer": 3381,
      "justice": 3382,
      "ale": 3383,
      "mber": 3384,
      "sequ": 3385,
      "kr": 3386,
      "band": 3387,
      "decis": 3388,
      "समदर": 3389,
      "soul": 3390,
      "फरशत": 3391,
      "खलत": 3392,
      "उपबध": 3393,
      "वलय": 3394,
      "उनपर": 3395,
      "demand": 3396,
      "रपरट": 3397,
      "पकर": 3398,
      "diffic": 3399,
      "मनय": 3400,
      "centre": 3401,
      "नजर": 3402,
      "वबसइट": 3403,
      "living": 3404,
      "नगरक": 3405,
      "building": 3406,
      "गजर": 3407,
      "णश": 3408,
      "पव": 3409,
      "demo": 3410,
      "established": 3411,
      "ani": 3412,
      "books": 3413,
      "page": 3414,
      "शयर": 3415,
      "aries": 3416,
      "cover": 3417,
      "नयत": 3418,
      "acc": 3419,
      "squ": 3420,
      "congress": 3421,
      "इनम": 3422,
      "grad": 3423,
      "credit": 3424,
      "नरदश": 3425,
      "industrial": 3426,
      "district": 3427,
      "शरम": 3428,
      "tool": 3429,
      "doing": 3430,
      "छष": 3431,
      "मलम": 3432,
      "sac": 3433,
      "ऊणश": 3434,
      "students": 3435,
      "ऊणशछष": 3436,
      "priv": 3437,
      "official": 3438,
      "शखस": 3439,
      "एकस": 3440,
      "ordin": 3441,
      "profess": 3442,
      "सगर": 3443,
      "कटर": 3444,
      "future": 3445,
      "nal": 3446,
      "sit": 3447,
      "डज": 3448,
      "terror": 3449,
      "मदन": 3450,
      "उम": 3451,
      "north": 3452,
      "task": 3453,
      "सरकषत": 3454,
      "2018": 3455,
      "design": 3456,
      "range": 3457,
      "greater": 3458,
      "ided": 3459,
      "written": 3460,
      "फस": 3461,
      "scient": 3462,
      "ease": 3463,
      "behind": 3464,
      "ईमनदर": 3465,
      "website": 3466,
      "यकनन": 3467,
      "dies": 3468,
      "till": 3469,
      "poses": 3470,
      "पदर": 3471,
      "jour": 3472,
      "ners": 3473,
      "जतय": 3474,
      "expect": 3475,
      "guidance": 3476,
      "सरचन": 3477,
      "certific": 3478,
      "कठ": 3479,
      "भवषय": 3480,
      "वई": 3481,
      "ons": 3482,
      "started": 3483,
      "kill": 3484,
      "deli": 3485,
      "वशय": 3486,
      "valid": 3487,
      "merc": 3488,
      "वडय": 3489,
      "east": 3490,
      "round": 3491,
      "global": 3492,
      "asked": 3493,
      "बकर": 3494,
      "समकष": 3495,
      "fight": 3496,
      "release": 3497,
      "entire": 3498,
      "bear": 3499,
      "umb": 3500,
      "safe": 3501,
      "teous": 3502,
      "print": 3503,
      "prophet": 3504,
      "formed": 3505,
      "lay": 3506,
      "दखय": 3507,
      "अतयनत": 3508,
      "europe": 3509,
      "wealth": 3510,
      "region": 3511,
      "standing": 3512,
      "छतर": 3513,
      "tour": 3514,
      "acity": 3515,
      "कगरस": 3516,
      "कब": 3517,
      "logical": 3518,
      "source": 3519,
      "पकड": 3520,
      "पसद": 3521,
      "legisl": 3522,
      "वयपक": 3523,
      "separ": 3524,
      "भड": 3525,
      "officer": 3526,
      "aught": 3527,
      "कशश": 3528,
      "determin": 3529,
      "गरमण": 3530,
      "meth": 3531,
      "condu": 3532,
      "2016": 3533,
      "outs": 3534,
      "phys": 3535,
      "specified": 3536,
      "pread": 3537,
      "natural": 3538,
      "igh": 3539,
      "नवन": 3540,
      "particip": 3541,
      "bad": 3542,
      "उपन": 3543,
      "goods": 3544,
      "messages": 3545,
      "ko": 3546,
      "जग": 3547,
      "sil": 3548,
      "movement": 3549,
      "2000": 3550,
      "परकट": 3551,
      "acqu": 3552,
      "merciful": 3553,
      "35": 3554,
      "चरच": 3555,
      "सपर": 3556,
      "इचछ": 3557,
      "29": 3558,
      "tas": 3559,
      "वष": 3560,
      "अनतर": 3561,
      "आखर": 3562,
      "parts": 3563,
      "सनक": 3564,
      "referred": 3565,
      "sab": 3566,
      "सवरप": 3567,
      "उट": 3568,
      "exe": 3569,
      "परसतव": 3570,
      "परसकर": 3571,
      "write": 3572,
      "kh": 3573,
      "2013": 3574,
      "कवय": 3575,
      "box": 3576,
      "persons": 3577,
      "soever": 3578,
      "relation": 3579,
      "pra": 3580,
      "issue": 3581,
      "deep": 3582,
      "उचत": 3583,
      "stu": 3584,
      "wat": 3585,
      "moun": 3586,
      "करमण": 3587,
      "citiz": 3588,
      "imum": 3589,
      "loss": 3590,
      "century": 3591,
      "judge": 3592,
      "revealed": 3593,
      "ication": 3594,
      "गरब": 3595,
      "hell": 3596,
      "औरत": 3597,
      "अपल": 3598,
      "ross": 3599,
      "river": 3600,
      "brah": 3601,
      "dece": 3602,
      "rules": 3603,
      "बतय": 3604,
      "वयकतय": 3605,
      "righteous": 3606,
      "besides": 3607,
      "वजह": 3608,
      "समरह": 3609,
      "result": 3610,
      "space": 3611,
      "कदरय": 3612,
      "similar": 3613,
      "उललख": 3614,
      "story": 3615,
      "वधन": 3616,
      "rup": 3617,
      "pho": 3618,
      "जक": 3619,
      "परयपत": 3620,
      "अरथत": 3621,
      "script": 3622,
      "posit": 3623,
      "hood": 3624,
      "सकतक": 3625,
      "freed": 3626,
      "tray": 3627,
      "innov": 3628,
      "एशय": 3629,
      "परसर": 3630,
      "muslims": 3631,
      "भषण": 3632,
      "सवल": 3633,
      "temple": 3634,
      "qur": 3635,
      "xed": 3636,
      "itation": 3637,
      "subst": 3638,
      "document": 3639,
      "सफर": 3640,
      "गरज": 3641,
      "aves": 3642,
      "past": 3643,
      "ficient": 3644,
      "blood": 3645,
      "earli": 3646,
      "ilt": 3647,
      "months": 3648,
      "wal": 3649,
      "शह": 3650,
      "tree": 3651,
      "uses": 3652,
      "birth": 3653,
      "defin": 3654,
      "आवदन": 3655,
      "lat": 3656,
      "बठक": 3657,
      "excell": 3658,
      "payment": 3659,
      "saying": 3660,
      "benefit": 3661,
      "poor": 3662,
      "¤¸": 3663,
      "सममलन": 3664,
      "village": 3665,
      "खतर": 3666,
      "attach": 3667,
      "gest": 3668,
      "हड": 3669,
      "ढग": 3670,
      "नशनय": 3671,
      "दखई": 3672,
      "सवततरत": 3673,
      "मरश": 3674,
      "fru": 3675,
      "appointed": 3676,
      "वयर": 3677,
      "democr": 3678,
      "culture": 3679,
      "शरक": 3680,
      "protect": 3681,
      "शलक": 3682,
      "कषट": 3683,
      "ba": 3684,
      "needs": 3685,
      "rights": 3686,
      "fal": 3687,
      "single": 3688,
      "miss": 3689,
      "करयन": 3690,
      "जवब": 3691,
      "room": 3692,
      "hat": 3693,
      "execut": 3694,
      "told": 3695,
      "eyes": 3696,
      "औदयगक": 3697,
      "sett": 3698,
      "beaut": 3699,
      "allowed": 3700,
      "परदरशन": 3701,
      "नरयत": 3702,
      "१९": 3703,
      "ina": 3704,
      "sound": 3705,
      "method": 3706,
      "spee": 3707,
      "turned": 3708,
      "israel": 3709,
      "परबध": 3710,
      "गस": 3711,
      "चहय": 3712,
      "आल": 3713,
      "शयद": 3714,
      "remove": 3715,
      "बनकर": 3716,
      "transfer": 3717,
      "चढ": 3718,
      "break": 3719,
      "जट": 3720,
      "अफ": 3721,
      "mr": 3722,
      "seek": 3723,
      "बरट": 3724,
      "mention": 3725,
      "intel": 3726,
      "सलह": 3727,
      "bengal": 3728,
      "मलग": 3729,
      "video": 3730,
      "aud": 3731,
      "अरब": 3732,
      "forts": 3733,
      "atives": 3734,
      "पतत": 3735,
      "aid": 3736,
      "इनह": 3737,
      "आतक": 3738,
      "istan": 3739,
      "iii": 3740,
      "wide": 3741,
      "rural": 3742,
      "ending": 3743,
      "viol": 3744,
      "इटर": 3745,
      "problem": 3746,
      "rrb": 3747,
      "alone": 3748,
      "कमत": 3749,
      "bhar": 3750,
      "मरच": 3751,
      "invol": 3752,
      "terms": 3753,
      "discus": 3754,
      "sam": 3755,
      "iction": 3756,
      "यगदन": 3757,
      "freedom": 3758,
      "परषद": 3759,
      "01": 3760,
      "cially": 3761,
      "आयग": 3762,
      "sea": 3763,
      "vert": 3764,
      "lies": 3765,
      "bid": 3766,
      "आवज": 3767,
      "comment": 3768,
      "prep": 3769,
      "gives": 3770,
      "रकम": 3771,
      "reser": 3772,
      "neither": 3773,
      "tele": 3774,
      "div": 3775,
      "default": 3776,
      "super": 3777,
      "पप": 3778,
      "arab": 3779,
      "bran": 3780,
      "लखक": 3781,
      "install": 3782,
      "चयनत": 3783,
      "flo": 3784,
      "whoever": 3785,
      "lrb": 3786,
      "ators": 3787,
      "cious": 3788,
      "फलम": 3789,
      "बलय": 3790,
      "problems": 3791,
      "करबर": 3792,
      "basis": 3793,
      "sense": 3794,
      "category": 3795,
      "सरय": 3796,
      "अकल": 3797,
      "often": 3798,
      "religious": 3799,
      "connect": 3800,
      "som": 3801,
      "hum": 3802,
      "बचन": 3803,
      "अड": 3804,
      "assessment": 3805,
      "परतक": 3806,
      "cry": 3807,
      "हमत": 3808,
      "seven": 3809,
      "सवचछ": 3810,
      "destroy": 3811,
      "उपय": 3812,
      "मलकर": 3813,
      "ival": 3814,
      "pleas": 3815,
      "परभवत": 3816,
      "हसल": 3817,
      "news": 3818,
      "phas": 3819,
      "purposes": 3820,
      "job": 3821,
      "lines": 3822,
      "possess": 3823,
      "approach": 3824,
      "शसतर": 3825,
      "depend": 3826,
      "पए": 3827,
      "conside": 3828,
      "event": 3829,
      "considered": 3830,
      "पकत": 3831,
      "eat": 3832,
      "दवस": 3833,
      "status": 3834,
      "literature": 3835,
      "everything": 3836,
      "increase": 3837,
      "mitted": 3838,
      "oh": 3839,
      "spread": 3840,
      "vey": 3841,
      "ention": 3842,
      "पतन": 3843,
      "कशल": 3844,
      "ends": 3845,
      "नमज": 3846,
      "बमर": 3847,
      "creation": 3848,
      "issued": 3849,
      "poet": 3850,
      "दष": 3851,
      "distribut": 3852,
      "conditions": 3853,
      "वरय": 3854,
      "एड": 3855,
      "ara": 3856,
      "manner": 3857,
      "investment": 3858,
      "america": 3859,
      "आयजत": 3860,
      "lu": 3861,
      "¤¨": 3862,
      "वसतवक": 3863,
      "carry": 3864,
      "says": 3865,
      "यस": 3866,
      "rule": 3867,
      "united": 3868,
      "audi": 3869,
      "fig": 3870,
      "आकड": 3871,
      "सदरभ": 3872,
      "sty": 3873,
      "सरकषण": 3874,
      "spect": 3875,
      "early": 3876,
      "कनदरय": 3877,
      "itude": 3878,
      "wait": 3879,
      "certificate": 3880,
      "writing": 3881,
      "unit": 3882,
      "rain": 3883,
      "condition": 3884,
      "note": 3885,
      "passed": 3886,
      "reli": 3887,
      "trave": 3888,
      "दब": 3889,
      "सममन": 3890,
      "उठन": 3891,
      "08": 3892,
      "pes": 3893,
      "tit": 3894,
      "mighty": 3895,
      "phil": 3896,
      "recent": 3897,
      "efforts": 3898,
      "सड": 3899,
      "duty": 3900,
      "really": 3901,
      "lin": 3902,
      "परकशत": 3903,
      "नमनलखत": 3904,
      "गग": 3905,
      "infr": 3906,
      "institute": 3907,
      "अवशय": 3908,
      "bless": 3909,
      "जममदर": 3910,
      "usu": 3911,
      "wid": 3912,
      "rail": 3913,
      "गमर": 3914,
      "शव": 3915,
      "harm": 3916,
      "लप": 3917,
      "capacity": 3918,
      "chall": 3919,
      "खलन": 3920,
      "forest": 3921,
      "लघ": 3922,
      "messengers": 3923,
      "चहन": 3924,
      "matters": 3925,
      "नटवरक": 3926,
      "private": 3927,
      "laun": 3928,
      "difficult": 3929,
      "शतन": 3930,
      "अवसथ": 3931,
      "दयप": 3932,
      "तलन": 3933,
      "projects": 3934,
      "ससकरण": 3935,
      "doers": 3936,
      "कयत": 3937,
      "nu": 3938,
      "friends": 3939,
      "assessee": 3940,
      "mountain": 3941,
      "makes": 3942,
      "opt": 3943,
      "गमरह": 3944,
      "thous": 3945,
      "intro": 3946,
      "resources": 3947,
      "दयतव": 3948,
      "नथ": 3949,
      "devo": 3950,
      "bul": 3951,
      "झक": 3952,
      "plu": 3953,
      "anti": 3954,
      "परयवरण": 3955,
      "ढढ": 3956,
      "supre": 3957,
      "provision": 3958,
      "dam": 3959,
      "active": 3960,
      "वसतत": 3961,
      "won": 3962,
      "sust": 3963,
      "बतत": 3964,
      "reject": 3965,
      "पलक": 3966,
      "कदरत": 3967,
      "thousand": 3968,
      "सवओ": 3969,
      "चछद": 3970,
      "मरद": 3971,
      "आरम": 3972,
      "छडकर": 3973,
      "bin": 3974,
      "card": 3975,
      "knowing": 3976,
      "पदरथ": 3977,
      "partner": 3978,
      "kan": 3979,
      "सशधन": 3980,
      "दखल": 3981,
      "ging": 3982,
      "spo": 3983,
      "ler": 3984,
      "email": 3985,
      "vere": 3986,
      "collect": 3987,
      "plied": 3988,
      "यदयप": 3989,
      "ईशवर": 3990,
      "तथय": 3991,
      "मखरज": 3992,
      "सनद": 3993,
      "chol": 3994,
      "legal": 3995,
      "शष": 3996,
      "front": 3997,
      "million": 3998,
      "mut": 3999,
      "कनर": 4000,
      "लगय": 4001,
      "poe": 4002,
      "apply": 4003,
      "चकतस": 4004,
      "डरत": 4005,
      "पहड": 4006,
      "developed": 4007,
      "istic": 4008,
      "details": 4009,
      "affair": 4010,
      "opens": 4011,
      "कलकत": 4012,
      "mankind": 4013,
      "सदधत": 4014,
      "study": 4015,
      "जख": 4016,
      "सबह": 4017,
      "परमणपतर": 4018,
      "pranabmukherjee": 4019,
      "stay": 4020,
      "तरख": 4021,
      "sar": 4022,
      "hope": 4023,
      "असत": 4024,
      "dead": 4025,
      "bio": 4026,
      "emer": 4027,
      "रड": 4028,
      "वरणन": 4029,
      "परदरशत": 4030,
      "dro": 4031,
      "जगर": 4032,
      "prevent": 4033,
      "least": 4034,
      "ron": 4035,
      "continue": 4036,
      "गद": 4037,
      "woman": 4038,
      "march": 4039,
      "oud": 4040,
      "gir": 4041,
      "libr": 4042,
      "कलपन": 4043,
      "engine": 4044,
      "earlier": 4045,
      "मकबल": 4046,
      "ril": 4047,
      "article": 4048,
      "ison": 4049,
      "रजगर": 4050,
      "swe": 4051,
      "inc": 4052,
      "price": 4053,
      "mun": 4054,
      "yo": 4055,
      "rah": 4056,
      "कपयटर": 4057,
      "nel": 4058,
      "ders": 4059,
      "lled": 4060,
      "cup": 4061,
      "नटक": 4062,
      "sec": 4063,
      "अधकश": 4064,
      "गरहण": 4065,
      "जहर": 4066,
      "ties": 4067,
      "disease": 4068,
      "गढ": 4069,
      "republic": 4070,
      "deny": 4071,
      "kal": 4072,
      "आस": 4073,
      "इबरहम": 4074,
      "सथतय": 4075,
      "tam": 4076,
      "लकत": 4077,
      "accounts": 4078,
      "leader": 4079,
      "परकतक": 4080,
      "lives": 4081,
      "अधयकष": 4082,
      "पटर": 4083,
      "सचर": 4084,
      "बधई": 4085,
      "सवम": 4086,
      "achieve": 4087,
      "dle": 4088,
      "जज": 4089,
      "fest": 4090,
      "web": 4091,
      "गरफ": 4092,
      "appear": 4093,
      "max": 4094,
      "supreme": 4095,
      "almost": 4096,
      "वकफ": 4097,
      "सफट": 4098,
      "followed": 4099,
      "tou": 4100,
      "इजर": 4101,
      "atory": 4102,
      "cele": 4103,
      "code": 4104,
      "enjoy": 4105,
      "enable": 4106,
      "doubt": 4107,
      "angels": 4108,
      "receive": 4109,
      "introdu": 4110,
      "ultural": 4111,
      "193": 4112,
      "wife": 4113,
      "farmers": 4114,
      "दबर": 4115,
      "limited": 4116,
      "sched": 4117,
      "घषण": 4118,
      "promise": 4119,
      "जकर": 4120,
      "bound": 4121,
      "music": 4122,
      "wes": 4123,
      "include": 4124,
      "infras": 4125,
      "evolution": 4126,
      "serve": 4127,
      "attle": 4128,
      "petition": 4129,
      "population": 4130,
      "वयय": 4131,
      "obey": 4132,
      "धरमक": 4133,
      "परचन": 4134,
      "vered": 4135,
      "खलफ": 4136,
      "specific": 4137,
      "नरभर": 4138,
      "सनय": 4139,
      "infrastru": 4140,
      "krish": 4141,
      "मजर": 4142,
      "stor": 4143,
      "मडय": 4144,
      "third": 4145,
      "ris": 4146,
      "खदय": 4147,
      "wers": 4148,
      "गणन": 4149,
      "eth": 4150,
      "outside": 4151,
      "वरषक": 4152,
      "cra": 4153,
      "खरद": 4154,
      "अपरध": 4155,
      "az": 4156,
      "issues": 4157,
      "बयज": 4158,
      "2017": 4159,
      "belief": 4160,
      "दरय": 4161,
      "गणवतत": 4162,
      "normal": 4163,
      "divid": 4164,
      "नमक": 4165,
      "lic": 4166,
      "शकयत": 4167,
      "anal": 4168,
      "www": 4169,
      "तह": 4170,
      "stone": 4171,
      "regular": 4172,
      "clean": 4173,
      "itable": 4174,
      "shar": 4175,
      "inste": 4176,
      "ping": 4177,
      "revel": 4178,
      "अधकरय": 4179,
      "signific": 4180,
      "sans": 4181,
      "speech": 4182,
      "इज": 4183,
      "गजरत": 4184,
      "वदयरथ": 4185,
      "ढच": 4186,
      "original": 4187,
      "phone": 4188,
      "white": 4189,
      "immedi": 4190,
      "शतबद": 4191,
      "सपतत": 4192,
      "धकर": 4193,
      "cases": 4194,
      "houses": 4195,
      "चतन": 4196,
      "पतथर": 4197,
      "नब": 4198,
      "ug": 4199,
      "exper": 4200,
      "lakh": 4201,
      "star": 4202,
      "anci": 4203,
      "structure": 4204,
      "hour": 4205,
      "prim": 4206,
      "manu": 4207,
      "गतवधय": 4208,
      "director": 4209,
      "sugg": 4210,
      "ians": 4211,
      "lost": 4212,
      "ववह": 4213,
      "products": 4214,
      "skill": 4215,
      "placed": 4216,
      "हदयत": 4217,
      "krit": 4218,
      "गरइ": 4219,
      "fare": 4220,
      "सजन": 4221,
      "sibility": 4222,
      "false": 4223,
      "पध": 4224,
      "hereafter": 4225,
      "02": 4226,
      "green": 4227,
      "ring": 4228,
      "asia": 4229,
      "समधन": 4230,
      "gam": 4231,
      "सदन": 4232,
      "समदध": 4233,
      "बरत": 4234,
      "एच": 4235,
      "asing": 4236,
      "circ": 4237,
      "tag": 4238,
      "agreement": 4239,
      "¤²": 4240,
      "जवत": 4241,
      "सदव": 4242,
      "आदलन": 4243,
      "यकन": 4244,
      "ium": 4245,
      "chair": 4246,
      "शरषक": 4247,
      "abad": 4248,
      "emed": 4249,
      "resur": 4250,
      "sabha": 4251,
      "ching": 4252,
      "employment": 4253,
      "usion": 4254,
      "scre": 4255,
      "join": 4256,
      "टय": 4257,
      "institution": 4258,
      "रशन": 4259,
      "disbelieve": 4260,
      "सवकत": 4261,
      "atures": 4262,
      "kept": 4263,
      "below": 4264,
      "forgiving": 4265,
      "require": 4266,
      "ववद": 4267,
      "तमपर": 4268,
      "ires": 4269,
      "stra": 4270,
      "सममलत": 4271,
      "commer": 4272,
      "छत": 4273,
      "jab": 4274,
      "2007": 4275,
      "torment": 4276,
      "gardens": 4277,
      "takes": 4278,
      "prayer": 4279,
      "नकलन": 4280,
      "परकशन": 4281,
      "pair": 4282,
      "भगदर": 4283,
      "celebr": 4284,
      "असफल": 4285,
      "tware": 4286,
      "परतयकष": 4287,
      "experience": 4288,
      "सभवन": 4289,
      "employe": 4290,
      "aya": 4291,
      "respond": 4292,
      "rap": 4293,
      "agricultural": 4294,
      "bon": 4295,
      "टग": 4296,
      "पढन": 4297,
      "finance": 4298,
      "hund": 4299,
      "device": 4300,
      "names": 4301,
      "आतकवद": 4302,
      "produce": 4303,
      "software": 4304,
      "actions": 4305,
      "thre": 4306,
      "बढव": 4307,
      "across": 4308,
      "conscious": 4309,
      "मसलम": 4310,
      "description": 4311,
      "unbelievers": 4312,
      "09": 4313,
      "enough": 4314,
      "नरदशक": 4315,
      "instead": 4316,
      "groups": 4317,
      "strength": 4318,
      "cultural": 4319,
      "oil": 4320,
      "april": 4321,
      "password": 4322,
      "nag": 4323,
      "affect": 4324,
      "2012": 4325,
      "1961": 4326,
      "आपन": 4327,
      "भडर": 4328,
      "infrastructure": 4329,
      "कक": 4330,
      "गठ": 4331,
      "वशषत": 4332,
      "jar": 4333,
      "feed": 4334,
      "wall": 4335,
      "cks": 4336,
      "चकर": 4337,
      "export": 4338,
      "observ": 4339,
      "उदयम": 4340,
      "2019": 4341,
      "agriculture": 4342,
      "मरन": 4343,
      "वयकतगत": 4344,
      "फड": 4345,
      "nove": 4346,
      "happy": 4347,
      "attack": 4348,
      "ससकतक": 4349,
      "relations": 4350,
      "वकष": 4351,
      "item": 4352,
      "समझन": 4353,
      "आमतर": 4354,
      "इडय": 4355,
      "eness": 4356,
      "raised": 4357,
      "western": 4358,
      "rather": 4359,
      "आउट": 4360,
      "calend": 4361,
      "hundred": 4362,
      "guar": 4363,
      "delete": 4364,
      "request": 4365,
      "occur": 4366,
      "फरऔ": 4367,
      "परणब": 4368,
      "gold": 4369,
      "manufact": 4370,
      "दवप": 4371,
      "economy": 4372,
      "espe": 4373,
      "prescri": 4374,
      "ican": 4375,
      "वयन": 4376,
      "actually": 4377,
      "manag": 4378,
      "अपरल": 4379,
      "middle": 4380,
      "जबर": 4381,
      "पमन": 4382,
      "budd": 4383,
      "2006": 4384,
      "decision": 4385,
      "guided": 4386,
      "नग": 4387,
      "सहर": 4388,
      "physical": 4389,
      "sanskrit": 4390,
      "black": 4391,
      "tan": 4392,
      "thin": 4393,
      "relating": 4394,
      "nations": 4395,
      "award": 4396,
      "शघर": 4397,
      "अदर": 4398,
      "बरटश": 4399,
      "सपद": 4400,
      "ita": 4401,
      "places": 4402,
      "ney": 4403,
      "भगवन": 4404,
      "इजन": 4405,
      "influ": 4406,
      "improve": 4407,
      "argu": 4408,
      "अभलख": 4409,
      "वव": 4410,
      "enem": 4411,
      "अनपरयग": 4412,
      "prior": 4413,
      "dre": 4414,
      "अरथवयवसथ": 4415,
      "परवत": 4416,
      "ada": 4417,
      "वतन": 4418,
      "दरम": 4419,
      "satis": 4420,
      "ret": 4421,
      "letter": 4422,
      "fif": 4423,
      "ables": 4424,
      "अनचछद": 4425,
      "disput": 4426,
      "अतयत": 4427,
      "दहर": 4428,
      "मटट": 4429,
      "जडन": 4430,
      "ईमनवल": 4431,
      "strengthen": 4432,
      "चद": 4433,
      "शरआत": 4434,
      "lower": 4435,
      "weak": 4436,
      "apost": 4437,
      "अफरक": 4438,
      "learn": 4439,
      "तसर": 4440,
      "indic": 4441,
      "custom": 4442,
      "नकर": 4443,
      "built": 4444,
      "कफफर": 4445,
      "ero": 4446,
      "joint": 4447,
      "format": 4448,
      "ather": 4449,
      "dig": 4450,
      "लनवल": 4451,
      "कषतरय": 4452,
      "lling": 4453,
      "बढकर": 4454,
      "companies": 4455,
      "वधक": 4456,
      "चनत": 4457,
      "revol": 4458,
      "नप": 4459,
      "hus": 4460,
      "regul": 4461,
      "वयद": 4462,
      "disbelievers": 4463,
      "spr": 4464,
      "desire": 4465,
      "cd": 4466,
      "शद": 4467,
      "खयल": 4468,
      "unable": 4469,
      "popular": 4470,
      "gment": 4471,
      "ening": 4472,
      "परतभ": 4473,
      "कटत": 4474,
      "banks": 4475,
      "ior": 4476,
      "ably": 4477,
      "मप": 4478,
      "die": 4479,
      "multip": 4480,
      "teen": 4481,
      "ensure": 4482,
      "edit": 4483,
      "answer": 4484,
      "2005": 4485,
      "provides": 4486,
      "plugin": 4487,
      "proced": 4488,
      "ensive": 4489,
      "police": 4490,
      "2001": 4491,
      "cat": 4492,
      "astray": 4493,
      "bom": 4494,
      "सघरष": 4495,
      "meaning": 4496,
      "proceed": 4497,
      "jam": 4498,
      "imes": 4499,
      "loan": 4500,
      "cli": 4501,
      "languages": 4502,
      "base": 4503,
      "neg": 4504,
      "आदरश": 4505,
      "leaders": 4506,
      "manif": 4507,
      "बटन": 4508,
      "मबई": 4509,
      "subscri": 4510,
      "sper": 4511,
      "table": 4512,
      "sud": 4513,
      "mental": 4514,
      "carried": 4515,
      "sky": 4516,
      "शम": 4517,
      "published": 4518,
      "वकल": 4519,
      "75": 4520,
      "programmes": 4521,
      "decided": 4522,
      "prepared": 4523,
      "गपत": 4524,
      "grace": 4525,
      "अमत": 4526,
      "कमजर": 4527,
      "conduct": 4528,
      "cam": 4529,
      "haps": 4530,
      "pul": 4531,
      "medical": 4532,
      "wind": 4533,
      "वसतओ": 4534,
      "crore": 4535,
      "bri": 4536,
      "45": 4537,
      "चनव": 4538,
      "अनवरय": 4539,
      "उदर": 4540,
      "महततव": 4541,
      "radi": 4542,
      "signed": 4543,
      "easy": 4544,
      "favour": 4545,
      "dark": 4546,
      "परतन": 4547,
      "perhaps": 4548,
      "portion": 4549,
      "unless": 4550,
      "वरड": 4551,
      "scale": 4552,
      "connection": 4553,
      "assemb": 4554,
      "परचर": 4555,
      "sco": 4556,
      "चहग": 4557,
      "फरऔन": 4558,
      "especially": 4559,
      "week": 4560,
      "resident": 4561,
      "basic": 4562,
      "हसतकषर": 4563,
      "pent": 4564,
      "यरप": 4565,
      "वब": 4566,
      "provin": 4567,
      "करमक": 4568,
      "लद": 4569,
      "pak": 4570,
      "तझ": 4571,
      "expend": 4572,
      "दवत": 4573,
      "मसत": 4574,
      "सदय": 4575,
      "division": 4576,
      "conference": 4577,
      "folk": 4578,
      "मजदर": 4579,
      "नवस": 4580,
      "situation": 4581,
      "suggest": 4582,
      "इक": 4583,
      "style": 4584,
      "gor": 4585,
      "मम": 4586,
      "oso": 4587,
      "providing": 4588,
      "eight": 4589,
      "tempor": 4590,
      "encour": 4591,
      "ira": 4592,
      "values": 4593,
      "चहर": 4594,
      "कमन": 4595,
      "भद": 4596,
      "behalf": 4597,
      "film": 4598,
      "africa": 4599,
      "तड": 4600,
      "hom": 4601,
      "रद": 4602,
      "बजल": 4603,
      "सडक": 4604,
      "fit": 4605,
      "dated": 4606,
      "bow": 4607,
      "var": 4608,
      "fish": 4609,
      "stage": 4610,
      "origin": 4611,
      "rid": 4612,
      "फयद": 4613,
      "आएग": 4614,
      "figure": 4615,
      "ili": 4616,
      "iment": 4617,
      "plus": 4618,
      "advis": 4619,
      "photo": 4620,
      "acade": 4621,
      "accepted": 4622,
      "शरष": 4623,
      "industries": 4624,
      "गरहक": 4625,
      "दषटकण": 4626,
      "ami": 4627,
      "परवषट": 4628,
      "talk": 4629,
      "जनस": 4630,
      "टकड": 4631,
      "syn": 4632,
      "song": 4633,
      "covered": 4634,
      "youth": 4635,
      "ago": 4636,
      "directory": 4637,
      "बनई": 4638,
      "facilities": 4639,
      "game": 4640,
      "ससटम": 4641,
      "बधय": 4642,
      "discuss": 4643,
      "iture": 4644,
      "हरगज": 4645,
      "परणत": 4646,
      "मगल": 4647,
      "imate": 4648,
      "born": 4649,
      "असम": 4650,
      "परपर": 4651,
      "fied": 4652,
      "setting": 4653,
      "परवह": 4654,
      "percent": 4655,
      "बलत": 4656,
      "calendar": 4657,
      "shi": 4658,
      "governor": 4659,
      "christ": 4660,
      "ancient": 4661,
      "inion": 4662,
      "explan": 4663,
      "परशसन": 4664,
      "ªa": 4665,
      "estic": 4666,
      "gone": 4667,
      "फज": 4668,
      "suffer": 4669,
      "micro": 4670,
      "histor": 4671,
      "wood": 4672,
      "evidence": 4673,
      "वजद": 4674,
      "phy": 4675,
      "bil": 4676,
      "रदद": 4677,
      "library": 4678,
      "gang": 4679,
      "सझदर": 4680,
      "anda": 4681,
      "cise": 4682,
      "session": 4683,
      "महलओ": 4684,
      "सटक": 4685,
      "hun": 4686,
      "उतन": 4687,
      "नगम": 4688,
      "fered": 4689,
      "gi": 4690,
      "schol": 4691,
      "uk": 4692,
      "systems": 4693,
      "रच": 4694,
      "divine": 4695,
      "मसम": 4696,
      "वशवक": 4697,
      "concerned": 4698,
      "opportunity": 4699,
      "अकत": 4700,
      "सहमत": 4701,
      "वयवसय": 4702,
      "preci": 4703,
      "आजद": 4704,
      "independence": 4705,
      "lie": 4706,
      "uction": 4707,
      "content": 4708,
      "wro": 4709,
      "शश": 4710,
      "patient": 4711,
      "2008": 4712,
      "enty": 4713,
      "ered": 4714,
      "guard": 4715,
      "philoso": 4716,
      "liber": 4717,
      "अकसर": 4718,
      "90": 4719,
      "सरल": 4720,
      "vic": 4721,
      "bat": 4722,
      "बवजद": 4723,
      "वनरदषट": 4724,
      "forces": 4725,
      "herit": 4726,
      "protection": 4727,
      "परकषण": 4728,
      "simple": 4729,
      "increased": 4730,
      "sens": 4731,
      "पदधत": 4732,
      "sight": 4733,
      "mere": 4734,
      "choose": 4735,
      "abled": 4736,
      "notice": 4737,
      "obtain": 4738,
      "cult": 4739,
      "नसहत": 4740,
      "सपन": 4741,
      "करल": 4742,
      "importance": 4743,
      "कलय": 4744,
      "mass": 4745,
      "फरस": 4746,
      "वधयक": 4747,
      "arri": 4748,
      "मथ": 4749,
      "lad": 4750,
      "pack": 4751,
      "बहन": 4752,
      "decre": 4753,
      "conce": 4754,
      "गरव": 4755,
      "moon": 4756,
      "05": 4757,
      "गरथ": 4758,
      "officers": 4759,
      "महरबन": 4760,
      "powers": 4761,
      "अनवद": 4762,
      "beyond": 4763,
      "लइन": 4764,
      "आनद": 4765,
      "परभष": 4766,
      "reached": 4767,
      "poly": 4768,
      "ests": 4769,
      "ivity": 4770,
      "नस": 4771,
      "फरत": 4772,
      "परसदध": 4773,
      "caused": 4774,
      "dwell": 4775,
      "statement": 4776,
      "measure": 4777,
      "ley": 4778,
      "sex": 4779,
      "झगड": 4780,
      "master": 4781,
      "wrote": 4782,
      "सवए": 4783,
      "prescribed": 4784,
      "former": 4785,
      "07": 4786,
      "brow": 4787,
      "assu": 4788,
      "commissioner": 4789,
      "location": 4790,
      "paper": 4791,
      "शकतय": 4792,
      "kash": 4793,
      "oid": 4794,
      "rang": 4795,
      "explain": 4796,
      "town": 4797,
      "surance": 4798,
      "morning": 4799,
      "title": 4800,
      "सकरन": 4801,
      "परगरम": 4802,
      "chap": 4803,
      "cru": 4804,
      "tempt": 4805,
      "quar": 4806,
      "exer": 4807,
      "अधकतम": 4808,
      "गलब": 4809,
      "रव": 4810,
      "mod": 4811,
      "labor": 4812,
      "उततम": 4813,
      "restr": 4814,
      "सवततर": 4815,
      "sufficient": 4816,
      "परसन": 4817,
      "understanding": 4818,
      "जरए": 4819,
      "correct": 4820,
      "पजब": 4821,
      "पडग": 4822,
      "pict": 4823,
      "बकस": 4824,
      "becomes": 4825,
      "अधकतर": 4826,
      "marke": 4827,
      "responsible": 4828,
      "mary": 4829,
      "sri": 4830,
      "mp": 4831,
      "कतर": 4832,
      "itary": 4833,
      "gets": 4834,
      "instrument": 4835,
      "सरदर": 4836,
      "thereof": 4837,
      "flag": 4838,
      "affairs": 4839,
      "नहत": 4840,
      "verses": 4841,
      "contr": 4842,
      "treatment": 4843,
      "explanation": 4844,
      "मबद": 4845,
      "bun": 4846,
      "transport": 4847,
      "poll": 4848,
      "learning": 4849,
      "limit": 4850,
      "somet": 4851,
      "ming": 4852,
      "उधर": 4853,
      "fixed": 4854,
      "वदयत": 4855,
      "bay": 4856,
      "वफल": 4857,
      "नदशक": 4858,
      "heaven": 4859,
      "टइ": 4860,
      "getting": 4861,
      "activity": 4862,
      "gas": 4863,
      "empt": 4864,
      "effective": 4865,
      "कलज": 4866,
      "हय": 4867,
      "नयमत": 4868,
      "resurrection": 4869,
      "sid": 4870,
      "सकट": 4871,
      "¤®": 4872,
      "ane": 4873,
      "ships": 4874,
      "assistance": 4875,
      "citizens": 4876,
      "nav": 4877,
      "परभर": 4878,
      "aff": 4879,
      "lands": 4880,
      "crim": 4881,
      "bile": 4882,
      "assembly": 4883,
      "administration": 4884,
      "began": 4885,
      "yourselves": 4886,
      "बनयद": 4887,
      "aughter": 4888,
      "url": 4889,
      "apart": 4890,
      "belongs": 4891,
      "2002": 4892,
      "fection": 4893,
      "supported": 4894,
      "परतषठ": 4895,
      "relev": 4896,
      "खवह": 4897,
      "rivers": 4898,
      "uring": 4899,
      "shown": 4900,
      "territ": 4901,
      "आयजन": 4902,
      "दरघ": 4903,
      "generally": 4904,
      "pure": 4905,
      "died": 4906,
      "fed": 4907,
      "final": 4908,
      "मरगदरशन": 4909,
      "36": 4910,
      "perfor": 4911,
      "settings": 4912,
      "iva": 4913,
      "मनए": 4914,
      "gujar": 4915,
      "idea": 4916,
      "परभत": 4917,
      "itive": 4918,
      "भट": 4919,
      "हरम": 4920,
      "परसपर": 4921,
      "scientific": 4922,
      "दकर": 4923,
      "पररप": 4924,
      "ki": 4925,
      "उलट": 4926,
      "पकषय": 4927,
      "disc": 4928,
      "parents": 4929,
      "ढल": 4930,
      "पठय": 4931,
      "grat": 4932,
      "boy": 4933,
      "ously": 4934,
      "pie": 4935,
      "goes": 4936,
      "उममद": 4937,
      "usually": 4938,
      "धवन": 4939,
      "click": 4940,
      "aver": 4941,
      "कशमर": 4942,
      "spiritual": 4943,
      "शभक": 4944,
      "manifest": 4945,
      "added": 4946,
      "पषट": 4947,
      "सफरश": 4948,
      "कलयण": 4949,
      "ipur": 4950,
      "proof": 4951,
      "quran": 4952,
      "बदर": 4953,
      "hill": 4954,
      "सपषटकरण": 4955,
      "कठर": 4956,
      "मनयत": 4957,
      "नरश": 4958,
      "association": 4959,
      "felt": 4960,
      "steps": 4961,
      "pil": 4962,
      "chast": 4963,
      "ggle": 4964,
      "वजय": 4965,
      "annual": 4966,
      "mom": 4967,
      "dered": 4968,
      "labour": 4969,
      "आजञ": 4970,
      "तकल": 4971,
      "heard": 4972,
      "cc": 4973,
      "units": 4974,
      "सवभव": 4975,
      "सफटवयर": 4976,
      "डस": 4977,
      "broad": 4978,
      "जमम": 4979,
      "beginning": 4980,
      "sle": 4981,
      "सरकश": 4982,
      "parad": 4983,
      "करमचरय": 4984,
      "servants": 4985,
      "existing": 4986,
      "घत": 4987,
      "medic": 4988,
      "gate": 4989,
      "online": 4990,
      "offer": 4991,
      "परधकर": 4992,
      "lection": 4993,
      "अभयन": 4994,
      "शतर": 4995,
      "ese": 4996,
      "quite": 4997,
      "कपड": 4998,
      "बदत": 4999,
      "returned": 5000,
      "03": 5001,
      "nath": 5002,
      "सतभ": 5003,
      "मलयकन": 5004,
      "regional": 5005,
      "मटए": 5006,
      "यसफ": 5007,
      "सपरण": 5008,
      "पटल": 5009,
      "generation": 5010,
      "construction": 5011,
      "भरस": 5012,
      "नकलत": 5013,
      "forgiven": 5014,
      "mot": 5015,
      "existence": 5016,
      "dial": 5017,
      "कमय": 5018,
      "running": 5019,
      "frame": 5020,
      "वतवरण": 5021,
      "automat": 5022,
      "sho": 5023,
      "बलन": 5024,
      "बबत": 5025,
      "तट": 5026,
      "female": 5027,
      "honour": 5028,
      "एकत": 5029,
      "अतयधक": 5030,
      "amend": 5031,
      "नकय": 5032,
      "झठलय": 5033,
      "bang": 5034,
      "pand": 5035,
      "टस": 5036,
      "ams": 5037,
      "कयम": 5038,
      "इतय": 5039,
      "सथर": 5040,
      "purch": 5041,
      "traditional": 5042,
      "shah": 5043,
      "repe": 5044,
      "ras": 5045,
      "अनत": 5046,
      "ades": 5047,
      "media": 5048,
      "छल": 5049,
      "कशक": 5050,
      "उमर": 5051,
      "jin": 5052,
      "deb": 5053,
      "direction": 5054,
      "collection": 5055,
      "ony": 5056,
      "मतलब": 5057,
      "deser": 5058,
      "ax": 5059,
      "परववरष": 5060,
      "foundation": 5061,
      "ball": 5062,
      "भतक": 5063,
      "laws": 5064,
      "praise": 5065,
      "अदय": 5066,
      "सजद": 5067,
      "हसब": 5068,
      "उसपर": 5069,
      "symb": 5070,
      "regarding": 5071,
      "चख": 5072,
      "memory": 5073,
      "रपए": 5074,
      "aka": 5075,
      "पकसतन": 5076,
      "perform": 5077,
      "उपचर": 5078,
      "ठकन": 5079,
      "लह": 5080,
      "else": 5081,
      "इबदत": 5082,
      "ममन": 5083,
      "greet": 5084,
      "voc": 5085,
      "icts": 5086,
      "parties": 5087,
      "severe": 5088,
      "addition": 5089,
      "cooperation": 5090,
      "महसस": 5091,
      "बहशत": 5092,
      "army": 5093,
      "filled": 5094,
      "plants": 5095,
      "शनय": 5096,
      "parent": 5097,
      "symbol": 5098,
      "उपभकत": 5099,
      "70": 5100,
      "asset": 5101,
      "32": 5102,
      "forbid": 5103,
      "wanted": 5104,
      "performan": 5105,
      "नकसन": 5106,
      "नरतर": 5107,
      "aug": 5108,
      "focus": 5109,
      "hosp": 5110,
      "सवगत": 5111,
      "changed": 5112,
      "contract": 5113,
      "presence": 5114,
      "आयकत": 5115,
      "imag": 5116,
      "सकन": 5117,
      "लमब": 5118,
      "practice": 5119,
      "hur": 5120,
      "pm": 5121,
      "explo": 5122,
      "connected": 5123,
      "doct": 5124,
      "मई": 5125,
      "pts": 5126,
      "although": 5127,
      "punjab": 5128,
      "करयनवयन": 5129,
      "दहन": 5130,
      "expected": 5131,
      "पररत": 5132,
      "supply": 5133,
      "responsibility": 5134,
      "concerning": 5135,
      "वतरण": 5136,
      "कतय": 5137,
      "शभकमनए": 5138,
      "cities": 5139,
      "hid": 5140,
      "ster": 5141,
      "unjust": 5142,
      "phara": 5143,
      "tab": 5144,
      "गभर": 5145,
      "types": 5146,
      "advance": 5147,
      "वनद": 5148,
      "additional": 5149,
      "options": 5150,
      "vict": 5151,
      "गरभ": 5152,
      "इजरयल": 5153,
      "arm": 5154,
      "colum": 5155,
      "¤¤": 5156,
      "गरसत": 5157,
      "pharaoh": 5158,
      "looking": 5159,
      "enance": 5160,
      "truly": 5161,
      "समसयओ": 5162,
      "hearing": 5163,
      "riage": 5164,
      "कररवई": 5165,
      "बजय": 5166,
      "पयर": 5167,
      "straight": 5168,
      "२००": 5169,
      "produced": 5170,
      "परसथतय": 5171,
      "significant": 5172,
      "परसननत": 5173,
      "pursu": 5174,
      "presented": 5175,
      "दढ": 5176,
      "परवधन": 5177,
      "potential": 5178,
      "भलई": 5179,
      "screen": 5180,
      "util": 5181,
      "sometimes": 5182,
      "compass": 5183,
      "gods": 5184,
      "anger": 5185,
      "spend": 5186,
      "थक": 5187,
      "extre": 5188,
      "encies": 5189,
      "इलकटर": 5190,
      "mentioned": 5191,
      "85": 5192,
      "poetry": 5193,
      "successful": 5194,
      "implementation": 5195,
      "lal": 5196,
      "गफ": 5197,
      "griev": 5198,
      "इतयद": 5199,
      "मध": 5200,
      "degre": 5201,
      "mou": 5202,
      "taste": 5203,
      "aspect": 5204,
      "immediately": 5205,
      "समरजय": 5206,
      "abrah": 5207,
      "सकलप": 5208,
      "जयत": 5209,
      "बदलन": 5210,
      "standard": 5211,
      "expenditure": 5212,
      "uttar": 5213,
      "anyone": 5214,
      "nical": 5215,
      "उतकषट": 5216,
      "associated": 5217,
      "islamic": 5218,
      "december": 5219,
      "1999": 5220,
      "workers": 5221,
      "33": 5222,
      "रकन": 5223,
      "लओ": 5224,
      "डलर": 5225,
      "अधर": 5226,
      "tation": 5227,
      "लस": 5228,
      "lock": 5229,
      "ideas": 5230,
      "january": 5231,
      "समचर": 5232,
      "shop": 5233,
      "thern": 5234,
      "garden": 5235,
      "kashmir": 5236,
      "शभ": 5237,
      "शकषण": 5238,
      "unknown": 5239,
      "दरशक": 5240,
      "bra": 5241,
      "वदवन": 5242,
      "हकमत": 5243,
      "fortun": 5244,
      "drug": 5245,
      "faces": 5246,
      "eye": 5247,
      "चनद": 5248,
      "fathers": 5249,
      "500": 5250,
      "blind": 5251,
      "लकषण": 5252,
      "strate": 5253,
      "advan": 5254,
      "modi": 5255,
      "leng": 5256,
      "gov": 5257,
      "परयजनओ": 5258,
      "वलयशन": 5259,
      "registr": 5260,
      "ank": 5261,
      "ससथओ": 5262,
      "opportunities": 5263,
      "हमल": 5264,
      "जखम": 5265,
      "cere": 5266,
      "appropri": 5267,
      "recomm": 5268,
      "परज": 5269,
      "consist": 5270,
      "षटर": 5271,
      "पररथ": 5272,
      "organization": 5273,
      "करतओ": 5274,
      "marks": 5275,
      "technical": 5276,
      "tradition": 5277,
      "डरन": 5278,
      "continued": 5279,
      "insect": 5280,
      "prosper": 5281,
      "hospital": 5282,
      "editor": 5283,
      "abraham": 5284,
      "knew": 5285,
      "organisation": 5286,
      "पहचत": 5287,
      "आसत": 5288,
      "सवदन": 5289,
      "preh": 5290,
      "octo": 5291,
      "सचलन": 5292,
      "guru": 5293,
      "excl": 5294,
      "animals": 5295,
      "lok": 5296,
      "funds": 5297,
      "शखश": 5298,
      "धरय": 5299,
      "speed": 5300,
      "तकलफ": 5301,
      "1st": 5302,
      "quot": 5303,
      "balance": 5304,
      "speaking": 5305,
      "मनट": 5306,
      "grand": 5307,
      "motion": 5308,
      "contribution": 5309,
      "असततव": 5310,
      "rec": 5311,
      "कलम": 5312,
      "गणरजय": 5313,
      "डब": 5314,
      "forgiveness": 5315,
      "october": 5316,
      "खरब": 5317,
      "नततव": 5318,
      "नतर": 5319,
      "sep": 5320,
      "ib": 5321,
      "disci": 5322,
      "compet": 5323,
      "xy": 5324,
      "documents": 5325,
      "kingdom": 5326,
      "भगय": 5327,
      "entry": 5328,
      "परयटन": 5329,
      "governments": 5330,
      "processing": 5331,
      "2011": 5332,
      "destroyed": 5333,
      "ik": 5334,
      "weather": 5335,
      "दखग": 5336,
      "jur": 5337,
      "एवलयशन": 5338,
      "til": 5339,
      "पहन": 5340,
      "mahar": 5341,
      "कमपन": 5342,
      "corporation": 5343,
      "american": 5344,
      "pad": 5345,
      "पषण": 5346,
      "परसग": 5347,
      "lying": 5348,
      "वयत": 5349,
      "satan": 5350,
      "contains": 5351,
      "isement": 5352,
      "दवतय": 5353,
      "beautiful": 5354,
      "04": 5355,
      "nay": 5356,
      "पलग": 5357,
      "बरई": 5358,
      "सपतह": 5359,
      "सभवत": 5360,
      "cha": 5361,
      "twenty": 5362,
      "occup": 5363,
      "रकरड": 5364,
      "सबर": 5365,
      "hide": 5366,
      "वमन": 5367,
      "relevant": 5368,
      "milk": 5369,
      "mumb": 5370,
      "सनतन": 5371,
      "benefits": 5372,
      "smo": 5373,
      "track": 5374,
      "करमचर": 5375,
      "complain": 5376,
      "पडन": 5377,
      "bihar": 5378,
      "अभवयकत": 5379,
      "review": 5380,
      "button": 5381,
      "tried": 5382,
      "करयवह": 5383,
      "अतरण": 5384,
      "increasing": 5385,
      "ier": 5386,
      "consul": 5387,
      "stood": 5388,
      "revolution": 5389,
      "खशन": 5390,
      "धश": 5391,
      "परतत": 5392,
      "तलक": 5393,
      "insurance": 5394,
      "stop": 5395,
      "जगल": 5396,
      "numbers": 5397,
      "november": 5398,
      "essential": 5399,
      "अनसरण": 5400,
      "पजय": 5401,
      "रजर": 5402,
      "आधय": 5403,
      "imp": 5404,
      "famous": 5405,
      "temporary": 5406,
      "नरवचन": 5407,
      "वदयरथय": 5408,
      "schemes": 5409,
      "painful": 5410,
      "completed": 5411,
      "फरन": 5412,
      "पकज": 5413,
      "ule": 5414,
      "पचग": 5415,
      "खच": 5416,
      "परतसहन": 5417,
      "mumbai": 5418,
      "मजज": 5419,
      "दसतन": 5420,
      "wishes": 5421,
      "bot": 5422,
      "oured": 5423,
      "pakistan": 5424,
      "invalid": 5425,
      "chandra": 5426,
      "revelations": 5427,
      "अरज": 5428,
      "06": 5429,
      "circum": 5430,
      "आपरत": 5431,
      "खणड": 5432,
      "innovation": 5433,
      "तहसक": 5434,
      "concl": 5435,
      "permission": 5436,
      "कपनय": 5437,
      "items": 5438,
      "goog": 5439,
      "हमस": 5440,
      "complex": 5441,
      "rise": 5442,
      "वरप": 5443,
      "terrorism": 5444,
      "mur": 5445,
      "बसत": 5446,
      "tamil": 5447,
      "manager": 5448,
      "असल": 5449,
      "mountains": 5450,
      "shr": 5451,
      "particularly": 5452,
      "बदलव": 5453,
      "challeng": 5454,
      "insp": 5455,
      "serious": 5456,
      "cs": 5457,
      "इकट": 5458,
      "जहद": 5459,
      "cross": 5460,
      "बतचत": 5461,
      "परहज": 5462,
      "standards": 5463,
      "assets": 5464,
      "measures": 5465,
      "democracy": 5466,
      "secure": 5467,
      "feet": 5468,
      "लज": 5469,
      "throw": 5470,
      "attain": 5471,
      "educational": 5472,
      "weight": 5473,
      "इकई": 5474,
      "google": 5475,
      "महममद": 5476,
      "आओ": 5477,
      "सलम": 5478,
      "judic": 5479,
      "ofindia": 5480,
      "पशन": 5481,
      "perman": 5482,
      "includes": 5483,
      "हसन": 5484,
      "जननत": 5485,
      "comb": 5486,
      "otherwise": 5487,
      "आठ": 5488,
      "diction": 5489,
      "डउन": 5490,
      "लकपरय": 5491,
      "performance": 5492,
      "input": 5493,
      "ऐतहसक": 5494,
      "grate": 5495,
      "foot": 5496,
      "orders": 5497,
      "rupe": 5498,
      "उभर": 5499,
      "mechan": 5500,
      "presidentofindia": 5501,
      "fruit": 5502,
      "husband": 5503,
      "रट": 5504,
      "remote": 5505,
      "sons": 5506,
      "audio": 5507,
      "arrange": 5508,
      "forgive": 5509,
      "chairman": 5510,
      "hours": 5511,
      "सहकर": 5512,
      "krishna": 5513,
      "घरल": 5514,
      "लडई": 5515,
      "college": 5516,
      "june": 5517,
      "परतकरय": 5518,
      "gent": 5519,
      "geo": 5520,
      "virt": 5521,
      "reflect": 5522,
      "reference": 5523,
      "जनद": 5524,
      "laid": 5525,
      "mac": 5526,
      "¤¯": 5527,
      "expression": 5528,
      "इकटठ": 5529,
      "staff": 5530,
      "अदयतन": 5531,
      "इसन": 5532,
      "नयनतम": 5533,
      "sacri": 5534,
      "bharat": 5535,
      "info": 5536,
      "वदक": 5537,
      "visible": 5538,
      "announ": 5539,
      "deemed": 5540,
      "पररण": 5541,
      "sudden": 5542,
      "परथमकत": 5543,
      "welfare": 5544,
      "लकततर": 5545,
      "पई": 5546,
      "inside": 5547,
      "परमरश": 5548,
      "रषट": 5549,
      "दखभल": 5550,
      "violence": 5551,
      "अनदर": 5552,
      "reading": 5553,
      "maximum": 5554,
      "इश": 5555,
      "गरड": 5556,
      "adop": 5557,
      "मनसक": 5558,
      "बहय": 5559,
      "खतयर": 5560,
      "divided": 5561,
      "employees": 5562,
      "नषट": 5563,
      "confi": 5564,
      "granted": 5565,
      "septem": 5566,
      "named": 5567,
      "खतम": 5568,
      "रण": 5569,
      "distin": 5570,
      "communication": 5571,
      "september": 5572,
      "आतरक": 5573,
      "quick": 5574,
      "दखकर": 5575,
      "length": 5576,
      "spl": 5577,
      "शदध": 5578,
      "नयस": 5579,
      "team": 5580,
      "chapter": 5581,
      "drink": 5582,
      "leading": 5583,
      "paradise": 5584,
      "das": 5585,
      "pattern": 5586,
      "communic": 5587,
      "ini": 5588,
      "लगतर": 5589,
      "reduc": 5590,
      "someone": 5591,
      "principal": 5592,
      "minimum": 5593,
      "महततवपरण": 5594,
      "trial": 5595,
      "warn": 5596,
      "bestow": 5597,
      "उपनयस": 5598,
      "hib": 5599,
      "wis": 5600,
      "2009": 5601,
      "खजन": 5602,
      "avoid": 5603,
      "इसर": 5604,
      "2004": 5605,
      "calcut": 5606,
      "ende": 5607,
      "arily": 5608,
      "समसत": 5609,
      "imper": 5610,
      "uri": 5611,
      "memor": 5612,
      "टरक": 5613,
      "rent": 5614,
      "2003": 5615,
      "separate": 5616,
      "मइ": 5617,
      "heavy": 5618,
      "procedure": 5619,
      "हरन": 5620,
      "सचव": 5621,
      "वनयस": 5622,
      "उठय": 5623,
      "पररथन": 5624,
      "जरमन": 5625,
      "calcutta": 5626,
      "रपण": 5627,
      "electric": 5628,
      "नमत": 5629,
      "model": 5630,
      "अतत": 5631,
      "इनस": 5632,
      "accordance": 5633,
      "सधय": 5634,
      "tom": 5635,
      "resource": 5636,
      "opinion": 5637,
      "governance": 5638,
      "graphy": 5639,
      "secretary": 5640,
      "ae": 5641,
      "internet": 5642,
      "पसतकलय": 5643,
      "मसर": 5644,
      "corrup": 5645,
      "reply": 5646,
      "झल": 5647,
      "highest": 5648,
      "वशलषण": 5649,
      "जगत": 5650,
      "repent": 5651,
      "करस": 5652,
      "कमड": 5653,
      "ava": 5654,
      "directly": 5655,
      "selection": 5656,
      "villages": 5657,
      "ung": 5658,
      "जञपन": 5659,
      "journey": 5660,
      "station": 5661,
      "brid": 5662,
      "shows": 5663,
      "moment": 5664,
      "attention": 5665,
      "अच": 5666,
      "marriage": 5667,
      "ऊचई": 5668,
      "convey": 5669,
      "ints": 5670,
      "urban": 5671,
      "उदघटन": 5672,
      "48": 5673,
      "वलकन": 5674,
      "chem": 5675,
      "कनक": 5676,
      "मलकत": 5677,
      "टरस": 5678,
      "अतयचर": 5679,
      "बतन": 5680,
      "बगड": 5681,
      "resol": 5682,
      "functions": 5683,
      "medium": 5684,
      "commercial": 5685,
      "ववध": 5686,
      "counter": 5687,
      "settle": 5688,
      "गणत": 5689,
      "समरथय": 5690,
      "site": 5691,
      "rom": 5692,
      "saved": 5693,
      "archite": 5694,
      "jap": 5695,
      "kum": 5696,
      "वदर": 5697,
      "inser": 5698,
      "ake": 5699,
      "गट": 5700,
      "वरन": 5701,
      "promised": 5702,
      "appeal": 5703,
      "nine": 5704,
      "तकत": 5705,
      "gain": 5706,
      "consequ": 5707,
      "calls": 5708,
      "august": 5709,
      "सखन": 5710,
      "habit": 5711,
      "sides": 5712,
      "asp": 5713,
      "distribution": 5714,
      "results": 5715,
      "तयग": 5716,
      "समरथत": 5717,
      "windows": 5718,
      "intellect": 5719,
      "लटन": 5720,
      "remin": 5721,
      "परतकष": 5722,
      "खफ": 5723,
      "consum": 5724,
      "परवरतत": 5725,
      "आगरह": 5726,
      "calcul": 5727,
      "enterpr": 5728,
      "jay": 5729,
      "फजल": 5730,
      "चनदर": 5731,
      "परणमस": 5732,
      "operative": 5733,
      "तग": 5734,
      "पष": 5735,
      "opened": 5736,
      "नययधश": 5737,
      "अनरप": 5738,
      "electron": 5739,
      "चदर": 5740,
      "seed": 5741,
      "drive": 5742,
      "ऑनल": 5743,
      "मकरर": 5744,
      "denied": 5745,
      "storage": 5746,
      "अनकल": 5747,
      "roll": 5748,
      "whosoever": 5749,
      "series": 5750,
      "judgment": 5751,
      "परतर": 5752,
      "consu": 5753,
      "aster": 5754,
      "भषओ": 5755,
      "questions": 5756,
      "festival": 5757,
      "कषक": 5758,
      "formation": 5759,
      "advant": 5760,
      "तभ": 5761,
      "transgress": 5762,
      "achiev": 5763,
      "zone": 5764,
      "attract": 5765,
      "output": 5766,
      "उननत": 5767,
      "आनन": 5768,
      "छह": 5769,
      "ulated": 5770,
      "cash": 5771,
      "stories": 5772,
      "china": 5773,
      "जनसखय": 5774,
      "partners": 5775,
      "warm": 5776,
      "बदश": 5777,
      "propos": 5778,
      "धरक": 5779,
      "effort": 5780,
      "equip": 5781,
      "bag": 5782,
      "mobile": 5783,
      "रजयपल": 5784,
      "universities": 5785,
      "promotion": 5786,
      "ऑनलइन": 5787,
      "ilit": 5788,
      "aging": 5789,
      "बचत": 5790,
      "largest": 5791,
      "cou": 5792,
      "फलट": 5793,
      "izing": 5794,
      "played": 5795,
      "operations": 5796,
      "एजस": 5797,
      "समरक": 5798,
      "टरन": 5799,
      "pite": 5800,
      "animal": 5801,
      "अजञत": 5802,
      "useful": 5803,
      "reserve": 5804,
      "pleasure": 5805,
      "contain": 5806,
      "unique": 5807,
      "consideration": 5808,
      "empty": 5809,
      "appreci": 5810,
      "authen": 5811,
      "powerful": 5812,
      "augur": 5813,
      "कबर": 5814,
      "दतत": 5815,
      "authentic": 5816,
      "thank": 5817,
      "अधयय": 5818,
      "दआ": 5819,
      "परचलन": 5820,
      "images": 5821,
      "2020": 5822,
      "fields": 5823,
      "studies": 5824,
      "परशस": 5825,
      "hru": 5826,
      "दयक": 5827,
      "पतरक": 5828,
      "परणमसवरप": 5829,
      "nuc": 5830,
      "बलल": 5831,
      "करबन": 5832,
      "ray": 5833,
      "अहम": 5834,
      "plate": 5835,
      "background": 5836,
      "rus": 5837,
      "advice": 5838,
      "gujarat": 5839,
      "घषत": 5840,
      "alty": 5841,
      "रवन": 5842,
      "numer": 5843,
      "nan": 5844,
      "वहत": 5845,
      "dep": 5846,
      "tro": 5847,
      "भस": 5848,
      "कटन": 5849,
      "शखर": 5850,
      "neur": 5851,
      "boo": 5852,
      "परहजगर": 5853,
      "fle": 5854,
      "enemy": 5855,
      "download": 5856,
      "crow": 5857,
      "दरनथ": 5858,
      "defence": 5859,
      "आधयतमक": 5860,
      "डग": 5861,
      "scul": 5862,
      "moral": 5863,
      "preser": 5864,
      "species": 5865,
      "military": 5866,
      "rat": 5867,
      "अमल": 5868,
      "2010": 5869,
      "mony": 5870,
      "1956": 5871,
      "115": 5872,
      "परवतत": 5873,
      "asi": 5874,
      "अभपरत": 5875,
      "exal": 5876,
      "सहब": 5877,
      "domestic": 5878,
      "मकररर": 5879,
      "मबर": 5880,
      "sale": 5881,
      "furn": 5882,
      "block": 5883,
      "वजन": 5884,
      "ईल": 5885,
      "वग": 5886,
      "दयवन": 5887,
      "election": 5888,
      "square": 5889,
      "ulate": 5890,
      "extent": 5891,
      "benefic": 5892,
      "परख": 5893,
      "stock": 5894,
      "lon": 5895,
      "वकय": 5896,
      "wills": 5897,
      "hypo": 5898,
      "गठन": 5899,
      "हतय": 5900,
      "ulty": 5901,
      "ware": 5902,
      "दवन": 5903,
      "sculpt": 5904,
      "घस": 5905,
      "फलटर": 5906,
      "नतओ": 5907,
      "ration": 5908,
      "sad": 5909,
      "पएग": 5910,
      "longer": 5911,
      "गलड": 5912,
      "ढक": 5913,
      "दवय": 5914,
      "org": 5915,
      "confl": 5916,
      "opening": 5917,
      "constant": 5918,
      "chastisement": 5919,
      "सकड": 5920,
      "appointment": 5921,
      "वसयक": 5922,
      "count": 5923,
      "eastern": 5924,
      "machine": 5925,
      "appropriate": 5926,
      "उल": 5927,
      "idol": 5928,
      "events": 5929,
      "परथमक": 5930,
      "hra": 5931,
      "सवन": 5932,
      "struggle": 5933,
      "सरवचच": 5934,
      "independent": 5935,
      "apostle": 5936,
      "अनमन": 5937,
      "ift": 5938,
      "desk": 5939,
      "expand": 5940,
      "औष": 5941,
      "sins": 5942,
      "mouth": 5943,
      "उठत": 5944,
      "34": 5945,
      "soil": 5946,
      "परतदन": 5947,
      "profit": 5948,
      "entered": 5949,
      "bac": 5950,
      "kol": 5951,
      "फनट": 5952,
      "points": 5953,
      "included": 5954,
      "wered": 5955,
      "conver": 5956,
      "दयलत": 5957,
      "registered": 5958,
      "tid": 5959,
      "yi": 5960,
      "नकस": 5961,
      "door": 5962,
      "हटकर": 5963,
      "ancy": 5964,
      "valu": 5965,
      "menu": 5966,
      "policies": 5967,
      "औलद": 5968,
      "waste": 5969,
      "मसक": 5970,
      "धतव": 5971,
      "temper": 5972,
      "अगसत": 5973,
      "नतक": 5974,
      "recomp": 5975,
      "ador": 5976,
      "जओग": 5977,
      "रध": 5978,
      "located": 5979,
      "चलय": 5980,
      "buy": 5981,
      "रजसटर": 5982,
      "सगम": 5983,
      "struct": 5984,
      "inaugur": 5985,
      "cel": 5986,
      "minus": 5987,
      "परवहन": 5988,
      "temples": 5989,
      "रजनत": 5990,
      "exceed": 5991,
      "मठ": 5992,
      "primary": 5993,
      "notification": 5994,
      "nehru": 5995,
      "dal": 5996,
      "आरप": 5997,
      "ateral": 5998,
      "dance": 5999,
      "दकषत": 6000,
      "ites": 6001,
      "cher": 6002,
      "bug": 6003,
      "rajas": 6004,
      "teachers": 6005,
      "registration": 6006,
      "promote": 6007,
      "edge": 6008,
      "शररक": 6009,
      "din": 6010,
      "आवस": 6011,
      "भरषट": 6012,
      "pill": 6013,
      "commod": 6014,
      "वयखय": 6015,
      "concept": 6016,
      "owner": 6017,
      "joined": 6018,
      "holding": 6019,
      "ured": 6020,
      "जनदग": 6021,
      "महमहम": 6022,
      "सटशन": 6023,
      "branch": 6024,
      "schedul": 6025,
      "aint": 6026,
      "sand": 6027,
      "वपरत": 6028,
      "tees": 6029,
      "filter": 6030,
      "dat": 6031,
      "nad": 6032,
      "leve": 6033,
      "rig": 6034,
      "multi": 6035,
      "awards": 6036,
      "average": 6037,
      "tingu": 6038,
      "पतल": 6039,
      "voice": 6040,
      "tourism": 6041,
      "root": 6042,
      "indians": 6043,
      "engineering": 6044,
      "एकल": 6045,
      "store": 6046,
      "compon": 6047,
      "developing": 6048,
      "fellow": 6049,
      "iso": 6050,
      "withdraw": 6051,
      "asa": 6052,
      "july": 6053,
      "vish": 6054,
      "zo": 6055,
      "दह": 6056,
      "growing": 6057,
      "font": 6058,
      "asc": 6059,
      "उपकरम": 6060,
      "courts": 6061,
      "intellig": 6062,
      "iff": 6063,
      "अलप": 6064,
      "sah": 6065,
      "भन": 6066,
      "deposit": 6067,
      "utes": 6068,
      "परयतन": 6069,
      "travel": 6070,
      "परतनधतव": 6071,
      "string": 6072,
      "मफ": 6073,
      "veget": 6074,
      "39": 6075,
      "thinking": 6076,
      "km": 6077,
      "ots": 6078,
      "cells": 6079,
      "planning": 6080,
      "famil": 6081,
      "ology": 6082,
      "नसर": 6083,
      "कलकतत": 6084,
      "दशमन": 6085,
      "शरखल": 6086,
      "believing": 6087,
      "pac": 6088,
      "मझस": 6089,
      "trees": 6090,
      "ee": 6091,
      "japan": 6092,
      "आकरमण": 6093,
      "sphere": 6094,
      "uge": 6095,
      "लएग": 6096,
      "fici": 6097,
      "nur": 6098,
      "कबज": 6099,
      "सशकत": 6100,
      "pped": 6101,
      "आशचरय": 6102,
      "circumst": 6103,
      "तवर": 6104,
      "defined": 6105,
      "likely": 6106,
      "मव": 6107,
      "दरवज": 6108,
      "अनरध": 6109,
      "उठए": 6110,
      "यनट": 6111,
      "ferences": 6112,
      "पजकरण": 6113,
      "committed": 6114,
      "amental": 6115,
      "37": 6116,
      "uce": 6117,
      "मकन": 6118,
      "utter": 6119,
      "बनदग": 6120,
      "wisdom": 6121,
      "febr": 6122,
      "monitor": 6123,
      "ignor": 6124,
      "फरवर": 6125,
      "reminder": 6126,
      "applications": 6127,
      "stated": 6128,
      "धनय": 6129,
      "बरस": 6130,
      "रखनवल": 6131,
      "extension": 6132,
      "safety": 6133,
      "आइ": 6134,
      "centres": 6135,
      "ashtra": 6136,
      "इजजत": 6137,
      "entre": 6138,
      "deduction": 6139,
      "नशनल": 6140,
      "sir": 6141,
      "सझव": 6142,
      "enced": 6143,
      "fee": 6144,
      "कटशबद": 6145,
      "सरवकषण": 6146,
      "mutual": 6147,
      "आबद": 6148,
      "beha": 6149,
      "सरवधक": 6150,
      "shape": 6151,
      "leaves": 6152,
      "करयकलप": 6153,
      "emphas": 6154,
      "closed": 6155,
      "पठयकरम": 6156,
      "sn": 6157,
      "february": 6158,
      "amendment": 6159,
      "sacred": 6160,
      "payable": 6161,
      "शसक": 6162,
      "prepar": 6163,
      "response": 6164,
      "extreme": 6165,
      "रजरव": 6166,
      "बधत": 6167,
      "fruits": 6168,
      "swit": 6169,
      "बदलत": 6170,
      "डकटर": 6171,
      "khan": 6172,
      "shan": 6173,
      "pover": 6174,
      "views": 6175,
      "उचचतम": 6176,
      "folders": 6177,
      "शसत": 6178,
      "shares": 6179,
      "families": 6180,
      "पथव": 6181,
      "मकदम": 6182,
      "शकषत": 6183,
      "agre": 6184,
      "कसल": 6185,
      "करतवय": 6186,
      "quant": 6187,
      "करट": 6188,
      "पवतर": 6189,
      "reven": 6190,
      "causes": 6191,
      "परबधक": 6192,
      "छन": 6193,
      "creating": 6194,
      "ministers": 6195,
      "facilit": 6196,
      "gather": 6197,
      "keeping": 6198,
      "skin": 6199,
      "neigh": 6200,
      "सवधओ": 6201,
      "वयवसयक": 6202,
      "scen": 6203,
      "adopted": 6204,
      "वसल": 6205,
      "शध": 6206,
      "season": 6207,
      "arer": 6208,
      "amongst": 6209,
      "column": 6210,
      "grateful": 6211,
      "chat": 6212,
      "परतसहत": 6213,
      "अकषम": 6214,
      "उकत": 6215,
      "touch": 6216,
      "oral": 6217,
      "seem": 6218,
      "noble": 6219,
      "शरमक": 6220,
      "obed": 6221,
      "कगज": 6222,
      "ases": 6223,
      "bombay": 6224,
      "exists": 6225,
      "maintain": 6226,
      "height": 6227,
      "contacts": 6228,
      "organis": 6229,
      "plat": 6230,
      "55": 6231,
      "सकम": 6232,
      "prh": 6233,
      "surface": 6234,
      "solar": 6235,
      "distance": 6236,
      "wild": 6237,
      "py": 6238,
      "ws": 6239,
      "listen": 6240,
      "वचत": 6241,
      "sib": 6242,
      "कवर": 6243,
      "omin": 6244,
      "वदयमन": 6245,
      "पसनद": 6246,
      "memo": 6247,
      "prison": 6248,
      "render": 6249,
      "contained": 6250,
      "औसत": 6251,
      "चरतर": 6252,
      "profession": 6253,
      "नयक": 6254,
      "sections": 6255,
      "अकबर": 6256,
      "legislative": 6257,
      "involved": 6258,
      "oce": 6259,
      "ume": 6260,
      "conserv": 6261,
      "center": 6262,
      "अनयय": 6263,
      "academic": 6264,
      "घटक": 6265,
      "करज": 6266,
      "exc": 6267,
      "नरम": 6268,
      "assam": 6269,
      "bhag": 6270,
      "ries": 6271,
      "सदह": 6272,
      "partnership": 6273,
      "1947": 6274,
      "यहद": 6275,
      "जलई": 6276,
      "engaged": 6277,
      "magic": 6278,
      "declared": 6279,
      "lived": 6280,
      "वभजन": 6281,
      "rama": 6282,
      "रजसथन": 6283,
      "charges": 6284,
      "friendly": 6285,
      "sustain": 6286,
      "risk": 6287,
      "डउनलड": 6288,
      "chemical": 6289,
      "अय": 6290,
      "shed": 6291,
      "raise": 6292,
      "desc": 6293,
      "समरपत": 6294,
      "असथ": 6295,
      "चप": 6296,
      "सतम": 6297,
      "moving": 6298,
      "nes": 6299,
      "unity": 6300,
      "गरन": 6301,
      "महरषटर": 6302,
      "hidden": 6303,
      "रहमत": 6304,
      "relationship": 6305,
      "ie": 6306,
      "iran": 6307,
      "मकक": 6308,
      "helped": 6309,
      "marked": 6310,
      "borrow": 6311,
      "हटन": 6312,
      "कनकशन": 6313,
      "late": 6314,
      "रलव": 6315,
      "इटरनट": 6316,
      "vation": 6317,
      "नअमत": 6318,
      "adequ": 6319,
      "extended": 6320,
      "gt": 6321,
      "iry": 6322,
      "अधसचन": 6323,
      "expressed": 6324,
      "needed": 6325,
      "घटनओ": 6326,
      "refuge": 6327,
      "philosophy": 6328,
      "dim": 6329,
      "egg": 6330,
      "proto": 6331,
      "consciousness": 6332,
      "समतय": 6333,
      "लगए": 6334,
      "lack": 6335,
      "icted": 6336,
      "लकड": 6337,
      "dry": 6338,
      "articles": 6339,
      "bing": 6340,
      "asts": 6341,
      "पछत": 6342,
      "ordinary": 6343,
      "डजइन": 6344,
      "कसर": 6345,
      "infl": 6346,
      "orient": 6347,
      "महतम": 6348,
      "configur": 6349,
      "तसवर": 6350,
      "cot": 6351,
      "soft": 6352,
      "गवर": 6353,
      "नपटन": 6354,
      "पओ": 6355,
      "extra": 6356,
      "शरषठ": 6357,
      "guardi": 6358,
      "za": 6359,
      "prose": 6360,
      "नदर": 6361,
      "minor": 6362,
      "जहज": 6363,
      "kerala": 6364,
      "कहनय": 6365,
      "uel": 6366,
      "convent": 6367,
      "climate": 6368,
      "elements": 6369,
      "burn": 6370,
      "rab": 6371,
      "कच": 6372,
      "perfect": 6373,
      "सयतर": 6374,
      "सइ": 6375,
      "अदलत": 6376,
      "pit": 6377,
      "frequ": 6378,
      "properties": 6379,
      "universal": 6380,
      "¤¹": 6381,
      "agar": 6382,
      "सभष": 6383,
      "सफद": 6384,
      "schools": 6385,
      "absol": 6386,
      "seeing": 6387,
      "warning": 6388,
      "300": 6389,
      "करआन": 6390,
      "congrat": 6391,
      "परतनध": 6392,
      "chance": 6393,
      "bond": 6394,
      "गलय": 6395,
      "influence": 6396,
      "ff": 6397,
      "cultiv": 6398,
      "vind": 6399,
      "ishing": 6400,
      "bodies": 6401,
      "pressed": 6402,
      "जपन": 6403,
      "थन": 6404,
      "मजल": 6405,
      "mono": 6406,
      "tribun": 6407,
      "gandhiji": 6408,
      "width": 6409,
      "sell": 6410,
      "gnome": 6411,
      "189": 6412,
      "wives": 6413,
      "cook": 6414,
      "फलक": 6415,
      "submit": 6416,
      "threat": 6417,
      "inent": 6418,
      "rog": 6419,
      "daily": 6420,
      "watch": 6421,
      "टकट": 6422,
      "remains": 6423,
      "spring": 6424,
      "lah": 6425,
      "replace": 6426,
      "semin": 6427,
      "maha": 6428,
      "ump": 6429,
      "gal": 6430,
      "everyone": 6431,
      "दरमयन": 6432,
      "circumstances": 6433,
      "असर": 6434,
      "परचलत": 6435,
      "iling": 6436,
      "divers": 6437,
      "अनयथ": 6438,
      "internal": 6439,
      "rajasthan": 6440,
      "कचर": 6441,
      "itis": 6442,
      "element": 6443,
      "fice": 6444,
      "औजर": 6445,
      "ghts": 6446,
      "interpre": 6447,
      "पररभक": 6448,
      "attempt": 6449,
      "नकद": 6450,
      "attend": 6451,
      "नषकरय": 6452,
      "जबरदसत": 6453,
      "बहम": 6454,
      "मशकल": 6455,
      "modif": 6456,
      "वशषकर": 6457,
      "छडन": 6458,
      "नगरन": 6459,
      "succeed": 6460,
      "vast": 6461,
      "मसतषक": 6462,
      "greetings": 6463,
      "holy": 6464,
      "objective": 6465,
      "bc": 6466,
      "अनकरब": 6467,
      "palest": 6468,
      "डलन": 6469,
      "context": 6470,
      "ayan": 6471,
      "trying": 6472,
      "assistant": 6473,
      "maharashtra": 6474,
      "levels": 6475,
      "icket": 6476,
      "सरजन": 6477,
      "distingu": 6478,
      "sia": 6479,
      "eval": 6480,
      "सहस": 6481,
      "gue": 6482,
      "larger": 6483,
      "yoga": 6484,
      "remem": 6485,
      "seems": 6486,
      "सभयत": 6487,
      "theme": 6488,
      "preneur": 6489,
      "banking": 6490,
      "refers": 6491,
      "38": 6492,
      "छय": 6493,
      "भगत": 6494,
      "सरवत": 6495,
      "upper": 6496,
      "ially": 6497,
      "डलत": 6498,
      "atom": 6499,
      "muse": 6500,
      "taught": 6501,
      "बखशन": 6502,
      "difference": 6503,
      "interests": 6504,
      "मबइल": 6505,
      "determined": 6506,
      "cattle": 6507,
      "dust": 6508,
      "fine": 6509,
      "कमल": 6510,
      "परचय": 6511,
      "resolution": 6512,
      "wash": 6513,
      "bind": 6514,
      "holds": 6515,
      "poverty": 6516,
      "shad": 6517,
      "कलकर": 6518,
      "evening": 6519,
      "सवधए": 6520,
      "literary": 6521,
      "आफ": 6522,
      "नपल": 6523,
      "notes": 6524,
      "अनपत": 6525,
      "remained": 6526,
      "desires": 6527,
      "rupees": 6528,
      "boun": 6529,
      "परपरक": 6530,
      "compreh": 6531,
      "जलवय": 6532,
      "वशन": 6533,
      "variety": 6534,
      "rejected": 6535,
      "वनमय": 6536,
      "वशषजञ": 6537,
      "अकषर": 6538,
      "पषठभम": 6539,
      "railway": 6540,
      "hall": 6541,
      "rare": 6542,
      "उर": 6543,
      "ids": 6544,
      "park": 6545,
      "throughout": 6546,
      "crops": 6547,
      "killed": 6548,
      "मसबत": 6549,
      "ford": 6550,
      "भडरण": 6551,
      "dv": 6552,
      "aces": 6553,
      "profits": 6554,
      "stead": 6555,
      "entrepreneur": 6556,
      "थल": 6557,
      "धम": 6558,
      "परवस": 6559,
      "मलयन": 6560,
      "सनदर": 6561,
      "कयल": 6562,
      "ourselves": 6563,
      "tagore": 6564,
      "dem": 6565,
      "slow": 6566,
      "match": 6567,
      "icon": 6568,
      "mahat": 6569,
      "pression": 6570,
      "majority": 6571,
      "कतल": 6572,
      "oblig": 6573,
      "songs": 6574,
      "ku": 6575,
      "sectors": 6576,
      "associate": 6577,
      "सतह": 6578,
      "poems": 6579,
      "lawful": 6580,
      "परफ": 6581,
      "abilities": 6582,
      "nepal": 6583,
      "sian": 6584,
      "clearly": 6585,
      "reality": 6586,
      "citizen": 6587,
      "अचनक": 6588,
      "सलगन": 6589,
      "walk": 6590,
      "vest": 6591,
      "rev": 6592,
      "aring": 6593,
      "cham": 6594,
      "recei": 6595,
      "burden": 6596,
      "brothers": 6597,
      "sleep": 6598,
      "icated": 6599,
      "proud": 6600,
      "जरय": 6601,
      "survey": 6602,
      "european": 6603,
      "सदढ": 6604,
      "beauty": 6605,
      "बयर": 6606,
      "atha": 6607,
      "बकग": 6608,
      "तलश": 6609,
      "morrow": 6610,
      "चनल": 6611,
      "phase": 6612,
      "परभषत": 6613,
      "desktop": 6614,
      "demon": 6615,
      "xx": 6616,
      "sole": 6617,
      "usive": 6618,
      "सवसथ": 6619,
      "तथप": 6620,
      "chosen": 6621,
      "exercise": 6622,
      "agency": 6623,
      "characters": 6624,
      "हवई": 6625,
      "कदप": 6626,
      "reforms": 6627,
      "ague": 6628,
      "earned": 6629,
      "परषत": 6630,
      "नसल": 6631,
      "भतत": 6632,
      "glad": 6633,
      "target": 6634,
      "passing": 6635,
      "pension": 6636,
      "घटत": 6637,
      "deliver": 6638,
      "wil": 6639,
      "worthy": 6640,
      "दखद": 6641,
      "fresh": 6642,
      "cand": 6643,
      "eties": 6644,
      "attribut": 6645,
      "double": 6646,
      "utions": 6647,
      "map": 6648,
      "looked": 6649,
      "altern": 6650,
      "entr": 6651,
      "heed": 6652,
      "abroad": 6653,
      "बरगह": 6654,
      "minutes": 6655,
      "machin": 6656,
      "picture": 6657,
      "करतत": 6658,
      "users": 6659,
      "worked": 6660,
      "नड": 6661,
      "diseas": 6662,
      "तनत": 6663,
      "ils": 6664,
      "psy": 6665,
      "approved": 6666,
      "teacher": 6667,
      "नबर": 6668,
      "मरज": 6669,
      "नतज": 6670,
      "described": 6671,
      "advanced": 6672,
      "era": 6673,
      "delive": 6674,
      "coal": 6675,
      "whenever": 6676,
      "परधकरण": 6677,
      "behavi": 6678,
      "टब": 6679,
      "मनद": 6680,
      "सपदन": 6681,
      "यजनओ": 6682,
      "approval": 6683,
      "relief": 6684,
      "आसपस": 6685,
      "चथ": 6686,
      "रडय": 6687,
      "akbar": 6688,
      "destination": 6689,
      "channel": 6690,
      "hindus": 6691,
      "province": 6692,
      "असथय": 6693,
      "आहर": 6694,
      "sym": 6695,
      "नवनवषण": 6696,
      "tidings": 6697,
      "खलल": 6698,
      "worth": 6699,
      "डजटल": 6700,
      "दनवल": 6701,
      "establishment": 6702,
      "समरट": 6703,
      "initiatives": 6704,
      "paign": 6705,
      "आरमभ": 6706,
      "configuration": 6707,
      "organiz": 6708,
      "पचर": 6709,
      "behold": 6710,
      "अनदन": 6711,
      "brings": 6712,
      "ससदय": 6713,
      "hya": 6714,
      "examination": 6715,
      "अवजञ": 6716,
      "devi": 6717,
      "birds": 6718,
      "homes": 6719,
      "scheduled": 6720,
      "ficiency": 6721,
      "museum": 6722,
      "इडयन": 6723,
      "rapid": 6724,
      "आशक": 6725,
      "truthful": 6726,
      "removed": 6727,
      "ववधत": 6728,
      "बदशह": 6729,
      "fat": 6730,
      "झड": 6731,
      "goal": 6732,
      "confidence": 6733,
      "observed": 6734,
      "entit": 6735,
      "trou": 6736,
      "अनतत": 6737,
      "authorities": 6738,
      "असमरथ": 6739,
      "ultim": 6740,
      "launched": 6741,
      "priority": 6742,
      "गलम": 6743,
      "पदत": 6744,
      "shap": 6745,
      "वरम": 6746,
      "shared": 6747,
      "फरमन": 6748,
      "सटग": 6749,
      "delay": 6750,
      "train": 6751,
      "नयतरत": 6752,
      "update": 6753,
      "initial": 6754,
      "holders": 6755,
      "yield": 6756,
      "bour": 6757,
      "वकर": 6758,
      "compassion": 6759,
      "ऑख": 6760,
      "regions": 6761,
      "188": 6762,
      "volume": 6763,
      "aj": 6764,
      "pred": 6765,
      "ठत": 6766,
      "surround": 6767,
      "ghan": 6768,
      "panch": 6769,
      "65": 6770,
      "cod": 6771,
      "cow": 6772,
      "बढय": 6773,
      "novel": 6774,
      "mahatma": 6775,
      "लर": 6776,
      "coven": 6777,
      "excess": 6778,
      "administrative": 6779,
      "पग": 6780,
      "depos": 6781,
      "multiple": 6782,
      "campaign": 6783,
      "anni": 6784,
      "introduced": 6785,
      "discipl": 6786,
      "battle": 6787,
      "लहर": 6788,
      "amb": 6789,
      "चतवन": 6790,
      "returns": 6791,
      "assigned": 6792,
      "fell": 6793,
      "अनसचत": 6794,
      "facility": 6795,
      "blessings": 6796,
      "असपत": 6797,
      "ico": 6798,
      "pleased": 6799,
      "recompense": 6800,
      "reci": 6801,
      "शरदध": 6802,
      "guil": 6803,
      "इलम": 6804,
      "आकरषत": 6805,
      "democratic": 6806,
      "सपदक": 6807,
      "ईमल": 6808,
      "ideal": 6809,
      "greatest": 6810,
      "critical": 6811,
      "tomorrow": 6812,
      "समनयत": 6813,
      "कसट": 6814,
      "sanct": 6815,
      "shak": 6816,
      "cold": 6817,
      "परशसनक": 6818,
      "practices": 6819,
      "executive": 6820,
      "impact": 6821,
      "bled": 6822,
      "undertaking": 6823,
      "wherein": 6824,
      "icked": 6825,
      "1992": 6826,
      "glor": 6827,
      "मसजद": 6828,
      "कषमशल": 6829,
      "digital": 6830,
      "असपतल": 6831,
      "सबदध": 6832,
      "tel": 6833,
      "earn": 6834,
      "scripture": 6835,
      "absolute": 6836,
      "57": 6837,
      "ऑडय": 6838,
      "शलप": 6839,
      "plies": 6840,
      "stream": 6841,
      "charged": 6842,
      "delivered": 6843,
      "preced": 6844,
      "excellent": 6845,
      "machinery": 6846,
      "lest": 6847,
      "forbidden": 6848,
      "लइ": 6849,
      "reck": 6850,
      "deleg": 6851,
      "ifying": 6852,
      "inner": 6853,
      "दरद": 6854,
      "cape": 6855,
      "lap": 6856,
      "spent": 6857,
      "नदय": 6858,
      "resto": 6859,
      "burning": 6860,
      "easily": 6861,
      "dream": 6862,
      "challenges": 6863,
      "oath": 6864,
      "इरद": 6865,
      "सवचलत": 6866,
      "estim": 6867,
      "lt": 6868,
      "धख": 6869,
      "seeking": 6870,
      "recently": 6871,
      "ganga": 6872,
      "ny": 6873,
      "logies": 6874,
      "currently": 6875,
      "principles": 6876,
      "via": 6877,
      "blue": 6878,
      "sort": 6879,
      "शरय": 6880,
      "himal": 6881,
      "istics": 6882,
      "सचक": 6883,
      "पथक": 6884,
      "bah": 6885,
      "आमल": 6886,
      "बए": 6887,
      "गरट": 6888,
      "delivery": 6889,
      "nuclear": 6890,
      "cave": 6891,
      "schedule": 6892,
      "tho": 6893,
      "चनतय": 6894,
      "girl": 6895,
      "ठस": 6896,
      "offered": 6897,
      "कनफ": 6898,
      "actual": 6899,
      "changing": 6900,
      "drop": 6901,
      "heritage": 6902,
      "एट": 6903,
      "compr": 6904,
      "अपकषत": 6905,
      "चपक": 6906,
      "बतर": 6907,
      "fix": 6908,
      "थम": 6909,
      "cab": 6910,
      "rock": 6911,
      "वरसत": 6912,
      "woe": 6913,
      "लमट": 6914,
      "मरक": 6915,
      "diseases": 6916,
      "47": 6917,
      "colour": 6918,
      "launch": 6919,
      "devotion": 6920,
      "ततवदरश": 6921,
      "senior": 6922,
      "license": 6923,
      "परभतवशल": 6924,
      "forget": 6925,
      "thereafter": 6926,
      "परदषण": 6927,
      "tasks": 6928,
      "assured": 6929,
      "purchase": 6930,
      "affl": 6931,
      "installed": 6932,
      "सवभवक": 6933,
      "उडन": 6934,
      "aving": 6935,
      "compens": 6936,
      "42": 6937,
      "जटल": 6938,
      "enge": 6939,
      "crop": 6940,
      "gains": 6941,
      "फसद": 6942,
      "वरस": 6943,
      "हसतकष": 6944,
      "radio": 6945,
      "pollution": 6946,
      "quo": 6947,
      "disbelieved": 6948,
      "ससरक": 6949,
      "affected": 6950,
      "rates": 6951,
      "vig": 6952,
      "offices": 6953,
      "jaw": 6954,
      "vital": 6955,
      "icip": 6956,
      "बरउ": 6957,
      "अरजन": 6958,
      "subhas": 6959,
      "extend": 6960,
      "समनवय": 6961,
      "mainly": 6962,
      "solution": 6963,
      "eleph": 6964,
      "डफलट": 6965,
      "mount": 6966,
      "इच": 6967,
      "दप": 6968,
      "iron": 6969,
      "namely": 6970,
      "figu": 6971,
      "merely": 6972,
      "अहल": 6973,
      "बसतय": 6974,
      "उतसह": 6975,
      "encry": 6976,
      "ented": 6977,
      "acious": 6978,
      "reduced": 6979,
      "wing": 6980,
      "housing": 6981,
      "चडई": 6982,
      "उपर": 6983,
      "गहन": 6984,
      "झन": 6985,
      "feeling": 6986,
      "नरकषण": 6987,
      "अभव": 6988,
      "डरइ": 6989,
      "covenant": 6990,
      "enabled": 6991,
      "वनषट": 6992,
      "ysis": 6993,
      "नजदक": 6994,
      "परतषठत": 6995,
      "terri": 6996,
      "yan": 6997,
      "जबन": 6998,
      "वरयत": 6999,
      "achal": 7000,
      "kinds": 7001,
      "sick": 7002,
      "tong": 7003,
      "integral": 7004,
      "गरफतर": 7005,
      "आईट": 7006,
      "sending": 7007,
      "duties": 7008,
      "तयशद": 7009,
      "individuals": 7010,
      "बगर": 7011,
      "aling": 7012,
      "hair": 7013,
      "armed": 7014,
      "अनगरह": 7015,
      "replied": 7016,
      "arms": 7017,
      "generations": 7018,
      "agreed": 7019,
      "समनत": 7020,
      "फरमय": 7021,
      "µa": 7022,
      "भटक": 7023,
      "सरहन": 7024,
      "यवओ": 7025,
      "carrying": 7026,
      "territory": 7027,
      "elig": 7028,
      "thanks": 7029,
      "teaching": 7030,
      "records": 7031,
      "gun": 7032,
      "¤¦": 7033,
      "चलए": 7034,
      "agencies": 7035,
      "finally": 7036,
      "learned": 7037,
      "souls": 7038,
      "departments": 7039,
      "panel": 7040,
      "welcome": 7041,
      "vice": 7042,
      "इदर": 7043,
      "महरज": 7044,
      "glory": 7045,
      "degree": 7046,
      "ception": 7047,
      "critic": 7048,
      "wan": 7049,
      "reports": 7050,
      "mortal": 7051,
      "dispute": 7052,
      "iled": 7053,
      "बरक": 7054,
      "joh": 7055,
      "register": 7056,
      "sources": 7057,
      "खओ": 7058,
      "सवरण": 7059,
      "bell": 7060,
      "cris": 7061,
      "positive": 7062,
      "tribunal": 7063,
      "करष": 7064,
      "allowance": 7065,
      "टपपण": 7066,
      "materials": 7067,
      "whereas": 7068,
      "सतबर": 7069,
      "रजधन": 7070,
      "parliamentary": 7071,
      "participation": 7072,
      "सगरहलय": 7073,
      "eral": 7074,
      "happen": 7075,
      "petitioner": 7076,
      "accur": 7077,
      "willing": 7078,
      "spa": 7079,
      "bengali": 7080,
      "journal": 7081,
      "marketing": 7082,
      "liqu": 7083,
      "highly": 7084,
      "yourself": 7085,
      "victory": 7086,
      "hic": 7087,
      "फलन": 7088,
      "फलत": 7089,
      "features": 7090,
      "enses": 7091,
      "follows": 7092,
      "dol": 7093,
      "wants": 7094,
      "techni": 7095,
      "environmental": 7096,
      "150": 7097,
      "पणन": 7098,
      "दबव": 7099,
      "मनवय": 7100,
      "abase": 7101,
      "subsequ": 7102,
      "confident": 7103,
      "exalted": 7104,
      "iny": 7105,
      "evol": 7106,
      "forever": 7107,
      "strateg": 7108,
      "turns": 7109,
      "सपदत": 7110,
      "दलत": 7111,
      "यरपय": 7112,
      "compl": 7113,
      "tribal": 7114,
      "awareness": 7115,
      "नचल": 7116,
      "अपनय": 7117,
      "privi": 7118,
      "jose": 7119,
      "adjust": 7120,
      "iding": 7121,
      "ding": 7122,
      "सइट": 7123,
      "debt": 7124,
      "pressure": 7125,
      "बतल": 7126,
      "fab": 7127,
      "मरयम": 7128,
      "नषठ": 7129,
      "huge": 7130,
      "attached": 7131,
      "waiting": 7132,
      "बदधत": 7133,
      "happened": 7134,
      "intellectual": 7135,
      "historical": 7136,
      "hence": 7137,
      "tes": 7138,
      "claimed": 7139,
      "ensu": 7140,
      "सकय": 7141,
      "समपरण": 7142,
      "investig": 7143,
      "incident": 7144,
      "acce": 7145,
      "ula": 7146,
      "len": 7147,
      "guidelines": 7148,
      "slo": 7149,
      "afghan": 7150,
      "encourage": 7151,
      "dul": 7152,
      "prev": 7153,
      "treas": 7154,
      "integrated": 7155,
      "latest": 7156,
      "tend": 7157,
      "अवतरत": 7158,
      "destru": 7159,
      "archive": 7160,
      "concern": 7161,
      "wonder": 7162,
      "लफ": 7163,
      "inspired": 7164,
      "dav": 7165,
      "fron": 7166,
      "collabor": 7167,
      "appeared": 7168,
      "hit": 7169,
      "tha": 7170,
      "chen": 7171,
      "emp": 7172,
      "वदत": 7173,
      "index": 7174,
      "recommend": 7175,
      "horiz": 7176,
      "blow": 7177,
      "एकमतर": 7178,
      "failure": 7179,
      "ईट": 7180,
      "hot": 7181,
      "66": 7182,
      "उपखड": 7183,
      "arian": 7184,
      "वयवसथत": 7185,
      "आवशयकतओ": 7186,
      "scholar": 7187,
      "मगन": 7188,
      "गणक": 7189,
      "nearly": 7190,
      "darkness": 7191,
      "sought": 7192,
      "मछल": 7193,
      "alle": 7194,
      "andhra": 7195,
      "abs": 7196,
      "valley": 7197,
      "respective": 7198,
      "बरहमण": 7199,
      "vocation": 7200,
      "completely": 7201,
      "adequate": 7202,
      "तसबह": 7203,
      "नगह": 7204,
      "dear": 7205,
      "uta": 7206,
      "ghal": 7207,
      "ललत": 7208,
      "falls": 7209,
      "prosperity": 7210,
      "बखश": 7211,
      "communities": 7212,
      "chron": 7213,
      "सरवततम": 7214,
      "पलय": 7215,
      "deput": 7216,
      "अफसस": 7217,
      "fundamental": 7218,
      "methods": 7219,
      "reform": 7220,
      "abh": 7221,
      "fourth": 7222,
      "leadership": 7223,
      "prices": 7224,
      "करए": 7225,
      "hero": 7226,
      "fing": 7227,
      "drawn": 7228,
      "पलगइन": 7229,
      "kumar": 7230,
      "oo": 7231,
      "वभजत": 7232,
      "currency": 7233,
      "eks": 7234,
      "piece": 7235,
      "ets": 7236,
      "पठक": 7237,
      "रहसय": 7238,
      "preview": 7239,
      "caste": 7240,
      "kit": 7241,
      "इमरत": 7242,
      "1948": 7243,
      "यगयत": 7244,
      "scientists": 7245,
      "audit": 7246,
      "requirements": 7247,
      "इजनयर": 7248,
      "engage": 7249,
      "लमटड": 7250,
      "अपनन": 7251,
      "submitted": 7252,
      "सवरधन": 7253,
      "juris": 7254,
      "penalty": 7255,
      "ience": 7256,
      "thered": 7257,
      "migr": 7258,
      "loading": 7259,
      "गपन": 7260,
      "अनमदन": 7261,
      "disk": 7262,
      "पकक": 7263,
      "letters": 7264,
      "amed": 7265,
      "contents": 7266,
      "offline": 7267,
      "permanent": 7268,
      "मशर": 7269,
      "manufacturing": 7270,
      "बरग": 7271,
      "मटन": 7272,
      "reasons": 7273,
      "bilateral": 7274,
      "परसद": 7275,
      "relative": 7276,
      "appell": 7277,
      "bright": 7278,
      "टकन": 7279,
      "करगर": 7280,
      "suitable": 7281,
      "iring": 7282,
      "domin": 7283,
      "thereby": 7284,
      "seas": 7285,
      "blessed": 7286,
      "vy": 7287,
      "वम": 7288,
      "noah": 7289,
      "publication": 7290,
      "writer": 7291,
      "kings": 7292,
      "admon": 7293,
      "iving": 7294,
      "1998": 7295,
      "refer": 7296,
      "dete": 7297,
      "challenge": 7298,
      "wage": 7299,
      "१८": 7300,
      "अगरम": 7301,
      "डड": 7302,
      "deci": 7303,
      "moved": 7304,
      "treated": 7305,
      "आदन": 7306,
      "वगरह": 7307,
      "protocol": 7308,
      "atmo": 7309,
      "ache": 7310,
      "corporate": 7311,
      "करकट": 7312,
      "ahar": 7313,
      "versary": 7314,
      "sacrifice": 7315,
      "पख": 7316,
      "सरण": 7317,
      "दसबर": 7318,
      "medicine": 7319,
      "electricity": 7320,
      "exact": 7321,
      "ऊग": 7322,
      "knower": 7323,
      "street": 7324,
      "dvd": 7325,
      "guilty": 7326,
      "rant": 7327,
      "शलत": 7328,
      "vehic": 7329,
      "अकष": 7330,
      "jews": 7331,
      "latter": 7332,
      "excellency": 7333,
      "satisfact": 7334,
      "aspects": 7335,
      "worlds": 7336,
      "¤¼": 7337,
      "defe": 7338,
      "delight": 7339,
      "एकतर": 7340,
      "ममनन": 7341,
      "reduce": 7342,
      "myself": 7343,
      "consumer": 7344,
      "bounty": 7345,
      "kam": 7346,
      "england": 7347,
      "scope": 7348,
      "revenue": 7349,
      "rice": 7350,
      "शलय": 7351,
      "करनटक": 7352,
      "maintenance": 7353,
      "automatically": 7354,
      "46": 7355,
      "इलक": 7356,
      "entitled": 7357,
      "onom": 7358,
      "confirm": 7359,
      "meant": 7360,
      "haz": 7361,
      "tools": 7362,
      "professional": 7363,
      "चहनत": 7364,
      "border": 7365,
      "nd": 7366,
      "जयक": 7367,
      "टव": 7368,
      "लनड": 7369,
      "limits": 7370,
      "fts": 7371,
      "ub": 7372,
      "lets": 7373,
      "danger": 7374,
      "नषपदन": 7375,
      "missions": 7376,
      "advantage": 7377,
      "icit": 7378,
      "happiness": 7379,
      "subjects": 7380,
      "रशत": 7381,
      "रखग": 7382,
      "efficient": 7383,
      "reckon": 7384,
      "बकय": 7385,
      "सकरमण": 7386,
      "हसय": 7387,
      "अरध": 7388,
      "heads": 7389,
      "हटए": 7390,
      "performed": 7391,
      "kets": 7392,
      "परतभत": 7393,
      "actor": 7394,
      "core": 7395,
      "सहतयक": 7396,
      "judgement": 7397,
      "वसन": 7398,
      "newspa": 7399,
      "दवपकषय": 7400,
      "wronged": 7401,
      "लइसस": 7402,
      "inet": 7403,
      "viet": 7404,
      "veda": 7405,
      "मशनर": 7406,
      "खयत": 7407,
      "containing": 7408,
      "babu": 7409,
      "43": 7410,
      "tun": 7411,
      "disable": 7412,
      "courage": 7413,
      "भख": 7414,
      "समट": 7415,
      "lasting": 7416,
      "healthy": 7417,
      "joseph": 7418,
      "hop": 7419,
      "tube": 7420,
      "daughter": 7421,
      "zz": 7422,
      "वनश": 7423,
      "पसट": 7424,
      "अभलभ": 7425,
      "speaker": 7426,
      "lam": 7427,
      "डवड": 7428,
      "वपणन": 7429,
      "गरद": 7430,
      "हरदक": 7431,
      "सरकषक": 7432,
      "आननद": 7433,
      "कचच": 7434,
      "अवधरण": 7435,
      "bird": 7436,
      "ocean": 7437,
      "guardian": 7438,
      "arrest": 7439,
      "अगरण": 7440,
      "igno": 7441,
      "ox": 7442,
      "कमपय": 7443,
      "coast": 7444,
      "बरन": 7445,
      "sanction": 7446,
      "seized": 7447,
      "throne": 7448,
      "धनयवद": 7449,
      "athi": 7450,
      "buddha": 7451,
      "समहक": 7452,
      "jag": 7453,
      "quit": 7454,
      "karnat": 7455,
      "ahead": 7456,
      "वयसत": 7457,
      "leaf": 7458,
      "आसतय": 7459,
      "चकन": 7460,
      "rench": 7461,
      "married": 7462,
      "तवच": 7463,
      "insects": 7464,
      "fighting": 7465,
      "settlement": 7466,
      "eco": 7467,
      "ological": 7468,
      "ayana": 7469,
      "embr": 7470,
      "पजकत": 7471,
      "हमक": 7472,
      "margin": 7473,
      "capable": 7474,
      "हथयर": 7475,
      "जनवल": 7476,
      "drin": 7477,
      "नफरमन": 7478,
      "eration": 7479,
      "enhan": 7480,
      "beings": 7481,
      "समओ": 7482,
      "heat": 7483,
      "adam": 7484,
      "जनरल": 7485,
      "इकइय": 7486,
      "communications": 7487,
      "ascri": 7488,
      "परतकल": 7489,
      "interesting": 7490,
      "released": 7491,
      "favor": 7492,
      "regulations": 7493,
      "अकतबर": 7494,
      "54": 7495,
      "yam": 7496,
      "बरतन": 7497,
      "समवश": 7498,
      "यचक": 7499,
      "mah": 7500,
      "भरन": 7501,
      "आईड": 7502,
      "ush": 7503,
      "los": 7504,
      "jinn": 7505,
      "situated": 7506,
      "conflict": 7507,
      "pin": 7508,
      "सवक": 7509,
      "अनतम": 7510,
      "compar": 7511,
      "fertil": 7512,
      "plot": 7513,
      "venture": 7514,
      "iary": 7515,
      "starting": 7516,
      "specify": 7517,
      "effects": 7518,
      "isition": 7519,
      "lip": 7520,
      "guides": 7521,
      "bestowed": 7522,
      "student": 7523,
      "initiative": 7524,
      "empire": 7525,
      "रमन": 7526,
      "arya": 7527,
      "drugs": 7528,
      "नदश": 7529,
      "grade": 7530,
      "constituted": 7531,
      "सटरट": 7532,
      "suddenly": 7533,
      "endeav": 7534,
      "nab": 7535,
      "plays": 7536,
      "faithful": 7537,
      "doctor": 7538,
      "resist": 7539,
      "correspond": 7540,
      "appears": 7541,
      "bone": 7542,
      "अट": 7543,
      "पलल": 7544,
      "politics": 7545,
      "डसकटप": 7546,
      "99": 7547,
      "acted": 7548,
      "sav": 7549,
      "अनतरगत": 7550,
      "links": 7551,
      "सरज": 7552,
      "वहक": 7553,
      "mahab": 7554,
      "london": 7555,
      "jes": 7556,
      "pages": 7557,
      "span": 7558,
      "label": 7559,
      "हइ": 7560,
      "visited": 7561,
      "minds": 7562,
      "rajya": 7563,
      "56": 7564,
      "pip": 7565,
      "sik": 7566,
      "शकतशल": 7567,
      "database": 7568,
      "sard": 7569,
      "sugar": 7570,
      "सलमन": 7571,
      "manufacture": 7572,
      "fabric": 7573,
      "vas": 7574,
      "tea": 7575,
      "pas": 7576,
      "एसस": 7577,
      "सपरध": 7578,
      "लगग": 7579,
      "डगर": 7580,
      "धवज": 7581,
      "गरदन": 7582,
      "compe": 7583,
      "qui": 7584,
      "सदक": 7585,
      "abode": 7586,
      "accident": 7587,
      "उललखनय": 7588,
      "scholars": 7589,
      "dess": 7590,
      "obvious": 7591,
      "conservation": 7592,
      "spot": 7593,
      "proved": 7594,
      "operating": 7595,
      "ईरन": 7596,
      "लकस": 7597,
      "uries": 7598,
      "dign": 7599,
      "consists": 7600,
      "witnesses": 7601,
      "गठत": 7602,
      "kil": 7603,
      "agra": 7604,
      "अनम": 7605,
      "egy": 7606,
      "चरत": 7607,
      "anj": 7608,
      "करव": 7609,
      "72": 7610,
      "तप": 7611,
      "applied": 7612,
      "धल": 7613,
      "हमलय": 7614,
      "cricket": 7615,
      "सतयपन": 7616,
      "elections": 7617,
      "kovind": 7618,
      "हदसतन": 7619,
      "pilgr": 7620,
      "figures": 7621,
      "पसवरड": 7622,
      "अभय": 7623,
      "वयकततव": 7624,
      "सदसयत": 7625,
      "जयदत": 7626,
      "recorded": 7627,
      "districts": 7628,
      "bottom": 7629,
      "distinct": 7630,
      "ततरक": 7631,
      "लटर": 7632,
      "finite": 7633,
      "successfully": 7634,
      "रसयन": 7635,
      "officials": 7636,
      "karnataka": 7637,
      "सकषय": 7638,
      "dog": 7639,
      "discussion": 7640,
      "खयन": 7641,
      "परटर": 7642,
      "पररम": 7643,
      "सटट": 7644,
      "warner": 7645,
      "रजसव": 7646,
      "उदयन": 7647,
      "dynam": 7648,
      "falsehood": 7649,
      "guaran": 7650,
      "dhar": 7651,
      "printer": 7652,
      "subsid": 7653,
      "served": 7654,
      "surv": 7655,
      "technologies": 7656,
      "strike": 7657,
      "arabic": 7658,
      "इलकटरनक": 7659,
      "gall": 7660,
      "मगत": 7661,
      "jection": 7662,
      "bringing": 7663,
      "वकरय": 7664,
      "ततकल": 7665,
      "अभग": 7666,
      "iti": 7667,
      "proceedings": 7668,
      "खक": 7669,
      "thi": 7670,
      "astic": 7671,
      "अतरकष": 7672,
      "domain": 7673,
      "egypt": 7674,
      "भजत": 7675,
      "tric": 7676,
      "achieved": 7677,
      "सलग": 7678,
      "आयर": 7679,
      "गमन": 7680,
      "बई": 7681,
      "पदक": 7682,
      "requires": 7683,
      "समरण": 7684,
      "nagar": 7685,
      "1950": 7686,
      "आदत": 7687,
      "indo": 7688,
      "decor": 7689,
      "लदन": 7690,
      "धनत": 7691,
      "identity": 7692,
      "thirty": 7693,
      "patience": 7694,
      "oris": 7695,
      "अनप": 7696,
      "anniversary": 7697,
      "परसथत": 7698,
      "securities": 7699,
      "bills": 7700,
      "palestin": 7701,
      "फकस": 7702,
      "वनरमण": 7703,
      "bose": 7704,
      "इनसन": 7705,
      "असधरण": 7706,
      "ining": 7707,
      "फलसतन": 7708,
      "परववलकन": 7709,
      "objectives": 7710,
      "covering": 7711,
      "negative": 7712,
      "eli": 7713,
      "rag": 7714,
      "transaction": 7715,
      "करयनवत": 7716,
      "suffering": 7717,
      "pic": 7718,
      "ऊतक": 7719,
      "परपतर": 7720,
      "जवहर": 7721,
      "factor": 7722,
      "soldi": 7723,
      "instruments": 7724,
      "pup": 7725,
      "choice": 7726,
      "sitting": 7727,
      "branches": 7728,
      "रसव": 7729,
      "awa": 7730,
      "उपयगकरत": 7731,
      "यथसथत": 7732,
      "john": 7733,
      "inspir": 7734,
      "वसतए": 7735,
      "बजट": 7736,
      "उललखत": 7737,
      "fy": 7738,
      "तबह": 7739,
      "लपट": 7740,
      "मलभत": 7741,
      "whatsoever": 7742,
      "classes": 7743,
      "diag": 7744,
      "nadu": 7745,
      "चतय": 7746,
      "organised": 7747,
      "अकदम": 7748,
      "कथन": 7749,
      "analysis": 7750,
      "49": 7751,
      "looks": 7752,
      "ell": 7753,
      "एखतयर": 7754,
      "डप": 7755,
      "equipment": 7756,
      "twel": 7757,
      "weap": 7758,
      "दरग": 7759,
      "instance": 7760,
      "organized": 7761,
      "पढत": 7762,
      "objects": 7763,
      "candid": 7764,
      "dan": 7765,
      "ked": 7766,
      "अनजञत": 7767,
      "polythe": 7768,
      "इगलड": 7769,
      "तलय": 7770,
      "shel": 7771,
      "commitment": 7772,
      "gradu": 7773,
      "alia": 7774,
      "broken": 7775,
      "डटबस": 7776,
      "rd": 7777,
      "मशरण": 7778,
      "commanded": 7779,
      "split": 7780,
      "kab": 7781,
      "रए": 7782,
      "moham": 7783,
      "छटकर": 7784,
      "recognised": 7785,
      "पचरक": 7786,
      "हकदर": 7787,
      "mos": 7788,
      "ईसई": 7789,
      "jammu": 7790,
      "51": 7791,
      "कनकट": 7792,
      "जकत": 7793,
      "नवल": 7794,
      "वमरश": 7795,
      "abund": 7796,
      "showing": 7797,
      "कठनई": 7798,
      "pras": 7799,
      "फलइन": 7800,
      "grown": 7801,
      "नकष": 7802,
      "वरषठ": 7803,
      "factors": 7804,
      "defend": 7805,
      "camp": 7806,
      "वशक": 7807,
      "आह": 7808,
      "budget": 7809,
      "अफगन": 7810,
      "इसरईल": 7811,
      "समपरक": 7812,
      "austr": 7813,
      "sind": 7814,
      "हदर": 7815,
      "escape": 7816,
      "arbit": 7817,
      "brain": 7818,
      "pathy": 7819,
      "principle": 7820,
      "वरतन": 7821,
      "playing": 7822,
      "steel": 7823,
      "58": 7824,
      "thro": 7825,
      "सवमत": 7826,
      "उललघन": 7827,
      "कवनद": 7828,
      "१५": 7829,
      "कनफगर": 7830,
      "zero": 7831,
      "सकटर": 7832,
      "loans": 7833,
      "examples": 7834,
      "jurisdiction": 7835,
      "iraq": 7836,
      "mart": 7837,
      "घम": 7838,
      "दरदनक": 7839,
      "corruption": 7840,
      "ढर": 7841,
      "फइ": 7842,
      "ससथपत": 7843,
      "weeks": 7844,
      "poem": 7845,
      "ठड": 7846,
      "inherit": 7847,
      "toward": 7848,
      "सरग": 7849,
      "कतत": 7850,
      "bling": 7851,
      "goddess": 7852,
      "सचई": 7853,
      "smaller": 7854,
      "वणजयक": 7855,
      "गनत": 7856,
      "islands": 7857,
      "आलचन": 7858,
      "admit": 7859,
      "गरत": 7860,
      "अरजत": 7861,
      "नषकरष": 7862,
      "swami": 7863,
      "substitut": 7864,
      "thousands": 7865,
      "expert": 7866,
      "cking": 7867,
      "believes": 7868,
      "kde": 7869,
      "डलग": 7870,
      "bol": 7871,
      "stars": 7872,
      "sets": 7873,
      "ila": 7874,
      "surpr": 7875,
      "64": 7876,
      "बखर": 7877,
      "males": 7878,
      "जनजतय": 7879,
      "kir": 7880,
      "आजम": 7881,
      "inary": 7882,
      "orph": 7883,
      "becoming": 7884,
      "iles": 7885,
      "alloc": 7886,
      "unseen": 7887,
      "app": 7888,
      "plans": 7889,
      "constitu": 7890,
      "परतयगत": 7891,
      "कग": 7892,
      "capt": 7893,
      "1990": 7894,
      "friendship": 7895,
      "ससगत": 7896,
      "northern": 7897,
      "जलत": 7898,
      "ayat": 7899,
      "shiva": 7900,
      "रहमन": 7901,
      "दयर": 7902,
      "उपज": 7903,
      "bles": 7904,
      "बदधक": 7905,
      "skills": 7906,
      "ऑफलइन": 7907,
      "incur": 7908,
      "बरज": 7909,
      "टलफन": 7910,
      "१०": 7911,
      "दरबर": 7912,
      "elected": 7913,
      "सनदह": 7914,
      "judicial": 7915,
      "yel": 7916,
      "बरटन": 7917,
      "saving": 7918,
      "brief": 7919,
      "rum": 7920,
      "तवरत": 7921,
      "पडस": 7922,
      "बचव": 7923,
      "followers": 7924,
      "तलब": 7925,
      "pg": 7926,
      "दकन": 7927,
      "whol": 7928,
      "frag": 7929,
      "cles": 7930,
      "akh": 7931,
      "facts": 7932,
      "theat": 7933,
      "सवपन": 7934,
      "squared": 7935,
      "damage": 7936,
      "eligible": 7937,
      "decide": 7938,
      "race": 7939,
      "बरदर": 7940,
      "hast": 7941,
      "proposed": 7942,
      "अधकरण": 7943,
      "शनत": 7944,
      "अनसच": 7945,
      "header": 7946,
      "decades": 7947,
      "jesus": 7948,
      "मकस": 7949,
      "cabinet": 7950,
      "मनल": 7951,
      "परयटक": 7952,
      "hari": 7953,
      "announced": 7954,
      "अस": 7955,
      "telephone": 7956,
      "bridge": 7957,
      "1996": 7958,
      "intelligence": 7959,
      "सरह": 7960,
      "drag": 7961,
      "परटकल": 7962,
      "compensation": 7963,
      "mm": 7964,
      "अतरल": 7965,
      "signature": 7966,
      "dram": 7967,
      "destruction": 7968,
      "डमन": 7969,
      "परषण": 7970,
      "clou": 7971,
      "tonnes": 7972,
      "पषप": 7973,
      "amin": 7974,
      "concentr": 7975,
      "peo": 7976,
      "कटक": 7977,
      "helps": 7978,
      "prince": 7979,
      "हटल": 7980,
      "तमलनड": 7981,
      "endra": 7982,
      "didn": 7983,
      "afraid": 7984,
      "conven": 7985,
      "dia": 7986,
      "compared": 7987,
      "angle": 7988,
      "तततव": 7989,
      "player": 7990,
      "spoke": 7991,
      "sustainable": 7992,
      "नदन": 7993,
      "परसतश": 7994,
      "swear": 7995,
      "receipt": 7996,
      "फतर": 7997,
      "शथ": 7998,
      "षठन": 7999,
      "committees": 8000,
      "adi": 8001,
      "fet": 8002,
      "करयशल": 8003,
      "craft": 8004,
      "nom": 8005,
      "पततय": 8006,
      "magn": 8007,
      "मइकर": 8008,
      "descend": 8009,
      "norm": 8010,
      "नवबर": 8011,
      "1000": 8012,
      "aa": 8013,
      "आकत": 8014,
      "ममत": 8015,
      "upta": 8016,
      "सकषपत": 8017,
      "acquired": 8018,
      "organizations": 8019,
      "oth": 8020,
      "renew": 8021,
      "musa": 8022,
      "implemented": 8023,
      "enh": 8024,
      "परणलय": 8025,
      "उतपदक": 8026,
      "monitoring": 8027,
      "daugh": 8028,
      "antly": 8029,
      "buf": 8030,
      "decisions": 8031,
      "खशख": 8032,
      "theory": 8033,
      "मरठ": 8034,
      "opposition": 8035,
      "imperial": 8036,
      "खशखबर": 8037,
      "mn": 8038,
      "चवल": 8039,
      "hasten": 8040,
      "fulfil": 8041,
      "transferred": 8042,
      "सगठत": 8043,
      "terrible": 8044,
      "vac": 8045,
      "enhance": 8046,
      "ibility": 8047,
      "tip": 8048,
      "stress": 8049,
      "बरफ": 8050,
      "77": 8051,
      "daughters": 8052,
      "usa": 8053,
      "identified": 8054,
      "prayers": 8055,
      "vishnu": 8056,
      "जडत": 8057,
      "thoughts": 8058,
      "argument": 8059,
      "lose": 8060,
      "हलल": 8061,
      "मददगर": 8062,
      "ml": 8063,
      "naren": 8064,
      "yu": 8065,
      "एयर": 8066,
      "france": 8067,
      "वकफकर": 8068,
      "criminal": 8069,
      "kor": 8070,
      "universe": 8071,
      "assessing": 8072,
      "sibilities": 8073,
      "सशल": 8074,
      "परभग": 8075,
      "esty": 8076,
      "creative": 8077,
      "परवरत": 8078,
      "template": 8079,
      "मडप": 8080,
      "chrom": 8081,
      "platform": 8082,
      "जसपर": 8083,
      "doesn": 8084,
      "obtained": 8085,
      "kin": 8086,
      "iter": 8087,
      "रहम": 8088,
      "showed": 8089,
      "sculpture": 8090,
      "kno": 8091,
      "वसथ": 8092,
      "irrig": 8093,
      "बटय": 8094,
      "settled": 8095,
      "पयग": 8096,
      "abide": 8097,
      "tex": 8098,
      "अनज": 8099,
      "raw": 8100,
      "tribes": 8101,
      "ears": 8102,
      "addresses": 8103,
      "patri": 8104,
      "royal": 8105,
      "peoples": 8106,
      "wherever": 8107,
      "layer": 8108,
      "client": 8109,
      "छर": 8110,
      "दरघटन": 8111,
      "आरभक": 8112,
      "tender": 8113,
      "properly": 8114,
      "dedicated": 8115,
      "चनह": 8116,
      "1991": 8117,
      "सशधत": 8118,
      "आदर": 8119,
      "बजन": 8120,
      "बरर": 8121,
      "apur": 8122,
      "ensions": 8123,
      "calling": 8124,
      "कमपयटर": 8125,
      "acting": 8126,
      "centuries": 8127,
      "सरवस": 8128,
      "अनपलन": 8129,
      "hes": 8130,
      "सचलत": 8131,
      "flowers": 8132,
      "similarly": 8133,
      "liquid": 8134,
      "afghanistan": 8135,
      "arrog": 8136,
      "gathered": 8137,
      "recovery": 8138,
      "चकतसक": 8139,
      "attachment": 8140,
      "yas": 8141,
      "आड": 8142,
      "aram": 8143,
      "susp": 8144,
      "अभदत": 8145,
      "सटल": 8146,
      "architecture": 8147,
      "authentication": 8148,
      "औषध": 8149,
      "कनह": 8150,
      "पकरत": 8151,
      "imal": 8152,
      "कसस": 8153,
      "बनधत": 8154,
      "keys": 8155,
      "stands": 8156,
      "resh": 8157,
      "comfort": 8158,
      "इलज": 8159,
      "turning": 8160,
      "sends": 8161,
      "isa": 8162,
      "mak": 8163,
      "pregn": 8164,
      "markets": 8165,
      "आकलन": 8166,
      "ससत": 8167,
      "despite": 8168,
      "पजशन": 8169,
      "busy": 8170,
      "atmosphere": 8171,
      "suit": 8172,
      "करमश": 8173,
      "outer": 8174,
      "una": 8175,
      "marry": 8176,
      "informed": 8177,
      "judges": 8178,
      "गधज": 8179,
      "छपए": 8180,
      "आउटपट": 8181,
      "christian": 8182,
      "deputy": 8183,
      "नवशक": 8184,
      "toolbar": 8185,
      "sexual": 8186,
      "jail": 8187,
      "समचत": 8188,
      "neck": 8189,
      "conducted": 8190,
      "daw": 8191,
      "परजत": 8192,
      "दमन": 8193,
      "iced": 8194,
      "महनत": 8195,
      "kha": 8196,
      "noted": 8197,
      "uls": 8198,
      "ifies": 8199,
      "सई": 8200,
      "गरनथ": 8201,
      "transactions": 8202,
      "horse": 8203,
      "रवनदरनथ": 8204,
      "mous": 8205,
      "empower": 8206,
      "orissa": 8207,
      "जवक": 8208,
      "southern": 8209,
      "forests": 8210,
      "षम": 8211,
      "समभव": 8212,
      "prompt": 8213,
      "package": 8214,
      "अवल": 8215,
      "tham": 8216,
      "उपलबधय": 8217,
      "rout": 8218,
      "डम": 8219,
      "पणय": 8220,
      "thread": 8221,
      "seeds": 8222,
      "detailed": 8223,
      "customer": 8224,
      "52": 8225,
      "ape": 8226,
      "fly": 8227,
      "शरब": 8228,
      "addressed": 8229,
      "contributions": 8230,
      "distinguished": 8231,
      "sardar": 8232,
      "59": 8233,
      "aims": 8234,
      "inese": 8235,
      "fifty": 8236,
      "एहद": 8237,
      "atl": 8238,
      "theirs": 8239,
      "blame": 8240,
      "वयवहरक": 8241,
      "bearing": 8242,
      "तरथ": 8243,
      "rot": 8244,
      "willed": 8245,
      "outstanding": 8246,
      "बहद": 8247,
      "graphical": 8248,
      "ईधन": 8249,
      "sees": 8250,
      "grass": 8251,
      "mostly": 8252,
      "solid": 8253,
      "costs": 8254,
      "substance": 8255,
      "मनवत": 8256,
      "इसपर": 8257,
      "कशलत": 8258,
      "ordinate": 8259,
      "anta": 8260,
      "proposal": 8261,
      "intim": 8262,
      "metal": 8263,
      "maintained": 8264,
      "desert": 8265,
      "hen": 8266,
      "formal": 8267,
      "chrome": 8268,
      "सफलतपरवक": 8269,
      "78": 8270,
      "jac": 8271,
      "आचरण": 8272,
      "remark": 8273,
      "alleg": 8274,
      "ceeds": 8275,
      "clim": 8276,
      "girls": 8277,
      "temperature": 8278,
      "कलमटर": 8279,
      "umin": 8280,
      "एमएस": 8281,
      "deleted": 8282,
      "framework": 8283,
      "दमग": 8284,
      "expenses": 8285,
      "कथत": 8286,
      "leaving": 8287,
      "stic": 8288,
      "whome": 8289,
      "महतज": 8290,
      "directed": 8291,
      "usual": 8292,
      "enemies": 8293,
      "बरसत": 8294,
      "1997": 8295,
      "designed": 8296,
      "absor": 8297,
      "उततरदय": 8298,
      "breed": 8299,
      "hills": 8300,
      "whomever": 8301,
      "बलग": 8302,
      "kata": 8303,
      "सरपरसत": 8304,
      "हरत": 8305,
      "distress": 8306,
      "floor": 8307,
      "नययक": 8308,
      "gaz": 8309,
      "गहरई": 8310,
      "sister": 8311,
      "सवमतव": 8312,
      "fuel": 8313,
      "खनन": 8314,
      "forced": 8315,
      "ques": 8316,
      "reported": 8317,
      "uded": 8318,
      "भरण": 8319,
      "attitude": 8320,
      "अपमन": 8321,
      "mohammed": 8322,
      "cool": 8323,
      "hyder": 8324,
      "volunt": 8325,
      "prevail": 8326,
      "chinese": 8327,
      "rath": 8328,
      "महभरत": 8329,
      "वरणत": 8330,
      "computing": 8331,
      "employed": 8332,
      "68": 8333,
      "aur": 8334,
      "नभ": 8335,
      "पइ": 8336,
      "retain": 8337,
      "abor": 8338,
      "automatic": 8339,
      "bath": 8340,
      "disabled": 8341,
      "महलत": 8342,
      "1988": 8343,
      "oy": 8344,
      "¤¬": 8345,
      "जवर": 8346,
      "बश": 8347,
      "सजव": 8348,
      "remind": 8349,
      "prostrate": 8350,
      "ults": 8351,
      "रखव": 8352,
      "1993": 8353,
      "billion": 8354,
      "आमतरत": 8355,
      "हदरबद": 8356,
      "deity": 8357,
      "excellence": 8358,
      "horizon": 8359,
      "कशत": 8360,
      "colon": 8361,
      "नवमबर": 8362,
      "trading": 8363,
      "iments": 8364,
      "लनत": 8365,
      "electronic": 8366,
      "afford": 8367,
      "crites": 8368,
      "regulation": 8369,
      "बरकत": 8370,
      "sweet": 8371,
      "avi": 8372,
      "तस": 8373,
      "oft": 8374,
      "brance": 8375,
      "बहस": 8376,
      "drama": 8377,
      "profile": 8378,
      "diversity": 8379,
      "cis": 8380,
      "wed": 8381,
      "वनसपत": 8382,
      "palace": 8383,
      "परतवद": 8384,
      "leges": 8385,
      "sr": 8386,
      "tren": 8387,
      "ert": 8388,
      "chant": 8389,
      "aband": 8390,
      "पतय": 8391,
      "interface": 8392,
      "vedic": 8393,
      "leads": 8394,
      "ritual": 8395,
      "accused": 8396,
      "poets": 8397,
      "municip": 8398,
      "subscribe": 8399,
      "insert": 8400,
      "तनक": 8401,
      "ouch": 8402,
      "समहत": 8403,
      "loved": 8404,
      "mahara": 8405,
      "लकष": 8406,
      "rati": 8407,
      "परशत": 8408,
      "proportion": 8409,
      "mense": 8410,
      "draft": 8411,
      "flood": 8412,
      "municipal": 8413,
      "sold": 8414,
      "allows": 8415,
      "परदयग": 8416,
      "gency": 8417,
      "hypocrites": 8418,
      "समच": 8419,
      "दलच": 8420,
      "गनहगर": 8421,
      "evalu": 8422,
      "sports": 8423,
      "err": 8424,
      "इनपट": 8425,
      "झठल": 8426,
      "browser": 8427,
      "felicit": 8428,
      "golden": 8429,
      "परजकट": 8430,
      "hrs": 8431,
      "अटल": 8432,
      "stones": 8433,
      "processes": 8434,
      "depth": 8435,
      "अह": 8436,
      "ornam": 8437,
      "roots": 8438,
      "dire": 8439,
      "सतष": 8440,
      "फलसवरप": 8441,
      "highlight": 8442,
      "roof": 8443,
      "एककत": 8444,
      "proxy": 8445,
      "1980": 8446,
      "revelation": 8447,
      "improvement": 8448,
      "french": 8449,
      "ena": 8450,
      "धयकष": 8451,
      "consol": 8452,
      "employee": 8453,
      "personnel": 8454,
      "courses": 8455,
      "humanity": 8456,
      "बरबद": 8457,
      "चनन": 8458,
      "रथय": 8459,
      "मघ": 8460,
      "सममनत": 8461,
      "anya": 8462,
      "applicable": 8463,
      "equity": 8464,
      "instructions": 8465,
      "तपमन": 8466,
      "फकन": 8467,
      "amal": 8468,
      "सतषट": 8469,
      "backs": 8470,
      "mud": 8471,
      "ona": 8472,
      "समद": 8473,
      "posite": 8474,
      "narrow": 8475,
      "परफसर": 8476,
      "जदगर": 8477,
      "ववक": 8478,
      "exports": 8479,
      "परतसपरध": 8480,
      "pane": 8481,
      "functioning": 8482,
      "component": 8483,
      "comprehensive": 8484,
      "deed": 8485,
      "generic": 8486,
      "पचयत": 8487,
      "railways": 8488,
      "khand": 8489,
      "rub": 8490,
      "सटरलय": 8491,
      "उचचतर": 8492,
      "400": 8493,
      "anas": 8494,
      "immense": 8495,
      "sovere": 8496,
      "बदकर": 8497,
      "शरमत": 8498,
      "runs": 8499,
      "holder": 8500,
      "stret": 8501,
      "quiet": 8502,
      "sovereign": 8503,
      "convers": 8504,
      "उतसव": 8505,
      "pride": 8506,
      "possession": 8507,
      "dialog": 8508,
      "अज": 8509,
      "वषट": 8510,
      "inqu": 8511,
      "onto": 8512,
      "परकस": 8513,
      "alli": 8514,
      "antic": 8515,
      "writers": 8516,
      "secondary": 8517,
      "recognized": 8518,
      "missing": 8519,
      "dh": 8520,
      "दरव": 8521,
      "अधकत": 8522,
      "availability": 8523,
      "displayed": 8524,
      "construct": 8525,
      "absence": 8526,
      "अनध": 8527,
      "वणजय": 8528,
      "ladesh": 8529,
      "बसव": 8530,
      "forgot": 8531,
      "टरट": 8532,
      "parame": 8533,
      "els": 8534,
      "equally": 8535,
      "legislature": 8536,
      "41": 8537,
      "परजतय": 8538,
      "समपन": 8539,
      "वरट": 8540,
      "advoc": 8541,
      "promoting": 8542,
      "अजर": 8543,
      "छद": 8544,
      "mughal": 8545,
      "household": 8546,
      "remembrance": 8547,
      "tir": 8548,
      "alp": 8549,
      "disbelief": 8550,
      "bangladesh": 8551,
      "वदरह": 8552,
      "traf": 8553,
      "recognition": 8554,
      "occurred": 8555,
      "परससकरण": 8556,
      "rier": 8557,
      "completion": 8558,
      "समपतत": 8559,
      "sustenance": 8560,
      "apostles": 8561,
      "बललबज": 8562,
      "ays": 8563,
      "मजबर": 8564,
      "movements": 8565,
      "mandap": 8566,
      "1986": 8567,
      "remaining": 8568,
      "शकषणक": 8569,
      "pacific": 8570,
      "74": 8571,
      "बहल": 8572,
      "पशय": 8573,
      "garh": 8574,
      "commerce": 8575,
      "pel": 8576,
      "differences": 8577,
      "equality": 8578,
      "linked": 8579,
      "jawahar": 8580,
      "apt": 8581,
      "pping": 8582,
      "pix": 8583,
      "normally": 8584,
      "नजत": 8585,
      "arrang": 8586,
      "neu": 8587,
      "इनसफ": 8588,
      "accordingly": 8589,
      "ठकर": 8590,
      "दरभगय": 8591,
      "बहदर": 8592,
      "बगलदश": 8593,
      "acquisition": 8594,
      "rud": 8595,
      "exhib": 8596,
      "offers": 8597,
      "bene": 8598,
      "appearance": 8599,
      "circular": 8600,
      "theatre": 8601,
      "mohan": 8602,
      "feature": 8603,
      "नरयण": 8604,
      "mine": 8605,
      "sorrow": 8606,
      "twelve": 8607,
      "clust": 8608,
      "fulfilled": 8609,
      "वसतवकत": 8610,
      "कशकओ": 8611,
      "mend": 8612,
      "लयम": 8613,
      "introduction": 8614,
      "recipi": 8615,
      "emotion": 8616,
      "lex": 8617,
      "wear": 8618,
      "apparent": 8619,
      "हसतकषप": 8620,
      "vit": 8621,
      "पनह": 8622,
      "inf": 8623,
      "doom": 8624,
      "कलब": 8625,
      "usted": 8626,
      "जगरकत": 8627,
      "crisis": 8628,
      "weth": 8629,
      "abdul": 8630,
      "composed": 8631,
      "extremely": 8632,
      "सतलन": 8633,
      "illust": 8634,
      "iveness": 8635,
      "आयम": 8636,
      "drow": 8637,
      "खजर": 8638,
      "roads": 8639,
      "admitted": 8640,
      "aggre": 8641,
      "कमप": 8642,
      "खनज": 8643,
      "arrived": 8644,
      "enterprises": 8645,
      "seemed": 8646,
      "लबई": 8647,
      "दरसथ": 8648,
      "undertaken": 8649,
      "silver": 8650,
      "एजसय": 8651,
      "hyderabad": 8652,
      "परणक": 8653,
      "fearing": 8654,
      "grieve": 8655,
      "kolkata": 8656,
      "दसम": 8657,
      "फरज": 8658,
      "career": 8659,
      "categories": 8660,
      "ceremony": 8661,
      "53": 8662,
      "simply": 8663,
      "personality": 8664,
      "अहमद": 8665,
      "mahabhar": 8666,
      "दजख": 8667,
      "agent": 8668,
      "खलड": 8669,
      "phen": 8670,
      "टयब": 8671,
      "drinking": 8672,
      "अकट": 8673,
      "aside": 8674,
      "1987": 8675,
      "zoom": 8676,
      "mosque": 8677,
      "usage": 8678,
      "टरय": 8679,
      "dollar": 8680,
      "crime": 8681,
      "reveal": 8682,
      "nutr": 8683,
      "गदय": 8684,
      "२०": 8685,
      "iting": 8686,
      "1995": 8687,
      "strive": 8688,
      "humili": 8689,
      "recite": 8690,
      "ifications": 8691,
      "lake": 8692,
      "expans": 8693,
      "restore": 8694,
      "traffic": 8695,
      "retri": 8696,
      "परसनन": 8697,
      "hurt": 8698,
      "bold": 8699,
      "rical": 8700,
      "कजए": 8701,
      "yellow": 8702,
      "दलचसप": 8703,
      "counsel": 8704,
      "observe": 8705,
      "duration": 8706,
      "carbon": 8707,
      "quarter": 8708,
      "शसतरय": 8709,
      "हरड": 8710,
      "शनदर": 8711,
      "overall": 8712,
      "उततरधकर": 8713,
      "strategy": 8714,
      "eper": 8715,
      "ares": 8716,
      "clay": 8717,
      "सकरतमक": 8718,
      "entirely": 8719,
      "satisfied": 8720,
      "demonstr": 8721,
      "shaped": 8722,
      "irrigation": 8723,
      "iger": 8724,
      "terminal": 8725,
      "customs": 8726,
      "belonging": 8727,
      "यथरथ": 8728,
      "beneath": 8729,
      "छपत": 8730,
      "सपनन": 8731,
      "forum": 8732,
      "रखकर": 8733,
      "अलबतत": 8734,
      "परकरयओ": 8735,
      "represents": 8736,
      "distributed": 8737,
      "experiment": 8738,
      "walls": 8739,
      "hang": 8740,
      "yal": 8741,
      "सए": 8742,
      "chain": 8743,
      "proofs": 8744,
      "losers": 8745,
      "सगणन": 8746,
      "positions": 8747,
      "contemporary": 8748,
      "vertical": 8749,
      "shadow": 8750,
      "jain": 8751,
      "zy": 8752,
      "asking": 8753,
      "रशम": 8754,
      "वकलपक": 8755,
      "gul": 8756,
      "mc": 8757,
      "अनदश": 8758,
      "sake": 8759,
      "dealing": 8760,
      "deeply": 8761,
      "pairs": 8762,
      "eternal": 8763,
      "शवत": 8764,
      "tery": 8765,
      "वयषट": 8766,
      "तयहर": 8767,
      "submission": 8768,
      "palm": 8769,
      "दवतओ": 8770,
      "clouds": 8771,
      "परचत": 8772,
      "नरण": 8773,
      "prophets": 8774,
      "snow": 8775,
      "परतम": 8776,
      "हनवल": 8777,
      "रजभष": 8778,
      "grain": 8779,
      "परशसक": 8780,
      "summary": 8781,
      "उरद": 8782,
      "ममर": 8783,
      "वनयम": 8784,
      "यकब": 8785,
      "organisations": 8786,
      "urdu": 8787,
      "लडकय": 8788,
      "यजनए": 8789,
      "sincere": 8790,
      "spoken": 8791,
      "तमकत": 8792,
      "arrangement": 8793,
      "पबनद": 8794,
      "island": 8795,
      "invited": 8796,
      "1989": 8797,
      "paint": 8798,
      "prove": 8799,
      "sheet": 8800,
      "परयगशल": 8801,
      "mailing": 8802,
      "civilization": 8803,
      "victim": 8804,
      "io": 8805,
      "यच": 8806,
      "inj": 8807,
      "visual": 8808,
      "regarded": 8809,
      "दज": 8810,
      "ette": 8811,
      "servant": 8812,
      "परमणत": 8813,
      "chargeable": 8814,
      "substant": 8815,
      "narendra": 8816,
      "परदयगकय": 8817,
      "tissue": 8818,
      "घण": 8819,
      "creatures": 8820,
      "टनस": 8821,
      "bush": 8822,
      "charity": 8823,
      "मखल": 8824,
      "सढ": 8825,
      "enqu": 8826,
      "configure": 8827,
      "vised": 8828,
      "डयर": 8829,
      "hydro": 8830,
      "refused": 8831,
      "behaviour": 8832,
      "नकह": 8833,
      "perce": 8834,
      "रहनवल": 8835,
      "पथभरषट": 8836,
      "towns": 8837,
      "claims": 8838,
      "initiated": 8839,
      "उडस": 8840,
      "quickly": 8841,
      "ander": 8842,
      "भगलक": 8843,
      "prem": 8844,
      "oked": 8845,
      "mixed": 8846,
      "wrongdoers": 8847,
      "आदमय": 8848,
      "gift": 8849,
      "कपट": 8850,
      "हवल": 8851,
      "चतनय": 8852,
      "harvest": 8853,
      "switch": 8854,
      "आहवन": 8855,
      "cards": 8856,
      "तमनन": 8857,
      "वयप": 8858,
      "reader": 8859,
      "founded": 8860,
      "cotton": 8861,
      "pard": 8862,
      "rising": 8863,
      "aced": 8864,
      "goti": 8865,
      "सलहकर": 8866,
      "ऊट": 8867,
      "acing": 8868,
      "mahal": 8869,
      "अभयस": 8870,
      "professor": 8871,
      "subscriber": 8872,
      "facilitate": 8873,
      "bones": 8874,
      "परल": 8875,
      "alam": 8876,
      "manual": 8877,
      "institutes": 8878,
      "pieces": 8879,
      "धप": 8880,
      "legs": 8881,
      "entertain": 8882,
      "saty": 8883,
      "sites": 8884,
      "explained": 8885,
      "alt": 8886,
      "efficiency": 8887,
      "लबल": 8888,
      "सनह": 8889,
      "परशरम": 8890,
      "suring": 8891,
      "करडट": 8892,
      "madhya": 8893,
      "मखयत": 8894,
      "analy": 8895,
      "strategic": 8896,
      "दसमबर": 8897,
      "chal": 8898,
      "persian": 8899,
      "posing": 8900,
      "uity": 8901,
      "answered": 8902,
      "soldiers": 8903,
      "नधन": 8904,
      "gran": 8905,
      "interested": 8906,
      "kas": 8907,
      "naught": 8908,
      "सफई": 8909,
      "testing": 8910,
      "reasonable": 8911,
      "आरए": 8912,
      "cked": 8913,
      "मसटर": 8914,
      "helper": 8915,
      "oke": 8916,
      "wicked": 8917,
      "वजए": 8918,
      "negoti": 8919,
      "लयन": 8920,
      "premi": 8921,
      "आरट": 8922,
      "numerous": 8923,
      "ark": 8924,
      "गतवध": 8925,
      "enterprise": 8926,
      "deposits": 8927,
      "88": 8928,
      "chur": 8929,
      "twice": 8930,
      "लडन": 8931,
      "solutions": 8932,
      "games": 8933,
      "fifth": 8934,
      "david": 8935,
      "भगन": 8936,
      "flat": 8937,
      "आगम": 8938,
      "graphic": 8939,
      "dates": 8940,
      "अगन": 8941,
      "औपचरक": 8942,
      "समरपण": 8943,
      "convin": 8944,
      "ldap": 8945,
      "धयय": 8946,
      "maybe": 8947,
      "tongue": 8948,
      "dress": 8949,
      "जलन": 8950,
      "बजए": 8951,
      "खरदन": 8952,
      "otic": 8953,
      "नटस": 8954,
      "crores": 8955,
      "सखयक": 8956,
      "फकशन": 8957,
      "600": 8958,
      "kish": 8959,
      "acid": 8960,
      "impossible": 8961,
      "sikh": 8962,
      "collected": 8963,
      "polytheists": 8964,
      "zing": 8965,
      "rer": 8966,
      "समबनधत": 8967,
      "सरश": 8968,
      "evident": 8969,
      "सचरत": 8970,
      "scat": 8971,
      "अनमदत": 8972,
      "उच": 8973,
      "बवय": 8974,
      "permissions": 8975,
      "partition": 8976,
      "cycle": 8977,
      "camer": 8978,
      "translated": 8979,
      "deliber": 8980,
      "finger": 8981,
      "67": 8982,
      "fought": 8983,
      "liar": 8984,
      "plom": 8985,
      "करयपलक": 8986,
      "cancel": 8987,
      "baby": 8988,
      "driven": 8989,
      "trouble": 8990,
      "ratio": 8991,
      "वकट": 8992,
      "uts": 8993,
      "rendered": 8994,
      "vii": 8995,
      "understood": 8996,
      "परमपर": 8997,
      "expansion": 8998,
      "आककष": 8999,
      "चरम": 9000,
      "avan": 9001,
      "offering": 9002,
      "घनषठ": 9003,
      "pipes": 9004,
      "inspiration": 9005,
      "laugh": 9006,
      "अनजञ": 9007,
      "germany": 9008,
      "printing": 9009,
      "मडयल": 9010,
      "immediate": 9011,
      "neighbour": 9012,
      "cure": 9013,
      "thetic": 9014,
      "toler": 9015,
      "declar": 9016,
      "israeli": 9017,
      "कमयब": 9018,
      "कहलत": 9019,
      "चतरण": 9020,
      "वजत": 9021,
      "infinite": 9022,
      "diplom": 9023,
      "cloud": 9024,
      "चलक": 9025,
      "उपलबधत": 9026,
      "communal": 9027,
      "meetings": 9028,
      "estimated": 9029,
      "prasad": 9030,
      "अखल": 9031,
      "withstanding": 9032,
      "परसपरक": 9033,
      "respectively": 9034,
      "raja": 9035,
      "clip": 9036,
      "mation": 9037,
      "pd": 9038,
      "amoun": 9039,
      "preferred": 9040,
      "परसतवत": 9041,
      "happens": 9042,
      "obedience": 9043,
      "fate": 9044,
      "आसथ": 9045,
      "रढ": 9046,
      "eries": 9047,
      "distur": 9048,
      "सहजन": 9049,
      "पचस": 9050,
      "bhai": 9051,
      "flower": 9052,
      "persist": 9053,
      "लकततरक": 9054,
      "christians": 9055,
      "recited": 9056,
      "ogue": 9057,
      "बव": 9058,
      "advert": 9059,
      "पछड": 9060,
      "रमयण": 9061,
      "improving": 9062,
      "pious": 9063,
      "शप": 9064,
      "recru": 9065,
      "asy": 9066,
      "motor": 9067,
      "उतत": 9068,
      "condol": 9069,
      "constitutional": 9070,
      "queen": 9071,
      "repeated": 9072,
      "aspir": 9073,
      "उगर": 9074,
      "पटन": 9075,
      "sem": 9076,
      "दशवसय": 9077,
      "सदधनत": 9078,
      "intended": 9079,
      "farmer": 9080,
      "decree": 9081,
      "rou": 9082,
      "गगल": 9083,
      "competition": 9084,
      "वयखयन": 9085,
      "खलकर": 9086,
      "hardly": 9087,
      "continuous": 9088,
      "mpto": 9089,
      "परजनन": 9090,
      "alive": 9091,
      "meat": 9092,
      "चटटन": 9093,
      "62": 9094,
      "conds": 9095,
      "upto": 9096,
      "ससइट": 9097,
      "requested": 9098,
      "liberal": 9099,
      "हमचल": 9100,
      "dule": 9101,
      "paralle": 9102,
      "transmission": 9103,
      "religions": 9104,
      "buildings": 9105,
      "परभरय": 9106,
      "nai": 9107,
      "एमई": 9108,
      "contribute": 9109,
      "जवहरलल": 9110,
      "ऋत": 9111,
      "मतबक": 9112,
      "kara": 9113,
      "significance": 9114,
      "अकटबर": 9115,
      "मकर": 9116,
      "arts": 9117,
      "accompl": 9118,
      "millions": 9119,
      "gro": 9120,
      "mits": 9121,
      "lib": 9122,
      "मरतय": 9123,
      "69": 9124,
      "recall": 9125,
      "goals": 9126,
      "परतबध": 9127,
      "asty": 9128,
      "presentation": 9129,
      "परधकत": 9130,
      "sisters": 9131,
      "achievement": 9132,
      "पनल": 9133,
      "notwithstanding": 9134,
      "१९९": 9135,
      "xim": 9136,
      "abol": 9137,
      "customers": 9138,
      "neglect": 9139,
      "सचमच": 9140,
      "representative": 9141,
      "repentance": 9142,
      "cum": 9143,
      "कपर": 9144,
      "समपनन": 9145,
      "grants": 9146,
      "वशवसनय": 9147,
      "architect": 9148,
      "couple": 9149,
      "सलगनक": 9150,
      "nir": 9151,
      "पएस": 9152,
      "एकदम": 9153,
      "facing": 9154,
      "ranath": 9155,
      "buddhist": 9156,
      "alternative": 9157,
      "लकसभ": 9158,
      "एहकम": 9159,
      "stake": 9160,
      "परणय": 9161,
      "protector": 9162,
      "समजवद": 9163,
      "tourist": 9164,
      "आजञकर": 9165,
      "eggs": 9166,
      "voluntary": 9167,
      "कशर": 9168,
      "optim": 9169,
      "rulers": 9170,
      "परसरण": 9171,
      "laughter": 9172,
      "asian": 9173,
      "allot": 9174,
      "रजकमर": 9175,
      "difficulty": 9176,
      "axis": 9177,
      "तकर": 9178,
      "align": 9179,
      "stal": 9180,
      "older": 9181,
      "गतवय": 9182,
      "मदरस": 9183,
      "breath": 9184,
      "बठन": 9185,
      "अगरच": 9186,
      "depends": 9187,
      "kur": 9188,
      "mouse": 9189,
      "परदतत": 9190,
      "impart": 9191,
      "genous": 9192,
      "shell": 9193,
      "1976": 9194,
      "ठहरत": 9195,
      "strengthening": 9196,
      "nit": 9197,
      "परदरश": 9198,
      "ora": 9199,
      "alter": 9200,
      "परतफल": 9201,
      "estate": 9202,
      "वजञपत": 9203,
      "brahmin": 9204,
      "ambed": 9205,
      "आपद": 9206,
      "harmony": 9207,
      "camel": 9208,
      "अरपत": 9209,
      "investments": 9210,
      "yester": 9211,
      "कलग": 9212,
      "चमत": 9213,
      "सठ": 9214,
      "बतए": 9215,
      "parag": 9216,
      "finished": 9217,
      "continues": 9218,
      "keyboard": 9219,
      "firmly": 9220,
      "complaint": 9221,
      "modify": 9222,
      "सषट": 9223,
      "elephant": 9224,
      "jawaharlal": 9225,
      "डबलय": 9226,
      "arising": 9227,
      "टरमनल": 9228,
      "prak": 9229,
      "करमय": 9230,
      "रगन": 9231,
      "traditions": 9232,
      "stayed": 9233,
      "ambedkar": 9234,
      "zed": 9235,
      "भइय": 9236,
      "मयन": 9237,
      "कततर": 9238,
      "derived": 9239,
      "slight": 9240,
      "vacc": 9241,
      "आशय": 9242,
      "छठ": 9243,
      "liability": 9244,
      "discharge": 9245,
      "receiving": 9246,
      "1970": 9247,
      "removal": 9248,
      "companions": 9249,
      "फलग": 9250,
      "पडय": 9251,
      "curse": 9252,
      "भवनओ": 9253,
      "narr": 9254,
      "improved": 9255,
      "printed": 9256,
      "उरवरक": 9257,
      "पहलओ": 9258,
      "desired": 9259,
      "transform": 9260,
      "आधरभत": 9261,
      "celebrated": 9262,
      "rhy": 9263,
      "अधकरत": 9264,
      "preach": 9265,
      "drawing": 9266,
      "crimin": 9267,
      "अवयव": 9268,
      "कषठ": 9269,
      "cession": 9270,
      "sales": 9271,
      "पकतय": 9272,
      "quantity": 9273,
      "मछ": 9274,
      "bered": 9275,
      "permitted": 9276,
      "gracious": 9277,
      "तनम": 9278,
      "ensity": 9279,
      "आरकषत": 9280,
      "layou": 9281,
      "ठहरन": 9282,
      "conceal": 9283,
      "valuable": 9284,
      "gupta": 9285,
      "चमक": 9286,
      "रसय": 9287,
      "entially": 9288,
      "apped": 9289,
      "loaded": 9290,
      "bharati": 9291,
      "kid": 9292,
      "ततय": 9293,
      "मशरक": 9294,
      "thes": 9295,
      "diet": 9296,
      "कषतज": 9297,
      "airport": 9298,
      "foun": 9299,
      "kat": 9300,
      "anand": 9301,
      "मलव": 9302,
      "aneous": 9303,
      "consumption": 9304,
      "emphasis": 9305,
      "atomic": 9306,
      "अम": 9307,
      "pandit": 9308,
      "अभगम": 9309,
      "कलत": 9310,
      "सभपत": 9311,
      "परववरत": 9312,
      "filed": 9313,
      "1974": 9314,
      "terrorist": 9315,
      "degrees": 9316,
      "satisfaction": 9317,
      "eigh": 9318,
      "शस": 9319,
      "forty": 9320,
      "सरस": 9321,
      "बहक": 9322,
      "classical": 9323,
      "mechanism": 9324,
      "ky": 9325,
      "रइ": 9326,
      "algor": 9327,
      "fulfill": 9328,
      "identify": 9329,
      "socio": 9330,
      "bhut": 9331,
      "constructed": 9332,
      "gradually": 9333,
      "definite": 9334,
      "dir": 9335,
      "फफ": 9336,
      "enforce": 9337,
      "नहक": 9338,
      "कमट": 9339,
      "rename": 9340,
      "वनयमन": 9341,
      "suggested": 9342,
      "consolid": 9343,
      "algorith": 9344,
      "wound": 9345,
      "struck": 9346,
      "bacter": 9347,
      "250": 9348,
      "pher": 9349,
      "saint": 9350,
      "diverse": 9351,
      "vessel": 9352,
      "talking": 9353,
      "summit": 9354,
      "salt": 9355,
      "सदरय": 9356,
      "reckoning": 9357,
      "92": 9358,
      "नफ": 9359,
      "नधय": 9360,
      "लई": 9361,
      "mov": 9362,
      "1971": 9363,
      "उमम": 9364,
      "तदन": 9365,
      "convert": 9366,
      "prospect": 9367,
      "extr": 9368,
      "सभगय": 9369,
      "faculty": 9370,
      "devices": 9371,
      "aming": 9372,
      "मनस": 9373,
      "adding": 9374,
      "malay": 9375,
      "पसदद": 9376,
      "violent": 9377,
      "सवचछत": 9378,
      "acceler": 9379,
      "fertiliz": 9380,
      "anjuta": 9381,
      "assign": 9382,
      "unfortun": 9383,
      "करयरत": 9384,
      "कडई": 9385,
      "1957": 9386,
      "lion": 9387,
      "tv": 9388,
      "stick": 9389,
      "udes": 9390,
      "overcome": 9391,
      "worshipped": 9392,
      "compassionate": 9393,
      "अफगनसतन": 9394,
      "dict": 9395,
      "iya": 9396,
      "सजत": 9397,
      "फरमट": 9398,
      "productivity": 9399,
      "mirac": 9400,
      "jobs": 9401,
      "pillars": 9402,
      "amalgam": 9403,
      "md": 9404,
      "ayur": 9405,
      "diam": 9406,
      "module": 9407,
      "परभवशल": 9408,
      "चलग": 9409,
      "परसथ": 9410,
      "comments": 9411,
      "extract": 9412,
      "publish": 9413,
      "considerable": 9414,
      "bak": 9415,
      "beat": 9416,
      "सतयपत": 9417,
      "vaish": 9418,
      "modified": 9419,
      "interpretation": 9420,
      "yesterday": 9421,
      "एहसन": 9422,
      "icing": 9423,
      "affection": 9424,
      "अधयपक": 9425,
      "authorised": 9426,
      "रचनतमक": 9427,
      "ढढन": 9428,
      "palestinian": 9429,
      "73": 9430,
      "कसक": 9431,
      "टड": 9432,
      "stamp": 9433,
      "पशवर": 9434,
      "हजरत": 9435,
      "begins": 9436,
      "alpha": 9437,
      "illi": 9438,
      "illa": 9439,
      "creator": 9440,
      "monu": 9441,
      "worldly": 9442,
      "जयदतर": 9443,
      "demands": 9444,
      "ignorance": 9445,
      "vary": 9446,
      "अधसचत": 9447,
      "listed": 9448,
      "directors": 9449,
      "अधयकषत": 9450,
      "whomsoever": 9451,
      "enjoyment": 9452,
      "टइप": 9453,
      "fortune": 9454,
      "fined": 9455,
      "propag": 9456,
      "honor": 9457,
      "prepare": 9458,
      "खसक": 9459,
      "ensuring": 9460,
      "icate": 9461,
      "league": 9462,
      "abha": 9463,
      "controlled": 9464,
      "starts": 9465,
      "discussions": 9466,
      "directions": 9467,
      "luc": 9468,
      "परफइल": 9469,
      "बरश": 9470,
      "सयजन": 9471,
      "भरपर": 9472,
      "societies": 9473,
      "फरमबरदर": 9474,
      "topics": 9475,
      "दजए": 9476,
      "फयर": 9477,
      "हउस": 9478,
      "constell": 9479,
      "परतयशत": 9480,
      "dedu": 9481,
      "idols": 9482,
      "preparation": 9483,
      "नरपकष": 9484,
      "porter": 9485,
      "discussed": 9486,
      "pound": 9487,
      "अखबर": 9488,
      "ऊद": 9489,
      "himachal": 9490,
      "commence": 9491,
      "educated": 9492,
      "celebrations": 9493,
      "खवहश": 9494,
      "बरउजर": 9495,
      "96": 9496,
      "bure": 9497,
      "jana": 9498,
      "reput": 9499,
      "paras": 9500,
      "warrant": 9501,
      "yor": 9502,
      "superi": 9503,
      "papers": 9504,
      "consult": 9505,
      "nas": 9506,
      "scan": 9507,
      "घल": 9508,
      "assum": 9509,
      "परतबदधत": 9510,
      "gry": 9511,
      "grew": 9512,
      "इलह": 9513,
      "convention": 9514,
      "ato": 9515,
      "दरत": 9516,
      "elim": 9517,
      "sciences": 9518,
      "doub": 9519,
      "castes": 9520,
      "stages": 9521,
      "weigh": 9522,
      "practical": 9523,
      "advised": 9524,
      "guarantee": 9525,
      "declaration": 9526,
      "rejo": 9527,
      "वयपरक": 9528,
      "नरनदर": 9529,
      "spite": 9530,
      "फतह": 9531,
      "brahim": 9532,
      "hort": 9533,
      "करई": 9534,
      "सकक": 9535,
      "चतत": 9536,
      "faced": 9537,
      "acceptance": 9538,
      "दरशनक": 9539,
      "sharing": 9540,
      "washing": 9541,
      "pical": 9542,
      "अमन": 9543,
      "ordered": 9544,
      "edia": 9545,
      "respite": 9546,
      "warned": 9547,
      "dyn": 9548,
      "हडडय": 9549,
      "australia": 9550,
      "apo": 9551,
      "masses": 9552,
      "गब": 9553,
      "rao": 9554,
      "swar": 9555,
      "पवर": 9556,
      "कलस": 9557,
      "infection": 9558,
      "दरखत": 9559,
      "shift": 9560,
      "हरक": 9561,
      "offence": 9562,
      "invent": 9563,
      "फटकर": 9564,
      "mol": 9565,
      "minute": 9566,
      "owned": 9567,
      "अरण": 9568,
      "chait": 9569,
      "mam": 9570,
      "pc": 9571,
      "इरक": 9572,
      "धरव": 9573,
      "बधक": 9574,
      "bam": 9575,
      "gd": 9576,
      "wrath": 9577,
      "एप": 9578,
      "planned": 9579,
      "95": 9580,
      "gence": 9581,
      "ओपन": 9582,
      "शहद": 9583,
      "convocation": 9584,
      "clar": 9585,
      "आयकर": 9586,
      "सचज": 9587,
      "अवसथत": 9588,
      "involve": 9589,
      "mathem": 9590,
      "वचरधर": 9591,
      "competent": 9592,
      "ibrahim": 9593,
      "उठकर": 9594,
      "accurate": 9595,
      "dwar": 9596,
      "jack": 9597,
      "passeng": 9598,
      "ठहरय": 9599,
      "russia": 9600,
      "felicitations": 9601,
      "determination": 9602,
      "नकरतमक": 9603,
      "steadfast": 9604,
      "वयसक": 9605,
      "viz": 9606,
      "दतओ": 9607,
      "circle": 9608,
      "layout": 9609,
      "अकर": 9610,
      "मतक": 9611,
      "शट": 9612,
      "stan": 9613,
      "सवकरय": 9614,
      "emper": 9615,
      "stored": 9616,
      "achievements": 9617,
      "scene": 9618,
      "obedient": 9619,
      "कनड": 9620,
      "ahmed": 9621,
      "1972": 9622,
      "recognize": 9623,
      "gentle": 9624,
      "yah": 9625,
      "ओवर": 9626,
      "धमक": 9627,
      "ads": 9628,
      "prohib": 9629,
      "कलर": 9630,
      "covers": 9631,
      "अशदन": 9632,
      "brahman": 9633,
      "nps": 9634,
      "insul": 9635,
      "condem": 9636,
      "solve": 9637,
      "legislation": 9638,
      "imagine": 9639,
      "rand": 9640,
      "trash": 9641,
      "transformation": 9642,
      "summer": 9643,
      "circu": 9644,
      "painting": 9645,
      "astr": 9646,
      "trained": 9647,
      "cancer": 9648,
      "पदप": 9649,
      "technological": 9650,
      "topic": 9651,
      "catal": 9652,
      "superior": 9653,
      "tran": 9654,
      "programs": 9655,
      "breast": 9656,
      "righteousness": 9657,
      "virtue": 9658,
      "पगल": 9659,
      "कतजञत": 9660,
      "वयकतक": 9661,
      "signal": 9662,
      "drum": 9663,
      "corner": 9664,
      "athe": 9665,
      "परदरशक": 9666,
      "cement": 9667,
      "investors": 9668,
      "accessible": 9669,
      "forwarded": 9670,
      "waters": 9671,
      "brahma": 9672,
      "आपत": 9673,
      "जप": 9674,
      "सवब": 9675,
      "creates": 9676,
      "mix": 9677,
      "employer": 9678,
      "sensitive": 9679,
      "usal": 9680,
      "दशओ": 9681,
      "वनत": 9682,
      "writings": 9683,
      "सकलपन": 9684,
      "accum": 9685,
      "arrangements": 9686,
      "incurred": 9687,
      "बखबर": 9688,
      "यतय": 9689,
      "वतरत": 9690,
      "हसट": 9691,
      "beach": 9692,
      "एकसचज": 9693,
      "disobey": 9694,
      "cooperative": 9695,
      "अवसरचन": 9696,
      "prevention": 9697,
      "vegetables": 9698,
      "noise": 9699,
      "मतभद": 9700,
      "bliss": 9701,
      "कटटर": 9702,
      "smart": 9703,
      "पओग": 9704,
      "jer": 9705,
      "nin": 9706,
      "vain": 9707,
      "जलल": 9708,
      "परपरगत": 9709,
      "शरणय": 9710,
      "madras": 9711,
      "respondent": 9712,
      "encrypt": 9713,
      "मनफक": 9714,
      "ura": 9715,
      "notified": 9716,
      "वलयम": 9717,
      "bookmarks": 9718,
      "पढई": 9719,
      "1949": 9720,
      "120": 9721,
      "gap": 9722,
      "pick": 9723,
      "compli": 9724,
      "ramayana": 9725,
      "continent": 9726,
      "emergency": 9727,
      "binding": 9728,
      "vehicle": 9729,
      "gross": 9730,
      "पवन": 9731,
      "inhabit": 9732,
      "node": 9733,
      "ops": 9734,
      "कमई": 9735,
      "fores": 9736,
      "पचव": 9737,
      "lady": 9738,
      "quarters": 9739,
      "इषट": 9740,
      "जश": 9741,
      "फलय": 9742,
      "thick": 9743,
      "selling": 9744,
      "सकलन": 9745,
      "बनधन": 9746,
      "itya": 9747,
      "yours": 9748,
      "pret": 9749,
      "वरषय": 9750,
      "वजञपन": 9751,
      "छटट": 9752,
      "difficulties": 9753,
[...]
