à ¤
à ¥
Ġ à¤
à¤ ¾
à¥ į
à¤ °
à¥ ĩ
à¤ ¿
à¤ Ĥ
à¤ ķ
Ġà¤ ķ
à¤ ¨
à¥ Ģ
à¥ ĭ
à¤ ²
Ġ t
à¤ ¤
à¤ ¯
à¤ ¸
h e
i n
à¤ ª
Ġà¤ ¸
Ġ s
à¥ĩ à¤Ĥ
l e
Ġ a
o n
r e
à¤ Ł
à¤ ®
à¤ ¹
Ġà¤ ª
e r
o r
à¤ ¡
à¤ µ
à¤ Ĺ
à¥ Ī
Ġt he
à¥ ģ
Ġ f
a t
Ġ c
Ġà¤ ¹
à¤ ı
i s
à¤ ¦
c t
e n
à¤ ¼
Ġ p
i t
à¤ ľ
Ġ d
i on
Ġà¤ķ à¤°
à¤ ĩ
Ġà¤ ²
o u
Ġ (
Ġ o
e d
Ġà¤ ¨
e s
Ġt o
à¥ Ĥ
à¤ ļ
in g
a n
Ġ b
a r
r o
Ġà¤ ®
Ġ w
à¤ ¬
a l
Ġà¤ ¬
à¤ ¶
Ġà¤ ľ
i le
à¤ ĸ
Ġo f
Ġà¤ «
Ġ n
à¤ ģ
à¤ĩ à¤²
a s
à¤ ¥
Ġà¤ °
Ġà¤ ħ
Ġ in
Ġà¤ µ
o t
à¤ ·
Ġ m
à¤¼ à¤¾
a g
à¤ £
o m
à¤ ĥ
à¤ «
Ġ( _
à¥Ģ à¤Ĥ
a m
v e
i c
a c
Ġà¤ ļ
e t
u t
Ġ C
Ġà¤ ¦
- #
Ġ re
e ct
i l
Ġf ile
Ġà¤¨ à¤¹
Ġà¤ ¯
à¤ Ī
b le
u r
at ion
à¤ §
Ġà¤ Ĩ
en t
Ġ l
Ġà¤ª à¤°
n d
Ġà¤ ¡
à¤ Ń
u s
Ġp ro
j ect
T he
o l
à¤ ħ
Ġ D
i m
d e
-# -#
a ble
Ġ S
Ġf or
Ġ P
e le
Ġb e
a d
i g
e m
à¥ ī
Ġ A
o w
e x
Ġ h
u g
Ġ _
Ġà¤ ĸ
Ġà¤ Ĺ
on t
Ġà¤ ĩ
ag e
Ġn ot
y ou
p t
is c
à¤¿ à¤Ĥ
ele ct
Ġt h
u m
Ġ F
o s
à¤° à¤£
d d
es s
à¤ Ĩ
n t
l l
Ġà¤ ı
Ġ you
Ġ v
p p
Ġ is
. .
Ġà¤° à¤¹
am e
Ġà¤ ¤
Ġ us
c h
e w
à¤ª à¤¯
à¥ ĥ
Ġpro ject
Ġ R
at e
Ġd i
ex t
Ġ on
Ġ +
o c
o p
l y
à¤ľ à¤¨
o ve
ct or
Ġ "
Ġà¤¸ à¤ķ
à¤¾ à¤Ĥ
Ġ T
Ġ -
c e
Ġ g
is t
à¤° à¤¯
à¤ª à¤°
s t
a y
or t
Ġa nd
Ġd isc
Ġà¤ Ľ
ac k
Ġ or
e v
Ġs t
Ġ M
à¤ Ľ
ac e
ar t
à¥ Į
Ġ I
l d
Ġà¤ ī
it h
as e
â Ģ
r i
Ġa n
er s
: %
Ġ B
ur n
à¤µ à¤°
Ġà¤ Ķ
i de
Ġà¤¸ à¤®
Ġc om
Ġà¤ı à¤ķ
Ġs p
Ġà¤ķà¤° à¤¨
i f
Ġà¤Ķ à¤°
à¤² à¤Ĺ
l ug
Ġw ith
à¥ĩ .
lug in
Ġ /
t he
Ġ G
il l
Ġfile s
à¤ ł
er t
Ġ L
Ġà¤ Ł
Ġ '
Ġs u
ou ld
ig h
à¤¼ à¥ĩà¤Ĥ
à¤ ī
Ġ H
Ġ E
à¤¯ à¤¨
à¤Ł à¤°
Ġ it
à¥Ī à¤Ĥ
e c
t er
Ġ im
re nt
p l
c c
i d
s e
Ġà¤Ĩ à¤ª
u b
u n
ar d
pt ion
ou r
Ġc h
i b
à¤ĩ à¤¨
i z
re ctor
Ġ he
o g
à¥Ī .
Ġà¤ ¶
an g
Ġs elect
le ase
V D
k e
in d
Ġà¤¬ à¤¨
âĢ ¦
Ġà¤ħ à¤¨
g r
p en
à¥ĭ à¤Ĥ
s s
an t
Ġth is
u e
à¤¤ à¤°
rector y
igh t
in e
a ve
Ġ N
-#-# -#-#
# -#-#-#-#
à¤¦ à¤²
e l
A dd
u l
om e
Ġ V
à¤ķ à¤²
Ġt r
Ġw ill
in t
al l
ur rent
l ic
ou nd
o de
S t
ro m
à¤ ¢
S elect
e b
Ġà¤¯ à¤¹
Ġ U
Ġp lugin
j ut
ou t
à¤¾ à¤ģ
ide o
jut a
.. .
à¤ĸ à¤¨
Ġ" %
d s
n juta
Ġf rom
d i
the r
ĠC D
a il
ar g
Ġà¤ĩ à¤¸
en er
re d
t h
Ġs h
à¤¼ à¥Ģ
p le
Ġà¤Ľ à¤µ
r as
P lease
à¤ĩ à¤¸
r it
Ġc ont
p e
it or
ro ject
it ion
op y
Ġn ame
Ġ O
Ġà¤¸ à¤¹
an d
Ġ #-#-#-#-#
Ġdi rectory
re e
ĠD VD
à¤ķ à¤°à¤£
à¤° à¤ķ
r or
à¤ķ à¤°
m ent
R em
f f
Ġà¤Ĺ à¤¯
S h
i ew
à¤¶ à¤¨
t e
or d
Ġa ll
a v
i es
à¤« à¤²
Ġim age
Ġth at
o d
Ġa dd
Ġ 2
I n
Ġb urn
Ġc l
à¤¸ à¤®
cc ess
Ġus e
or m
o ad
Ġc an
i x
à¤¹ à¤°
\ \
e ar
our ce
Ġc urrent
o re
ers ion
a in
à¤²à¤Ĺ à¤ĩà¤¨
" %
à¥ĩà¤Ĥ .
Ġà¤° à¤ĸ
Ġt ext
Ġà¤ļ à¤¯à¤¨
Ġ W
Ġà¤ Ń
p ort
ĠF ile
Ġa t
Ġw ant
gr am
i ve
à¤¾ .
W he
Ġà¤¬ à¤¦à¤²
Ġ 1
q u
Ġ e
Whe ther
u di
u re
Ġselect ed
Ġà¤² à¤ķ
ind ow
a ke
Ġa re
n ome
il d
M ove
on ds
à¤ļ à¤¨
à¤¤ à¤®
eb ug
Ġ en
Ġà¤ħ à¤ķ
udi o
à¤ı à¤ķ
n able
Ġà¤ķ à¤®
à¤° à¤¤
arg et
à¤¹ à¤²
Ġp o
Ġm an
Ġ ~
ct ion
iz e
N o
y pe
at a
ar y
R e
os e
at ed
à¤¯ à¤¤
Ġv ideo
re ss
Rem ove
Ġ r
Ġà¤ª à¤¤
f orm
u ll
Ġ( %
Ġà¤ī à¤ªà¤¯
à¤¨ à¤¯
à¤ª à¤¨
Ġh i
Ġ ex
ear ch
Ġà¤¸à¤ķ à¤¤
er o
Ġ 0
Ġyou r
à¤Ĺ à¤²
es t
at h
ic e
ras ero
Ġ Y
Ġa pp
ol d
Ġus ed
as s
Ġ le
Ġ X
r an
Ġw h
Ġa s
it y
re ate
i ble
ag es
Ġ em
Ġs y
c k
he ck
Ġa l
à¤Ĺ à¤°
u p
A njuta
Ġf l
à¤ħ à¤¨
ent s
Ġw rit
Ġcom m
Ġb y
Ġ ont
à¤¨ à¤¹
D is
Ġà¤¹ à¤Ł
v er
Ġa ctor
art s
l ay
ess age
n ot
Ġo ption
à¤¹ à¤¤
at ch
on f
o f
pt y
Ġt arget
Ġont o
om m
Ġs et
Ġre m
à¤· à¤®
Ġ ro
ul t
D o
Ġd o
k ing
Ġc ol
à¤Ł à¤¨
Ġch ang
on g
e f
à¤¯ à¤ķ
pp ort
um b
ev ice
Ġtr ack
Ġfl ag
Ġn ew
ĳ à¤¡
al ly
l ib
Ġ if
Ġa udio
p er
à¤¨ à¤ķ
ub s
ag er
ĠU R
Sh ow
ad es
am onds
à¤¡ à¤°
Ġsp ades
Ġhe arts
Ġdi amonds
Ġcl ubs
Ġc ould
as t
à¤ķ à¤¡
in k
r a
Ġo pen
Ġd ata
ent er
ot e
Ġh as
Ġà¤ ĺ
i ed
ĠP roject
Ġà¤¸à¤® à¤°
à¤ļ à¤¯à¤¨
Ġ i
ebug g
Ġin st
Ġw indow
ig n
o o
a ct
à¤¦ à¤°
ib r
Ġà¤Ĩ à¤ķ
C D
u ild
Ġem pty
Ġsu pport
i v
Ġà¤ħ à¤§
ation s
n c
c ri
p ert
form ation
s ert
Ġpro gram
en d
ic en
ow n
Ġà¤µ à¤°
Ġp re
pl ay
à¤ģ .
à¤µ à¤¨
Ġà¤¬ à¤°
à¤¼ à¥ī
Ġcom p
V S
Ġà¤¸ à¤Ń
Ġà¤ Ĭ
Ġsh ould
icen se
à¤¸ à¤Ń
l p
à¤¸ à¤°
à¤µ à¤¤
à¤¥ à¤¨
t k
F ile
g nome
Ġc all
b ject
Ġà¤ķà¤° à¤¤
Ġt ype
er m
Ġà¤¯ à¤¦
er ror
Ġv al
à¥Ĥ à¤Ĥ
à¤Ľ à¤µ
Ġd evice
I m
r ror
C h
a b
h is
P ro
à¤¯ à¤°
à¤° à¤µ
umb er
A ut
ener ic
à¤ı à¤¸
Ġv ersion
Ġc ard
ou s
Ġà¤¸ à¤¤
C l
b ol
u le
id th
i r
à¤ª à¤¸
Ġw he
S ave
Ġà¤Ĩ à¤°
Ġ un
N ew
à¤¾ à¤ĥ
O pen
os t
m bol
us t
ĠD isc
a k
i p
B urn
Ġw as
Ġp lay
c re
Ġl oc
o x
Ġp ath
n ing
à¤¨ à¤²
ition al
r ou
Ġs ource
ĠG N
à¥ĩà¤Ĥ à¤ĥ
ĠA njuta
E rror
p os
oc um
Ġ error
Ġa ut
Ġ j
he r
at or
c ess
ĠL icense
C opy
Ġd is
i pp
ile d
a re
ur ation
P roject
r y
Ġf ound
t ing
Ġn ext
ad er
à¤¤ à¤¨
p ut
pl ace
C reate
Ġ ed
E nable
à¤µ à¤°à¤£
Ġm ode
oc k
im e
à¤¯ à¤¹
i al
im um
à¤² à¤¬
à¤° à¤¬
Ġflag s
ibr ary
à¤µ à¤²
à¤¸ à¤ķ
E d
um n
ĠS t
Ġl ine
og l
ĠUR I
he d
ccess ible
old er
onf ig
rou p
Ġm essage
od ule
oo k
is s
Ġin ter
a ult
ebugg er
C omm
Ġ0 2
C VS
Ġc opy
Ġd ri
Ġre qu
Ġs ize
ec if
Ġ x
à¤° à¤¸
Ġburn ing
Ġdo es
os ition
i re
Ġre c
à¤ħ à¤ª
U se
t ed
Ġchang es
l ace
cre en
ipp et
n ippet
Ġsp ace
à¤ī à¤Ł
Ġh ave
Ġb ut
ĠI n
Ġcomm and
Ġ' %
à¤¼ à¤¿
o ose
U n
à¤ķ à¤®
à¤ ĺ
e p
E R
h ot
à¥ģ à¤ģ
D VD
ou nt
à¤µ à¤¸
à¤¦ à¤¦
à¥Ī ,
l ot
A D
E AD
ĠH EAD
à¤¬ à¤¦à¤²
i B
lic ation
Ġà¤¨ à¤ķ
ent ation
Ġo per
t w
ar k
b ut
Ġst art
e re
ve l
ĠI m
i ous
à¤² à¤¨
ĠP lugin
à¤¸ à¤¬
Ġà¤¦ à¤¹à¤²
x is
Dis able
l ow
Ġcan not
ener al
f ace
re ad
re ak
an ce
Ġà¤¸à¤® à¤¯
v ersion
av a
Ġl oad
Ġp ack
) :
Ġin formation
A n
ef ault
Ġn o
St art
s er
o int
ri but
Ġà¤ ¢
Ġfor m
e ed
à¤¬ à¤Ĺ
C ould
à¤¹ à¤Ł
à¤· à¤ķ
a iled
a p
k n
Ġplugin s
à¤¤ à¤¸
à¤¸ à¤¨
Ġà¤ ĳà¤¡
l an
à¤° à¤¹
Ġc re
Ġon e
Ġ u
à¤¦ à¤¨
ig a
k iga
Ġc ode
Ġà¤ħ à¤¤
à¤ļ à¤²
Ġ âĢ
ĠC l
Ġman ager
nt er
à¤¦ à¤ķ
à¥Īà¤Ĥ ?
S ub
v al
U nable
l ight
Ġà¤ª à¤¥
Ġà¤¨ à¤¯
à¤Ĩ à¤°
i ct
is ion
C on
B rasero
p oint
ccess f
Ġoption s
pert ies
a le
g le
Ġre port
Ġon ly
Ġà¤ľ à¤°
st em
à¤ķ à¤¨
à¤ı à¤Ĺ
ic al
à¤«à¤² à¤¤
ull y
reak point
à¤¸ à¤¹
a ut
Ġpro cess
es cri
à¤¨ à¤°
P lace
Ġs earch
P I
à¤Ĺ à¤¤
Ġà¤ ¥
tw are
of tware
Ġc heck
Ġwhe n
u al
v ious
Ġw idth
Ġl ibrary
Ġsy mbol
kn own
C ont
à¤ī à¤ªà¤¯
Ġà¤ª à¤¹à¤²
Ġm in
escri ption
ev en
Ġcom ple
Ġà¤ī à¤ª
Ġ ke
pos itor
a x
Ġin sert
Ġ enter
f ile
The re
igh light
Ġl a
Ġà¤¦ à¤¸
Ġà¤ļ à¤²
Ġre ad
Ġl ist
Ġl ink
Ġ out
Ġd et
il ter
r int
o ol
at ing
S I
Ġdi ff
Ġselect ion
at ic
ess ion
y th
Ġcol or
Ġa xis
ran s
nc es
à¤Ĩ à¤Ī
S earch
ĠA dd
ccessf ully
he s
Y ou
Ġà¤¤ à¤¸
à¤§ à¤¨
S c
à¤§ à¤ķ
Ġà¤ħ à¤¸
à¤µ à¤ķ
à¤° à¤¦à¤°
at us
ĠE d
Ġcont ain
v iew
à¥Ģ à¤ĥ
Ġg nome
Ġsp ecif
un ction
yth on
à¤ĥ %
à¤ ĵ
ec ut
Ġs c
Ġwith out
à¤Ľ à¤²
ption s
T his
Ġp an
you t
Ġà¤ §
ss ist
Ġus er
ac h
en s
I f
ur s
u ff
ub lic
ist ribut
O N
ele te
Ġp ix
Ġ =
nd er
Ġà¤Ĺ à¤Ī
Ġsu re
ĠP ublic
b out
el p
Ġà¤ª à¤¹
al s
Ġus ing
Ġed itor
b ox
Ġà¤¬ à¤Ĺà¤²
à¤ª à¤ķ
à¤ª à¤¹
positor y
ĠP ro
Ġb ack
re f
as h
Ġ ext
ĠFile s
M E
Ġc on
à¤ħ à¤¤
Ġoper ations
Ġto ol
ĠA ll
Ġà¤µ à¤¸
Ġg roup
Ġd e
à¤¦ à¤¶
à¤ ŀ
à¤£ à¤¨
Ġ" -
in al
A R
à¤¨ à¤¤à¤®
Ġwh ile
Ġ Z
Ġw or
à¤ª à¤Ł
Ġex ist
Ġ up
Ġval ue
à¥Īà¤Ĥ .
à¤° à¤®
ĠS et
Ġs lot
ĠGN U
Ġen able
Select ed
Ġà¤ľ à¤¬
à¤· à¤£
Ġsu ccessfully
ail able
iss ing
à¤¸à¤¬ à¤µà¤°
à¤ħ à¤¸
Ġc d
Ġf ol
Ġwrit e
Ġt able
Ġp osition
Ġrem ote
Ġre s
Ġan y
ro w
à¤ĩ à¤µ
Ġsy stem
m ed
B uild
al le
U R
A ll
Ġcre ated
J ava
e e
ĠIm age
Ġm ay
ĠM iB
Sub version
L oad
ere nces
g e
l u
à¤ĩ à¤¬
Ġf ree
am es
à¤ª à¤¤
v ailable
Ġà¤ľ à¤®
i red
Ġform at
if y
ocum ent
à¤¸à¤® à¤°
d ate
ĠR e
n ame
à¤¯à¤¤ à¤¨
et w
Ġt ag
ĠM an
ic h
an s
ĠG eneral
A pp
Ġcomp ile
D isc
ar act
Ġc reate
Ġrem ove
C an
Ġhe ight
Ġà¤ħ à¤µ
of s
is ofs
Ġt ime
S ource
à¤¬ à¤Ĺà¤°
à¤¸ à¤¤
à¤Ł à¤ķ
en u
re c
on e
s creen
o v
t t
V iew
it e
à¤Ł à¤®
à¤ĩ à¤Ł
S im
Dis play
à¤ ĳà¤¡
à¤¯ à¤¸
à¥ģ à¤Ĥ
Ġs ome
Ġg eneric
S et
Ġwh ich
st all
Ġt erm
Ġà¤Ĩ à¤µ
à¤ķ à¤¤à¤®
Ġfol low
Ġen d
ĠR em
Ġcol umn
Ġà¤ Ī
Ġà¤¬ à¤ľ
Ġrequ ired
T K
ĠP lease
I T
or iz
Ġl ast
à¤«à¤² à¤ķ
g ist
Ġs nippet
Ġt ree
w o
Ġm ore
à¤¤ à¤ķ
am er
Ġm ail
ĠN ame
Ġke y
q ue
M in
g ed
t on
val id
Ġadd ress
in ue
lic k
G eneric
à¤Ĺ à¤®
Ġspecif ied
uff er
S p
p h
à¤ª à¤£
Ġdri ve
om atic
Ġp ar
ook m
de x
Ġro w
Ġà¤ª à¤¢
Ġcall s
Ġp hot
Ġ 3
V ideo
ul ation
n al
lan k
Ġdis play
n ect
Ġit em
ookm ark
ĠN ew
à¤¼ à¥Ĥ
à¤ķ à¤Ī
Ġch aract
Ġre v
ĠC ont
Ġà¤¸ à¤«à¤²à¤¤
à¤¬ à¤¤
SI ON
ER SION
ĠV ERSION
à¤ī à¤ª
Ġloc ation
O ME
ert ical
Burn ing
Ġhe lp
ec onds
Ġin dex
E x
C ogl
a o
Ġ \\
oc ation
Ġ K
C ol
à¤ķ à¤ª
F ont
Ġre place
oriz ont
re s
V al
Ġla yout
Ġo bject
à¥Ģ .
à¤® à¤¦à¤¦
Ġà¤ª à¤Ł
Ġbe en
T r
M ake
om ple
Ġà¤ķ à¤¡
à¤¬ à¤¨
Ġà¤¬ à¤¡
Ġt em
g et
o le
à¤ħ à¤ľ
Ġà¤¸ à¤°
ĠâĢ Ķ
Ġin d
Pro gram
Can not
r ag
P lugin
ax imum
t op
k top
à¤· à¤°
à¤° à¤Ń
à¤ħ à¤§
Ġwrit able
Ġre t
Ch oose
ĠMan ager
Ġ The
it s
à¤¦ à¤¸
Ġcont ents
Ġr un
orizont al
Ġà¤Ĩà¤ª à¤ķ
it ial
if f
Ġsh ow
à¤¯ à¤¦
Ġ @
Ġb uffer
Ġn umber
O n
Ġb ug
Q u
à¤µ à¤ļ
ssist ant
Ġa cc
Ġm odule
Ed it
av ing
Ġapp lication
Add itional
ail s
0 0
Ġa ction
ged it
ict ure
i a
Ġcompile r
O L
ĠE OL
D e
vel op
us e
T ext
ff ect
id get
C urrent
à¤² à¤ķ
Im age
l ist
Ġf older
Ġs er
urs or
es ktop
Ġo cc
à¤ħ à¤Ĺà¤²
ut ter
ĠCl ass
f ore
Ġbe fore
r ing
ĠY ou
ĠB rasero
w ard
t o
Ġn eed
ĠD o
Ġd efault
à¤Ĩ à¤īà¤Ł
ras h
A ccessible
pl it
F or
Ġc onfig
à¤¯ à¤¶
Ed itor
ting s
alle d
Ġf ull
N T
) .
Ġs ound
f ter
cri pt
Ġch ild
Ġv iew
et h
Ġà¤ ĳ
Ġà¤¬ à¤Łà¤¨
Ġtext ure
Sim ulation
e en
etw een
Ġb etween
Ġ [
Ġt wo
f t
ĠC h
Ġà¤ĩ à¤¨
Ġà¤ħ à¤ªà¤¨
ran ch
c hes
Ġrev ision
it le
Ġa fter
Ġà¤ī à¤¦
Ġà¤°à¤ĸ à¤¤
% .
i able
R un
Ġthe m
à¤Ĩ à¤¯
à¤ĸ à¤£
ĠT his
read y
Ġp a
ĠC ol
Ġal ready
r ame
Cl ose
à¤² à¤Ł
à¤· à¤¯
à¤ª à¤¥
à¤¨ à¤¤
c om
) ...
ĠM ode
r u
D elete
g h
Ġle ft
Ġg ame
ĠH elp
Ġà¤ı à¤Ł
Ġsupport ed
In sert
Ġo ver
que en
Ġpro perties
H ighlight
ĠE x
à¤ļ à¤°
Ġà¤ĩà¤¸ à¤ķ
ĠB urn
Ġpan e
Ġbut ton
a de
Ġcard s
Ġa vailable
p or
ens ion
w ord
Ġpack ages
Ġm ust
ĠV iew
à¤¥ à¤®
ar iable
ĠO ptions
ev er
y le
Ġ qu
Ġà¤Ĩ à¤īà¤Ł
b urn
Ġenable d
Ġfollow ing
h or
a u
ĠS elect
à¤¿ .
s um
ĠO pen
o om
S y
Ġin to
Ġh int
ang e
Ġm ain
Ġat t
Ġa ccessible
à¤µ à¤Ł
Ġà¤ħ à¤¸à¤®à¤°
W rit
Ġburn ed
Ġinst all
he lp
ev help
Ġ+ )
c on
Ġcharact ers
Ġf ilter
Ġtr ans
P re
Ġex ecut
Un known
Ġd istribut
à¤® à¤¤
ĠS ource
a red
ar ning
Ġcomple te
a pp
Ġs ession
on d
à¤ Ŀ
à¤¯ à¤®
Ġinst alled
b ar
il ity
à¥ĩà¤Ĥ ,
ĠC ogl
u i
lib gnome
C heck
A re
F ailed
Ġc or
Ġinter face
H e
Ġà¤īà¤ª à¤²à¤¬
Copy ing
Ġch oose
Ġre pository
i rectory
Ġcomm it
R es
ĠC opy
Ġà¤® à¤¦
à¥Ģ -
rec ord
Ġb rasero
S O
Ġsymbol ic
Ġadd itional
ess ages
Im port
ic k
à¤ħ à¤µ
Ġcd record
or y
in es
Ġl og
à¤ Ķ
Ġit s
ĠUR L
ang u
g tk
ĠF ound
Ġan im
ĠGN OME
I P
Ġà¤¨à¤¹ à¤²
Ġà¤Ľ à¤ķ
Ġ2 4
P atch
ref erences
Ġà¤ħ à¤Ł
à¤¬ à¤²
Ġà¤Ĺ à¤ı
Ġre ally
al y
Ġm enu
% %
rans l
C re
Ġs ong
Ġo ther
t ion
at er
Ġs oftware
Ġu nder
Ġà¤° à¤¦
Ġà¤¬ à¤ļ
Ġt en
is hed
at ive
ign ment
Ġchang ed
le an
Ġf ailed
I D
Ġocc ur
Ĳ à¤¸
Ġà¤ĩ à¤ķ
Ġ âĢ¦
Ġf unction
og gle
ĠL ine
am et
In stall
H A
ĠS oftware
ĠR es
N ame
h a
à¤ĸ à¤ķ
à¤Ĩ à¤§
Ġà¤® à¤¦à¤¦
ĠE kiga
Ã Ĺ
A udio
Ġf ont
ĠT ext
omm it
O bject
Ġb uild
t en
Ġst atus
à¤¤ à¤°à¤£
Ġà¤ª à¤¸
S plit
r d
Ġim ages
R ev
por ary
Ġsearch ing
ot her
Ġan other
ro l
à¤¸ à¤°à¤£
à¤ħ à¤¦
ri ev
v ert
om ake
ĠH e
S w
m ake
ĠI t
Ġj ack
Ġe ight
Ġs even
Ġs ix
Ġf our
e rent
Ġdiff erent
Ġà¤Ĺ à¤¤
Ġ24 5
il us
aut ilus
Rem ote
ĠF older
Ġman ual
iz ed
l oad
Ġf ill
à¤® à¤Ĺ
Ġà¤Ĩ à¤¯
F ind
Ġd ebugger
Ġ k
ack age
P ath
ĠV al
à¤® à¤°
Ġcheck sum
ĠEd itor
Ġs ign
l ine
p date
Ġa ct
Ġ king
iv en
Ġg iven
T H
ion s
Ġpix el
Ġind entation
u ally
Ġf ind
Ġplay ed
M aximum
Ġà¤¬ à¤¤
c am
eb cam
rd ao
Ġhe re
( .
? :
) ?:
] )?:
Ġ[ \\
Ġ( \\
ĠRem ove
Ġpre f
Ġpro v
res h
Ġd escription
à¤¿ à¤ĥ
Ġphot os
Ġout put
Ġloc al
Comm and
i e
à¤¤à¤° à¤«à¤²à¤ķ
Ġà¤Ĭ à¤ªà¤°
Ġà¤ħà¤µ à¤§
Ġsp eed
s ide
" .
Con vert
Ġmail box
and ard
ĠL og
Ġof f
Ġ queen
Ġn ine
Ġf ive
Ġth ree
UR I
I nter
pert y
Ġà¤ħ à¤Ĺà¤°
à¤¼ à¥ĭ
Tr ace
Ġapp ly
ebugg ing
g th
amet ers
ie ld
le ar
à¤ķ à¤¤
à¤Ķ à¤ľ
ĠI SO
6 0
6 60
9 660
ĠW indow
Ġn et
Ġback end
T ype
Ġs ave
Ġin te
ĠR ev
ple ment
c lu
à¤Ń à¤µ
Ġà¤Ĩ à¤¤
à¤² à¤¸
Ġà¤Ń à¤°
ĠM essage
Ġp ython
Ġinte gr
Ġsu it
P lay
Ġdet ails
Ġth an
ĠT able
Ġb ox
ib ility
à¤Ł à¤µ
t ation
Ġro tation
in ate
Ġtarget s
n el
Ġopen ed
I s
Ġre ce
ang es
l ink
à¤« à¤°
à¤ķ à¤Ł
Ġpre vious
rector ies
ou gh
ro p
ĠI f
ĠFound ation
ĠF ree
ing le
A l
re n
à¤¹ à¤°à¤£
à¥ĩ -
G L
G TK
M er
c ed
Ġhe ader
G o
ĠB reakpoint
ent ly
r ight
Ġà¤¬ à¤Ĺ
à¤Ĩ à¤ķ
amer a
ĠCol or
ix ed
Ġd ebugging
iv ate
C onfig
Ġm ost
o ard
a use
l o
C om
M issing
Ġpa rent
Ġwor k
Ġà¤« à¤²à¤ķ
Ġà¤² à¤Ĺ
à¤¶ à¤¬
S L
Ġin side
ĠC heck
Ġa ss
Ġval id
Ġal ong
I C
Ġà¤° à¤ĸà¤¨
ĠV ideo
als a
Ġpo int
Ġc o
In valid
ac es
gist er
Ġf rame
Ġrun ning
Ġb reakpoint
ool s
s ible
ĠD e
Ġsp l
K e
er c
Ġa ccess
Ġà¤ ł
Ġà¤Ĩ à¤Ĺ
arg e
l ict
onf lict
Ġin put
r g
Ġst yle
Ġ ent
A PI
Ġd uration
à¤ı à¤²
Ġcont act
Ġnot ify
Ġext ension
Ġsuit able
De al
ĠP references
à¤¡ à¤¤
n autilus
à¤² à¤¤
Ġà¤Ĩ à¤Ī
à¤ķ à¤¸
Ġà¤ķ à¤¨
Ġtr ue
Ġlink s
g er
T M
ass word
1 1
g ain
Ġs econds
D efault
Ġst ate
Ġà¤ħ à¤Ĺ
- -
ĠB ug
Ġpack age
l ade
ac hed
at ches
Ġtable au
f ul
O T
Ġw idget
S ize
Ġto p
à¤Ł à¤ħà¤ª
ord inate
libgnome ui
p ress
am ple
Ġload ing
I t
ir st
l ock
à¤Ĩ à¤ªà¤ķ
à¤ħà¤¸ à¤«à¤²
Ġà¤ĩà¤¨ à¤ª
Ġà¤Ĩà¤īà¤Ł à¤ª
à¤¯ à¤²
Ġà¤¤ à¤ķ
à¤¼ à¥į
à¥Īà¤Ĥ ,
Ġc amera
Ġdri ver
ac ing
re ct
G tk
es e
im al
Z oom
ĠD ebugger
ĠSt art
D ebugger
og en
Ġset tings
ĠEd it
C o
ord ing
à¤ķ à¤¸à¤®
ut il
ĠDVD s
Ġto o
" ,
G it
Ġp art
if ied
ĠA PI
N ot
Ġw ay
Ġa ce
Ġl ater
V ertical
à¤° à¤ļà¤¨
P A
Ġm ed
it ch
Cre ating
D iff
gr ound
ru pt
ĠA ut
b u
Ġconfig uration
Ġm od
ĠL e
Ġm issing
Ġà¤ī à¤¤
Ġà¤ļ à¤µ
2 3
hot o
Ġc rash
Sc ale
D evhelp
omatic ally
Ġa b
w rit
Ġm essages
N umber
ĠP re
ar ies
ibr aries
op up
Ġ `
Ġp erm
ult i
b oard
B ack
Ġ even
Ġspl it
ĠT ype
Min imum
Ġ y
à¤¬ à¤¹
Ġt im
Comm on
ele ted
ic ation
Ġpixel s
arg in
s u
av ed
Ġd ocument
ul ar
Ġm ov
All ow
t om
à¤¶ à¤ķ
util s
ra w
ffect s
Ġ1 0
ĠC VS
i an
oc us
ac ity
à¤¬ à¤¦
Ġà¤ħà¤¸ à¤«à¤²
ur face
Ġim med
A P
am ed
Ġwhe re
en ame
ĠD irectory
dd en
P ython
Aut o
Ġc ursor
T oggle
St op
Cl ass
bu f
Ġdoes n
pl ate
Ġcurrent ly
Ġà¤ħ à¤ĸ
Ġà¤Ĺ à¤²à¤¤
Ġco ordinate
ill a
z illa
Writ ing
ĠG iB
Ġv ide
Ġb ur
Ġplay list
Ġmed ia
ig ger
ĠP ath
ĠE nd
Comm it
ĠB uild
Ġtem porary
O S
S D
à¤ ĳ
Ġà¤µ à¤¹
à¤® à¤ķ
Ġacc ount
c d
com ing
Ġ Java
ĠT r
ĠO ut
P rint
m ap
d esktop
Ġde velop
Ġfound ation
Ġc lick
ĠB ookmark
s p
ot tom
à¤ī à¤ľ
à¤¨ à¤¨
Ġà¤ħ à¤ª
Ġsh ader
pt h
Ġin itial
oc omple
Ġpro perty
Re place
ter n
Ġuse ful
op e
it her
A bout
ĠS ee
ac c
à¤ł à¤Ń
Ġà¤¦ à¤°
Ġvide os
um e
e red
m m
Ġrequ est
Ġed it
Ġal ph
al og
ĠC ommit
Ġb as
m e
H orizontal
Ġm atch
ĠIn formation
Ġ ev
à¤¬ à¤°
à¥ĩà¤Ĥ )
Sh ould
V CD
ĠWindow s
Ġdet ect
w ay
f or
Ġwrit ten
m it
Load ing
ĠM odule
G eneral
Ġfull screen
iv ed
Ġre d
Ġb ar
ab el
s et
e ll
Ġà¤Ĩ à¤§
à¤°à¤® à¤£
E kiga
ele ment
Ġ element
Ġb ranch
Sy mbol
Ġp er
Config ure
ĠI D
Ġcon nect
ĠS u
B ase
Ġs ee
P osition
Ġà¤īà¤ª à¤ķà¤°à¤£
à¤ī à¤²à¤Ł
à¤¬ à¤ķ
Ġà¤¤ à¤¤
à¤Ĩà¤° à¤Ĩà¤Ī
Cl utter
n gth
Ġle ngth
Ġtrack s
as ing
Ġs creen
I con
Ġpre view
ĠO bject
on ment
ir onment
v ironment
S S
I L
R ec
Ġcontain s
Col umn
ord er
Ġà¤ľ à¤¨à¤ķ
Ġh ost
us y
Ġle ast
u es
Ġsu b
Ġtr y
b ase
Ġres ol
A d
Ġdis k
U ser
ĠPro gram
Sp ecif
at ur
ĠF ull
Qu it
ĠG ame
G N
ĠS h
O R
à¤° à¤Ĺà¤¤
à¤īà¤ª à¤ķà¤°à¤£
Ġc enter
a ctor
dd y
Sw itch
Ġser ver
ĠA ssistant
ĠG TK
D ata
Ġtool s
Ġtag s
Ġadd ed
ang o
ort ed
em ent
Ġen ough
ĠA n
Ġbas ed
à¤ĩ à¤®
à¤ª à¤ħà¤ª
Ġà¤ħ à¤Ń
Ġà¤ī à¤¨
Ġfor ward
Ġl ong
Ġcont ent
Ġcl ip
ĠS earch
ĠPro perties
rg um
Ġ 5
Ġo ld
ĠSt atus
T h
A ct
D escription
à¤¯ à¤¥à¤¨
à¥ĭ à¤ĥ
Ġal ignment
lan king
ĠR W
Ġintegr ity
s ing
Ġc a
Ġa ssistant
Ġatt ach
aut omake
ĠDisc ard
C all
ef in
P ix
Ġa gain
âĢ Ŀ
ľ %
Ġrece ived
Ġim pl
W indow
ĠCh anges
L oc
Ġà¤ħ à¤²à¤Ĺ
à¤¯ à¤ªà¤°
Ġà¤Ł à¤°
à¥Ī ...
Ġp lease
In itial
us h
Ġj ava
Ġwor king
Ġa d
Ġdi rectories
c ut
ort cut
Current ly
B ug
S ign
Ġl ost
à¤¸à¤® à¤¯
el ine
j ust
u ddy
Ġs lic
Ġl arge
Ġin coming
ch or
ust om
Mer ge
angu age
iz ation
T ag
ist ory
n ce
umb ers
Cont inue
nter ing
is ible
em b
og n
l ished
a ire
it aire
ol itaire
ĠH ide
t r
Ġent ry
à¤ı à¤ķà¤²
à¤ħ à¤²
riev ing
il t
a j
Ġs o
P L
Ġneed s
Ġman ually
Re pository
Aut hor
he ll
g ress
G et
H y
c es
Ġà¤ħ à¤¤à¤°à¤«à¤²à¤ķ
à¤Ĩ à¤ª
à¤¼ à¥ĩ
à¤¤ à¤µ
à¤ļ à¤¯
à¤« à¤¸
Ġ3 23
Ġre ct
he ese
atur al
n umber
Ġ 9
Re qu
p age
ever al
pen d
d b
Ġhi dden
Ġl ibraries
f o
L ocation
O ptions
m ail
Ġa bout
Ġoccur red
U L
Ġst ring
ocum ents
d er
Ġdis able
Ġà¤¸ à¤¬
à¥ ¤
Ġpro per
Ġd ebug
Ġst andard
ĠS ub
I nd
L ine
ĠC om
ĠURI s
H elp
Ġb ookmark
red its
Ġc redits
n um
S cript
Ġim plement
Ġh ighlight
Ġà¤ı à¤®
Ġà¤ī à¤ªà¤¸
à¤ı à¤®
à¤ħ à¤ªà¤¨
ĠS IP
Ġanim ation
lib isofs
Ġcode c
ĠCD s
Ġb lank
Ġb usy
Ġh old
i o
Ġle vel
M essage
Ġaction s
ĠT arget
ĠIm port
p ile
Ġs e
ot h
Ġw ar
Ġdistribut ed
E nd
à¤¤ à¤¤
à¤¡ à¤¨
à¤² à¤®
à¤¸ à¤ª
à¤·à¤¯ à¤µà¤¸
ulti ple
o red
ad ing
App ly
Ġdi alog
Ġtem plate
D ebug
Ġt ab
ĠD iff
Ġexist s
Ġro ot
ĠS ave
ag ement
Ġman agement
al ing
Ġm ove
St re
ser ve
ER C
Ġg ames
Ġc ount
Ġor der
C lear
à¤¬ à¤µà¤¤
à¥ĩà¤Ĥ ?
r av
Ġcd rdao
row isofs
ĠBurn ing
Ġdisc s
Ġprogram s
F ilter
u red
St ring
Ġsc an
ĠD ata
i ent
Make file
Ġg et
N ext
ariable s
Sh ared
oc i
Ġ 6
ĠS c
Ġall ow
Ġe ither
ra ph
ĠA pp
I N
Ġà¤Ĩà¤µ à¤¶
Ġà¤¬ à¤«à¤°
à¤ĩà¤² à¤¨
Ġà¤¤ à¤°
ĠB uddy
Ġp icture
ĠM D
Ġc ap
Ġinst ance
et rieving
d ed
end ing
Ġ #
in u
st art
Ġup date
a h
t able
en ce
ransl ator
t ranslator
à¤·à¤® à¤¤
à¤° à¤¶
à¤² à¤°
à¤· à¤¤
Ġà¤¬ à¤¢
Ġat l
Ġrect ang
Ġsu ite
le r
ec ond
Ġsnippet s
or k
it ive
ener ator
ocum entation
pe at
Ġre g
Ġsp aces
ĠPre vious
Pre vious
ĠVal ue
M odule
Ġp opup
i ke
Ġl ike
Ġh and
id es
a it
R A
p acity
Ġpan el
im med
à¥Ģ /
à¥Ģà¤Ĥ .
p ro
et c
Ġ etc
Ġan aly
ance l
er nal
Ġext ernal
orm al
Ġst ill
Ġd ec
Ġr ight
Ġun known
W h
Ch ange
Ġtool bar
is le
as k
Ġre l
on ent
à¤ Ĳà¤¸
Ġà¤ªà¤¹ à¤ļ
à¤ĺ à¤Łà¤¨
Ġs ile
Ġst ore
pos sible
Ġreport ed
D evice
di rectory
nippet s
Ġval ues
m l
Ġim port
' ,
D L
ĠS DL
Ġd eleted
Ġp atch
Ġw ord
Ġass oci
Rev ert
Ġf irst
k er
P ackage
ĠSh ow
Ke y
Ġl abel
L e
ay er
Ġà¤ħ à¤²
Ġà¤ª à¤¶
à¥ĩ ..
à¤¸ à¤µà¤°
à¤Łà¤ķ à¤Ł
à¤¼à¥ĩà¤Ĥ .
à¤ Ĭ
Ġphot o
s ed
ot ation
Ġproper ly
Ġaut hor
ĠL ibrary
Ġpro file
Res et
ĠX lib
ov ed
ĠF ind
Ġcl ass
Ġ z
um p
erm inal
rgum ents
Ġperm iss
Specif y
g n
E SS
ĠA N
Ġv ertical
Ġh orizontal
ĠCont ents
at es
ĠSelect ion
Ġaccess ibility
à¤ħ à¤Ĺà¤°
à¤ĩà¤¸ à¤ķ
à¤ħ à¤ķ
à¤¨ à¤Ł
à¤Ĺ à¤¹
Ġà¤ľ à¤Ĺà¤¹
à¤Ĺ à¤¨
à¤² à¤Ń
à¤ı à¤Ł
U N
T UN
R otation
Ġmin imum
al ity
Ġqu ality
F inal
Ġc ue
d out
Ġst dout
ol ume
o ing
g oing
T rans
rupt ed
ocomple tion
ens itive
if ication
B lank
el oad
Ġf ield
ĠC ard
T ime
ĠâĢ ľ%
Ġre serve
OS E
P OSE
UR POSE
ĠP URPOSE
UL AR
IC ULAR
T ICULAR
AR TICULAR
ĠP ARTICULAR
ĠF OR
N ESS
IT NESS
ĠF ITNESS
IT Y
IL ITY
B ILITY
A BILITY
NT ABILITY
HA NTABILITY
ERC HANTABILITY
ĠM ERCHANTABILITY
ant y
r anty
Ġwar ranty
Ġimpl ied
NT Y
RA NTY
AR RANTY
ĠW ARRANTY
ĠAN Y
U T
O UT
H OUT
IT HOUT
ĠW ITHOUT
Ġh ope
tr l
C trl
in ter
ĠR ec
Ġrow s
lp ha
Ġà¤ļ à¤°à¤£
Ġà¤ľ à¤¹
2 5
r ames
Ġsong s
Ġre writ
Sc an
r on
T ransl
Ġex it
ĠA bout
Ġcomple tion
press ion
or ity
Ġp rint
Ġp age
Ġpar ameters
Ġd elete
U pdate
ĠLe aving
nt e
ep ar
ce pt
ut ion
clu de
à¤¿ ,
Ġà¤ Ĳà¤¸
à¤° à¤¦
à¤ª à¤¬
à¤ĸ à¤°
à¤¬ à¤ļ
à¥ĩà¤Ĥ ...
ah oo
y ahoo
à¤ī à¤¸
ĠCl utter
T ake
Ġm d
Ġset up
C lick
Ġr at
) ,
Ġtr igger
D rag
Ġinter val
B ranch
Source View
G lade
Ġp ress
Ġh istory
Ġn umbers
Add ress
ĠIn stall
ĠE ntering
Ġterm inal
Ġs aved
Ġa r
Ġj o
ĠA l
Ġprov ide
nd o
Ġd rag
in ation
App lication
Ġd esktop
Ġchild ren
à¤ľ à¤¬
D ire
d own
C enter
g in
Ġst ored
D AP
Ġex ample
Ġapp ear
On ly
ele r
le t
v ed
Ġm ark
Ġassoci ated
Ġpix buf
Ġdistribut ion
R ed
ĠT h
Ġst op
Val ue
Ġ\\ ])?:
à¤Ĩ à¤ĩ
ĠG L
ll ip
cc ount
Ad just
ĠBug zilla
Ġ1 00
ect ed
Ġproject s
Ġst ash
ail box
F F
O FF
X lib
Ġ+) '
Ġ' (.
Ġ` (.
\\ ])?:
Ġ+ \\])?:
Ġexist ing
or king
ĠRe place
ĠC urrent
ĠW atch
A ction
n vironment
ĠI nc
Ġwas te
as te
Ġb ind
Ġf ocus
He ader
R ow
Ġcolumn s
eth od
Ġà¤ĺ à¤Łà¤ķ
à¤µ à¤¹
Ġà¤¶ à¤¬
à¤ĸ à¤¤
Ġà¤ªà¤Ł à¤²
Ġe kiga
Ġe ach
st er
R O
Ġp ort
Ġc onflict
Ġstart up
T arget
ĠS p
ĠA s
ĠU pdate
Ġexecut e
nt il
Ġmod ify
m ary
um mary
A tt
S ingle
T itle
lo b
T ool
Ġà¤¤ à¤°à¤¹
Ġà¤Ĩ à¤²
à¤¼à¥ĩà¤Ĥ à¤ĥ
TM F
Ġf actor
Ġbur st
Ġg e
Ġf ixed
se e
PA TH
Ġadd ing
S ong
Ġb lanking
Ġhold ing
k en
ro ken
aly sing
An alysing
r t
tk Hy
ĠA tkHy
Ġs epar
rect ly
tt p
angu ages
ĠSub version
G roup
Ġu ntil
et s
Ġ J
Ġterm s
in s
Ġcont rol
lic ations
" -
Ġà¤¦ à¤¬
à¤¿ %
à¥Ī à¤ĥ
st im
Ġrec ord
B alsa
Ġs im
ĠI con
Ġd on
efin ed
U nder
Ġwh ole
Ġa c
3 0
an ds
. %
ub lished
Ġp ublished
istribut e
Ġred istribute
A vailable
per link
Ġà¤ĩ à¤¨à¤ķ
à¥ĭ ?
Ġà¤ ĵ
Ġà¤ Ŀ
Ġst age
Ġrectang le
ĠC enter
For ced
lib burn
ĠâĢĶ %
ur ing
Ġde pth
Ġke ep
Ġs econd
p ar
ĠK e
ĠG tk
Ġn amed
Ġre ached
C P
" :
Ġpref er
Ġen c
R ename
ĠAdd ress
St ash
Ġbe low
Ġre gister
ĠD escription
ĠHe ader
Ġw ra
a king
Ġre load
Ġv er
ener ate
Ġ Q
f resh
Ġs cript
à¥ĭ -
Ġà¤ħ à¤¦
Ġà¤Ī à¤®
Ġà¤¨ à¤·
à¤Ĩ à¤µà¤°à¤£
Ġà¤¨ à¤Ī
rav ity
P hoto
op ies
Stre amer
ĠV CD
de f
Ġsc aling
S ome
Ġd ock
ĠRev ision
W idth
Ġa m
a yout
ri ority
Ġf in
Ġf old
orm at
T o
Ġst ep
C omple
ĠL ink
S A
Ġp lace
eth ing
om ething
M an
on s
Ġà¤¸à¤¤ à¤¹
à¤ī à¤Ń
c ard
Ġtim eline
ra int
st raint
ĠW idth
ras t
n ess
right ness
Ġsc ale
Ġslic es
Ġrec ogn
Ġm aximum
ly ing
ĠT rash
Ġf ail
er ic
Ġrel ative
Ġcor rupted
Ġin valid
Ġoper ation
ran ches
Gtk SourceView
Ġw ait
at ure
ĠC all
l ied
ĠW ith
Ġcom ment
Ġopen ing
P ar
ĠD ebug
Ġthe ir
nte gr
un ch
ile s
e ad
Ġinst ead
lob al
Ġb ottom
à¤¶ à¤°
Ġà¤ļ à¤°
à¤¦ à¤¬
à¥Ī ?
à¤¨ à¤Ī
2 8
Ġbe gin
Ġrewrit able
d ocument
ro ll
t ml
h tml
L ib
Ġper form
Val a
Ġaut omatically
Ġt est
Loc al
Ġwrit ing
Under line
For ward
O V
Ġaut ogen
Pro file
ĠPlugin s
k l
ro ss
y s
our ces
à¥ĩ ,
Ġà¤¹ à¤¸
à¤· à¤¸
à¤Ĩà¤īà¤Ł à¤ª
à¥Ģ %
à¤° à¤²
à¤ī à¤¨
Ġunder lying
Ġs urface
Ġw ebcam
7 5
T S
Re ad
p rint
Ġret urn
ĠRem ote
on nect
x x
Ġor g
Ġpar se
Ġcont inue
Ġg tk
Ġem ail
Ġt e
ĠT ag
iz ing
W arning
ic ator
M ode
ĠU nc
ĠD is
emb er
est ore
Ġm ake
Ġjo ker
s c
ou se
sp ect
Ġcon s
row se
Ġà¤Ĩ à¤¨
à¤Ĭ à¤ªà¤°
Ġro ster
Ġt aking
Ġs ide
ĠC re
Ġsu ch
it ies
Add s
e ous
way s
M L
Ġmin imal
u ro
Ġs m
W orking
N ormal
Ġclip board
Ġs aving
pp ed
Rev ision
Comple ted
Ġitem s
Ġ ever
id er
Ġe ffect
Ġapp lications
B rowse
Ġà¤ĳ à¤¬
Ġà¤Ń à¤°à¤£
à¤ģ à¤ĥ
Ġà¤ĵ à¤°
à¤Ĩ à¤Ĺ
Ġà¤ī à¤¸
à¤ļ à¤°à¤£
as her
Ġe llip
Ġb ound
Transl ation
at uration
od im
el ay
Ġm ultiple
riev ed
Ġret rieved
Ġaut ocompletion
Ġc ase
Java Script
ad itional
uro pe
Ġrem oved
Ġab orted
Copy right
ĠF ont
Col or
E nter
ĠN ext
ĠI nd
Ġsh ared
P assword
C lean
30 1
11 0
Ġ02 110
Ġ5 1
Ġar ound
en c
M ain
Ġw on
ĠR ed
Ġ >
B SD
Inter face
Ġev ent
Ġb order
à¤Ł à¤¶à¤¬
Ġà¤¸ à¤²
à¤¦à¤¨ à¤¶
Ġà¤ī à¤²à¤Ł
r ate
it rate
Ġb itrate
Ġw odim
ĠS VCD
v ice
Ġh ard
m pty
Ġcopy ing
o os
ĠS er
z er
at able
r s
ĠP ackage
k ip
B reakpoint
Ġcomm ands
ĠC lean
Ġp ass
Ġla unch
is h
F ull
Ġman y
y p
à¤µà¤² à¤ªà¤°
Ġà¤Ĩ à¤µà¤°à¤£
Ġà¤¨ à¤ķà¤²
Ġà¤Ĺ à¤¹à¤°
à¤¯à¤ªà¤° à¤²
Ġà¤¸à¤¬ à¤µà¤°
Ġà¤ī à¤ªà¤°
Ġà¤ĩà¤¸ à¤²
à¤ħ à¤Ń
3 9
Ġ2 39
:% .
Ġk b
ĠS TUN
Dire ction
ĠHe ight
P icture
et ry
om etry
Ġge ometry
S HA
Ġp ad
Ġb roken
Ġg rowisofs
Ġd ao
ĠCre ator
ĠB lu
Im possible
) %.
B D
On going
Ġ9 0
Ġover burn
ĠB lank
Ġl ayer
r ad
ĠAtkHy perlink
He ight
e ve
ri eve
ect ion
pro cess
Ġwidget s
S er
Ġcor rectly
ĠO f
Ġb in
Ġw arning
Ġcomp iled
TM L
F ormat
Ġs ame
ĠT ime
D irectory
Ġd ate
Sh ortcut
ill ic
r illic
y rillic
C yrillic
Pro gress
Ġs omething
Ġdevelop ers
Ġw eb
ou ble
est ination
GN OME
Ex t
k it
row ser
à¤£ à¤µà¤¤
Ġà¤¬ à¤¹
à¤ĩ à¤°
à¤¨ à¤®
à¥ĩ ?
Ġà¤¬à¤¦à¤² à¤¨
Ġ" ,
Ġà¤® à¤¤
s lot
aj ha
k ajha
h kajha
es hkajha
à¤§ à¤°
ĠD evhelp
stim ated
E stimated
ĠKe ep
Ġinsert ed
ic es
ĠN ote
ain s
p and
im age
v as
Ġext ra
Ġdisplay ed
Con nect
od ing
idget s
ĠG roup
Ġcomple ted
Ġload ed
R eload
Ġpix map
. ,
D ouble
y n
ĠRes et
Ġcontain ing
ble m
act ive
let s
app lets
à¤ª à¤¹à¤²
Ġà¤¬ à¤ķ
l and
Ġan gle
Ġall ocation
Ġsile nce
ĠF ast
E O
ID EO
Ġ( "%
ref ore
Ġthe refore
Ġv olume
t ool
Ġcap ab
Ġcomp onent
Ġt itle
Ġfail ure
Ġc ustom
urs ive
ĠD ocumentation
H T
Ġset ting
Ġs everal
H TML
ĠL ayout
Enable d
T erminal
f il
Ġterm in
ol ds
Ġexecut ion
F unction
Ġpath s
G Object
Ġpref erences
ĠRev ert
ĠM A
ĠSt re
Ġp os
Ġmov ing
end ed
Ġst at
r ace
he me
Ġs ingle
IC E
D E
A T
Allow s
O ff
A lpha
à¥Ī à¤ĥ%
à¤ľ à¤°
à¤Ĺà¤¤ à¤¤
à¤ł à¤¹à¤°
Ġà¤ĺ à¤Łà¤¨
à¤¾ à¥¤
à¤ĩà¤¸ à¤°
S urface
Ġcol le
Ġtrans mit
v es
Ġm m
Ġsh ort
etw ork
L ast
Ġn e
R etrieving
ol ve
et ch
ult s
Ġspecif y
Ġa ble
Aut omatically
ĠI ntegr
Ġresol ution
St andard
Back ground
Ġad v
Ġtermin ated
Ġfin ished
Ġact ivate
et ails
pp ing
ĠN umber
S end
L og
Ex ecut
iv ated
ĠU SA
ost on
ĠB oston
lo or
ĠF loor
if th
ĠF ifth
kl in
ran klin
ĠF ranklin
Ġd own
a w
est art
ic s
Ġg raph
Ġn ode
Ġpro blem
as ic
Qu ick
o ds
eth ods
is er
erc iser
Ġà¤ĩà¤¨à¤ķ à¤®
à¤ĺ à¤µ
à¤Ĩ à¤¯à¤¤
à¤ķ à¤ı
Ġà¤ĩ à¤¤
à¤¾à¤ĥ %
à¤Ĩà¤ĩ à¤ķà¤¨
à¤Ń à¤°
f p
ĠOpen GL
Ġatl as
Ġtexture s
Ġellip se
C ursor
resh old
Ġalph a
ĠAl ignment
ĠAn gle
ĠA ccount
D G
X DG
Ġcom ing
Adjust s
Ġcount down
Ġc ras
Ġp riority
ĠA udio
C d
Ġrat io
E C
Ġd uring
ĠR ow
ĠC a
oos er
Ġret rieve
B ad
k ed
ĠE urope
O ut
Ġ ic
L anguage
ĠH ome
Patch ing
I gn
Ġever y
Ġm argin
erc ase
Sw ap
Ind entation
ĠL ocation
ĠF unction
Ġexecut able
Ġre nder
ĠE nvironment
velop ment
ĠDe velopment
i er
On e
Ġm ax
Ġst ock
Ġrec ently
ĠS olitaire
A isle
Ġplugin view
B asic
F O
pert ext
on itor
à¤ł à¤¨
/ /
Ġ( "
Gtk HTML
gtk html
à¤Ī à¤²
b alsa
Ġà¤ħ à¤ľ
Ġà¤Ĩà¤ª à¤¨
Ġà¤ª à¤¬
Ġà¤¸à¤® à¤¸
à¤Ĩà¤Ī à¤¡
Ġw ide
Ġplay ers
s w
ĠP A
m enu
" :%
P ush
ĠD rop
. )
id ent
Ġo pt
Ġst as
ssist ance
ĠA ssistance
Ke ep
ĠS ession
j ango
Ġind icator
Ġrec ent
d o
ĠB lock
ĠV ariables
Att ach
ain ing
T ry
Ġun able
Re fresh
Ġt ake
Ġà¤ĸ à¤°
Ġà¤ıà¤ķ à¤²
à¤ıà¤® à¤ıà¤²
à¤ı à¤¨à¤¯
print ui
libgnome printui
à¤¸ à¤«à¤²à¤¤
Ġà¤Ĩ à¤¬
Ġà¤¹ à¤®
Ġà¤Ĩ à¤¸
nel ing
un neling
ĠA R
An gle
Ġr ate
et a
ist ance
Ġcomp ut
g ing
at ible
Ġe ject
Ġ 4
A M
ĠCol umn
og y
ol ogy
n ology
ch nology
Ġte chnology
Ġare a
Ġan chor
ĠS nippets
Ġelement s
ommit ted
Ġinitial ize
Sim ple
Ġab ove
S nippet
c j
Ġ <
Ġcharact er
ĠSet tings
Re al
ĠM ac
ĠL ist
om ment
ĠUnc omment
Ġtab s
Aut omatic
ĠCont inue
J ump
Sign al
er nel
ar b
Ġcl os
Ġpermiss ion
Ġdevelop ment
R estore
Ġbe ing
N e
ĠFull screen
Ġmov es
ĠE rror
Ch ild
Ġf ix
Ġimplement ed
ĠD ocument
W ID
Ġdisable d
à¤¾ ,
Ġ+ /
à¤Łà¤° à¤«
à¤® à¤§
à¤ľ à¤ķ
à¤¹ à¤¸
à¤¨ à¤µ
à¤£ à¤¸
Pix map
ĠT ake
ĠC heese
Ġca pt
ĠE ffects
C heese
ĠG Streamer
n amed
Ġloc ally
... )
Ġforward ed
Ġan sw
L DAP
Ġchang e
Ġb ook
or ds
w ords
Ġrequ ire
Ġapp lied
Ġse em
us pend
J S
G db
est ions
ĠR ename
ĠL oad
ef t
os ave
Ġth read
ot ools
Load ed
Rem ember
Ġd ocuments
ĠT ool
ĠH int
ri ot
ĠBookmark s
In clude
Ġthe y
à¤ĩà¤² à¤°
à¤¤ à¤ļ
Ġà¤ĸ à¤£
à¤ķ à¤«
à¤¸à¤° à¤²
med ia
Ġà¤¹ à¤²
Ġà¤ı à¤¸
à¤¼à¥ĩà¤Ĥ ...
à¤Ĩ à¤¸
à¤¯ à¤¬
Ġansw er
Ġp h
ĠSc ale
app ed
Ġn atural
N atural
Ġcras hed
Ġf rames
, ...)
is ed
Ġn etwork
op ied
t itle
Ġmode l
Requ ire
Ġl anguages
Ġsu ff
Ġser ies
Ġconflict s
Ġp atches
G enerate
âĢ Ļ
ĠâĢ ĺ
Ġn ames
ĠY acc
Ġg enerator
inu ed
Ġcont inued
Ġ ident
RO OT
CVS ROOT
G PL
um eric
an umeric
Ġalph anumeric
or ial
ut orial
um ar
i um
ĠS im
Ġex pression
Re g
ĠAut o
es ign
Ġz oom
Rec ent
ĠM ark
M od
Re gister
St ep
P ass
Pro perties
load ing
Ġm e
Ġold er
e ight
z e
D i
di ke
on dike
l ondike
Cont ent
Ġ2 00
ĠR ef
le name
ro lename
u nd
Val id
I d
T P
Ġm ouse
G E
ribut es
Ġo pacity
à¥Ģà¤Ĥ ,
à¤¸à¤¤ à¤²
à¤ľà¤¨ à¤ķ
à¤ķ à¤ħà¤ª
à¤īà¤ª à¤²à¤¬
Ġà¤¸ à¤¨
à¤Ĺ à¤ķà¤°
à¤® à¤¨
à¤¤ à¤¯à¤¶
à¤ļ à¤ķ
Ġà¤ķ à¤Ī
à¥ĭ ,
ĠG ravity
W ebcam
Ġe ffects
Ġdisc ard
Ġc opied
Ġdi d
Ġle ad
2 2
ĠP ango
Ġcl ose
Ġf ast
Ġcre ation
Ġp r
ĠC ancel
Ġedit ed
ch ron
Ġacc eler
ĠT em
y stem
V ariable
an ced
Ġ &
Ġl ow
em ents
P a
T im
Wh ole
ment s
Ġclos ing
ate g
Ġp ile
Ġus ually
ĠSt yle
E X
C onf
à¤Ĺ à¤¹à¤°
mm c
r ay
Ġà¤ķ à¤¥à¤¨
à¤ķ à¤¤à¤°
à¤¡ à¤²
à¤¹ à¤®
Ġà¤¤ à¤ķà¤¨
: //
Ġ+ .
à¤° à¤¥à¤®
Ġà¤¨ à¤ı
Ġà¤ı à¤¨
à¤ĺ à¤Łà¤ķ
SI P
o IP
for ce
Ġv o
our nal
le nd
an nel
ert ex
ĠTh reshold
H as
Ġcapt ured
s econds
k isofs
V ICE
ĠT O
Ġperform ed
Ġm port
ĠSu ch
Ġversion s
ĠTr ack
Ġr aw
Ġmm c
Ġsetup s
Ġdri ves
ar ound
Ġwork around
Writ e
Ġ est
Ġr ay
Ġd ual
OV ER
ĠC OVER
Ġch ose
od et
at ibility
Ġread able
Ġbur nt
Ġburn er
Ġstat ements
E mpty
ĠB ook
ĠI M
t oc
Ġca ption
t ree
he nt
Ġany way
Ġro le
Ġdata base
F ield
, %
id ed
Ġprov ided
Ġacc ording
Ġhand le
re ase
ĠO S
Ġsign al
L ist
S kip
St ate
c heck
Ġexit ed
a pt
ĠC onfig
Re peat
Ġ Quit
Ġatt ached
ĠT rans
ĠP rint
ĠR un
Ġbreakpoint s
ar ation
qu ence
Ġse quence
Ġpos sible
Ġu nd
U ndo
ĠM ove
ist ics
Ġsc heme
T op
Ġfocus ed
Ġrec ording
Ġ"- -
Ġà¤°à¤¹ à¤¨
à¤® à¤ķà¤°à¤£
à¤µ à¤§
à¥Ī )
ĠP hoto
Ġcont rast
Ġb rightness
ĠW ebcam
Ġinter nal
ic ient
Y our
F C
is e
ec ial
ĠApp lication
Ġre st
Ġd ig
Ġsepar ated
o ot
alle r
Ġprefer red
Ġd oc
File name
Ġconfig ure
est ion
Ġf e
Ġread ing
ĠC lear
F rom
L icense
ar ameters
ĠP arameters
s aved
t ic
De velop
al se
Ġac cept
ĠStre et
St ock
ot al
T otal
im ized
j ack
n ine
s even
s ix
f ive
f our
th ree
tw o
F ort
av en
ĠR estart
T ask
Cre ates
à¤¡ à¤µ
Ġà¤ĳ à¤«à¤¸
à¤ĳ à¤«à¤¸
Ġà¤¹ à¤°
à¤¡ à¤¬à¤²
à¤¹ à¤ķ
à¤§ à¤¤
Ġà¤ĳ à¤ªà¤°
à¤¨à¤° à¤²
Ġà¤ľ à¤¨à¤°à¤²
à¤¿ -
à¤ĩ à¤ķ
Ġpack ets
Ġkb it
x y
Ġtransmit ted
5 0
Ġam ount
Sp acing
ĠA xis
O pacity
25 6
inu x
Cont ains
ĠBurn er
ĠT S
s ize
ĠS everal
Ġd raw
Ġm at
ĠI d
Ġcontain er
h ttp
ir d
Ġth ird
par ing
Pre paring
Ġl anguage
Ġgraph ical
ĠW eb
Ġresol ved
M ailbox
Ġres ults
I ME
Ġrec ursive
C ancel
Ġl u
D rop
Ġle ading
Ġ *
Ġdet erm
Ġd efined
Ch anges
ĠIcon s
Min imal
ines e
Ġre start
ip s
ĠG enerator
Ġsh ortcut
For ce
Ġover writ
fil ing
P ers
Ign ore
Ġun su
A rguments
Ġb l
g ine
Ġen gine
F ree
Ġre p
ĠU n
Ġcom b
Com p
A b
n o
Ġt yp
A cc
à¤ĩ à¤µà¤°
à¤ļ à¤®à¤ķ
à¤ĩ à¤ª
à¥ĭ .
Ġà¤ĳ à¤«
à¤¥ à¤Ĺ
s ession
à¤µ à¤µà¤¤
" )
it ter
D TMF
D asher
ĠC opies
L I
" ).
ĠEx pand
Ġh ow
Ġs end
def ault
c ol
Ġfold ers
UR L
ut es
ĠM IME
ĠX ML
re qu
ĠT ab
Add ed
C ent
istribut ion
ĠD istribution
t ips
ĠIntegr ated
' %
gr ind
Ġreg ular
ĠF ilter
D jango
ĠP atch
ac ro
ĠD etails
Ġb lock
R ight
en gth
D ec
B ook
ru ct
Ġg o
ĠBreakpoint s
Ġm pile
Pix buf
ri ate
rop riate
l f
Ġconnect ion
Ġrem aining
Ġway s
ĠC lick
igh b
Co ver
ĠN OT
ĠRe gist
Ġn ow
V ersion
Ġv ar
Ġà¤Ł à¤¨
à¤¯ à¤¥
à¤ľ à¤¤
à¤Ĩ à¤¨
Ġà¤ĩ à¤®
à¤ķ à¤£
Ġà¤¸à¤° à¤²
Ġà¤Ĩ à¤¯à¤¤
à¤ħ à¤ªà¤°
à¤¬ à¤¸
à¤ī à¤¨à¤²
Ġà¤Ĺ à¤£à¤¨
g mail
à¤ħà¤µ à¤§
ĠT unneling
Ġvo ice
Ġm s
Ġch annel
rag ment
Ġsp acing
ater ial
ogen eous
om ogeneous
straint s
Con straints
is econds
ill iseconds
Ġr ange
d u
Ġfilter ing
ĠU se
cre ase
Ġm ight
Ġser vice
Ġv isible
Ġp arts
Ġlong er
Ġpre s
il ities
Ġcapab ilities
Ġl ib
ipp ing
Ġre view
ĠG o
n ed
ter m
y GTK
P yGTK
GN U
er ge
ĠY OFF
ĠX OFF
G HT
I GHT
E IGHT
H EIGHT
x HEIGHT
TH xHEIGHT
WID THxHEIGHT
requ ently
ĠK umar
ab a
ĠN aba
Disc ard
W x
Ġg cj
GTK mm
ele y
k eley
er keley
B erkeley
ĠW idgets
Ġw x
Ġpixbuf s
Ch inese
re w
eb rew
H ebrew
ĠEurope an
Ġc ell
Ġl icense
ĠT o
ĠT ools
Ġs hell
Ġsu pp
D et
S hell
O ther
ĠInd entation
Ġ ut
ĠCom ment
ĠM ake
ĠTrans form
S orted
Ġmod ified
Ġaut o
St ack
em ory
Ġor ig
Ġapp ropriate
S ession
Start ing
P ick
ĠTool bar
W ins
Ġanim ate
i ot
R iot
Ġbind ing
In spect
P er
Ġev ents
à¤¬ à¤¡
à¤ªà¤Ł à¤²
à¤¯ à¤ķà¤°à¤£
à¤ĩ à¤ľ
à¤ĩà¤¨ à¤ª
à¤Ĺà¤² à¤¤
Ġà¤ħ à¤µà¤¸
à¤µ à¤¯
à¤ī à¤¤
Ġà¤ħ à¤¬
Ġà¤ī à¤¸à¤ķ
ĠG PL
ĠT X
3 3
28 33
ire ct
M argin
D elay
ur st
ut ton
Ġreg ion
Ġcre ating
Ġblank s
E ject
C K
w ise
Ġso on
Requ est
Ġtr ash
il y
hent ication
Ġapply ing
F etch
rou gh
C ustom
Ġinstall ation
Ġaut omake
tt y
Ġpre tty
omple te
out put
Ġs ensitive
ĠVal a
C onflict
Ġw atch
ĠP age
ĠMan ual
ĠU ser
ol ved
ren ce
Ġsymbol s
Ġfile name
ĠD ate
ĠRec ent
ab et
Pre view
ĠC ursor
ateg ory
Ġf alse
Ġw ire
omm ended
Red o
Ġr ule
T em
ĠU p
t te
ĠD ec
ing s
F irst
Ġrep res
St at
ut e
à¤§ à¤°à¤£
Ġà¤ıà¤Ł à¤²à¤¸
à¤īà¤ª à¤¶
Ġà¤° à¤ªà¤Ł
Ġà¤ī à¤ļ
à¤¨ à¤ķà¤²
à¤Ĩ à¤ªà¤¨
à¥Ģ ,
Ġà¤ªà¤° à¤¸
à¤ªà¤° à¤¸
Ġà¤ľà¤¬ à¤¤à¤ķ
à¤¤ à¤ľ
à¤µ à¤¯à¤¨
à¤° à¤ħ
à¤¨ à¤ľ
Ġà¤® à¤Ī
à¤¸ à¤ıà¤®à¤ıà¤²
à¤ª à¤¶
à¤ħ à¤Ĺ
à¤ıà¤¸ à¤¡
Ġà¤ĺ à¤Ł
R FC
os en
Ġch osen
Ġsuff icient
Ġatl asing
f s
U V
Y UV
Ġcue ing
p ol
Ġdrag ging
Ġre peat
Ext ra
Ġwith in
Ġtrans form
T R
ĠL TR
ĠF ill
An chor
F ixed
Ġkey board
Ġbegin ning
A GE
ĠD TS
r kit
R W
Ġformat s
Ġin clu
Ġsystem s
P ause
Cd rdao
Ġc ause
Ġcomp atible
Play list
EC AM
h at
Ġfiles ystem
Ġl d
A c
ĠR ole
app lication
ĠB oth
Ġro pe
ĠR etrieving
A Q
S nippets
Ġre ject
Ġre base
ag ed
d ated
F older
App end
Ġp ick
her ry
Ġb ranches
ecut able
tt ers
Ġle tters
Ġdig its
di r
enc ies
pend encies
is on
ĠB ison
le x
ĠF lex
process or
Ġpre processor
, .
L F
Aut osave
PI D
ĠI P
Ex tern
Ġ` ~
Ġ ^
$ :%
Ġ $:%
Ġ" #
Install ation
ron ize
nc ronize
ĠSu pport
ĠM ailbox
Ġic ons
Im plement
c hed
S m
Search ing
on al
File s
Ġwra p
Ġback ground
P aste
ĠC ode
ĠCl ose
Run ning
ĠI nter
end or
V endor
he rit
ig ure
f igure
Ġon figure
ccessf ul
C ategory
' :%
B l
iv es
Con s
Ġst re
Ġallow s
C ard
ĠU ndo
S ummary
B order
G lobal
l ong
Ġbe long
P T
ir m
Conf irm
M D
Ġvar ious
à¤¬ à¤«à¤°
à¤µà¤° à¤ķ
à¤Ĩ à¤ªà¤°
ĠM y
ĠD TMF
Ġn on
ĠP icture
Ġm illiseconds
ĠL inux
is m
ĠEx t
EX T
p on
Ġpermiss ions
Ġscan ning
Ġs ending
Ġre f
Ġs ent
Ġdisplay ing
ilt ers
oc ate
od y
Ġp l
ĠD N
ic ally
Ġme ans
rec ent
ear ance
n ames
ra b
Ġg ener
ĠConfig uration
In put
Ġ Qu
Ġfe ature
Ġoccur rence
E mail
Ġinter n
M acro
" ?
Get ting
Makefile s
ĠProject s
i ate
Select ion
ĠPre view
ĠDis able
ĠA tt
ele ase
R elease
P ref
ĠIt em
Ġthe re
Ġdi re
c ause
Ġbe cause
positor ies
ighb or
F our
u nt
ĠRed o
ĠA isle
Â ©
Ġ Â©
IN FO
ĠB rowser
Ġselect ing
à¤ľ à¤¶à¤¬
Ġà¤Ķ à¤ľ
à¤Ľ à¤°
à¤ĺ à¤°
ind i
Ġh indi
ol ler
ĠR oller
rol ler
à¤² à¤ª
à¥ĩà¤Ĥ %
à¤ı à¤ª
gist ered
et ing
Ġdetect ion
Ġcodec s
ĠV oIP
Ġfont s
Ġwindow s
Ġoff set
ĠDe pth
am p
est amp
D uration
Ġm eta
Cl ip
ĠP H
Ġcolle ct
Ġ# %
Ġimmed iate
lic ing
o image
is oimage
en isoimage
ĠR en
Ġbe h
Ġqu it
Cont act
Ġcap acity
Ġneed ed
nt ry
ĠD one
s l
an el
L ong
C I
d k
ĠG dk
ist ing
r ary
lib rary
Ġd ev
Ġorig in
Ġth rough
Ġs ection
Ġaut omatic
Ġmark up
Ġact ive
res p
Ġcor resp
ĠC onnect
ur b
xx x
Ġh ttp
pt ed
Icon s
Ġunsu ccessfully
U p
ocomple te
In st
Ġerror s
D eleted
Mod ified
He ad
P atches
Ġsm art
P references
p roject
al ization
ation alization
Ġintern ationalization
s h
D ate
Com ment
esign er
nt ax
ĠH ighlight
Ġmark er
ĠM argin
In fo
b y
In formation
arb all
Ġsu ccessful
w arning
V isible
Pref er
Ġen vironment
ogn ized
rec ognized
Un recognized
M atch
ac ed
ak es
Ġh ide
Ġund one
Ġthem es
un known
U I
Ġselect able
v ent
M ethod
à¤ĩà¤¨ à¤²
Ġà¤ī à¤Ń
d oc
à¤Ľ à¤ª
à¥ĩà¤Ĥ /
à¤¸à¤¬ à¤ķ
1 301
à¤¯ à¤µà¤¸
à¤¶ à¤¤
à¤¸ à¤«
à¤ĩ à¤¡à¤°
à¤¸ à¤Ł
Ġà¤Ń à¤£
ri de
Cont rol
D ef
Ġh ue
Ġtrans ition
Ġsim ple
Trans c
ĠC o
Ġadv ised
Ġin clude
Ġshort er
Ġrece ive
ers e
am ing
P E
Ġp assword
ess ary
ec essary
Ġn ecessary
ĠIM AP
ĠN ot
p ly
ĠM ail
an vas
Ġg l
Ġreturn ed
Ġrest ore
Ġcorresp ond
Ġwh at
Ġt utorial
App earance
f aces
Ġinter faces
ĠGTK mm
ele d
c eled
Ġcan celed
version ed
Conflict ed
r ain
Ġs w
Cont ents
Ġre nd
ul ate
Ġun c
Symbol s
Ġsy ntax
ĠF old
L ength
L eft
ere nce
In s
F rame
d ition
ĠAut omatic
efin ition
ĠID E
en us
se lf
Ġ1 301
T wo
im it
ĠFound ations
Ġb oth
ĠTable au
Ġdec k
Red e
Ġed ge
W es
uff le
im ations
Ġs olitaire
hot os
B ottom
m ore
Off set
E vent
Ġm ethods
Acc erciser
] "
E ntry
Ġ" [
Insert Insert
Ġà¤ıà¤¸ à¤µ
à¤¬ à¤¬à¤¤
Ġà¤ª à¤¦à¤ķ
Ġà¤ł à¤¹à¤°
à¤¾ ;
lu ke
p icture
à¤¼à¤¾ %
à¤ĸà¤¨ à¤¯
à¤Ĩ à¤¯à¤¤à¤¨
à¤ĩà¤² à¤¤
Ġà¤¸ à¤«à¤²
T EXT
à¥Ī ).
à¤ıà¤¸ à¤µ
aj eshkajha
Ġr ajeshkajha
red hat
j an
ran jan
r ranjan
à¤¯à¤ªà¤° à¤Ł
Ġà¤ıà¤® à¤¡
Ġà¤ªà¤° à¤¤
à¤®à¤¦à¤¦ à¤Ĺ
à¤ļà¤¯à¤¨ à¤ķ
à¤¤ à¤¬
à¤ľ à¤®
à¤¿ à¤ĥ%
à¤ķ à¤ł
à¤µ à¤¶
Ġrec onnect
g able
lug gable
Ġp luggable
PA L
ing ing
ĠL DAP
Ġoff line
w are
Ġhard ware
me eting
et meeting
ĠN etmeeting
Ġcall ing
2 00
yn am
o ff
chron ous
Ġway land
p ect
ial i
nt iali
Back end
o op
Ġcon straint
Ġpa int
di rect
Ġre direct
pon se
Ġreport s
DE VICE
C opies
PE G
ĠM PEG
ĠCheck sum
rt ools
Ġ 75
p arts
Ġsplit ting
Ġsile nces
Ġdetect ed
Ġinitial ized
A O
d c
Convert ing
ĠX ID
odet ected
aut odetected
Ġtr aditional
P F
S PF
ĠX SPF
an ently
Ġperm anently
Ġplay ing
ch y
ar chy
er archy
Ġhi erarchy
Ġ 7
d ing
Ġoper ating
ĠRe pl
p atibility
ĠCom patibility
Ġ6 4
ĠA gain
Ġpad ded
rt ist
A rtist
Tr ack
ĠS plit
Ġpa use
Ġlu ke
Ġfor ce
our ite
av ourite
ism atch
Ġm ismatch
B lu
Ġk ground
rad ient
Ġg radient
V IDEO
Ġlead in
Transc oding
ĠExt ension
Read cd
I SO
Ġpro of
ĠSet up
y ond
Ġbe yond
Ġac ross
W ould
Ġf ully
Ġh olds
ĠTem porary
Ġret ry
Ġreload ed
Playlist s
Ġ1 6
ĠPA L
Ġmost ly
TS C
ĠN TSC
M M
D ev
Ġus age
Ser ver
Al ways
Ġc ac
toc ol
ĠCa ption
ĠMD I
ssist ive
Ġa ssistive
Ġformat ted
sc roll
rad io
Ġch ooser
im ation
Ġpoint s
Ġun com
i que
Ġunc ommitted
Ġp ush
Ġobject s
Ġd ot
ed ded
Ġb race
Ġcomm on
Ġg lobal
Ġopt im
T CP
l ing
ĠP ress
Ġinstall ing
y mbol
ĠS ymbol
Develop er
Config uration
s k
A sk
ĠD efault
ĠS creen
S u
ĠTag s
F l
Inter rupt
ĠT oggle
Ġmatch ing
Ġa rguments
o pped
ĠS ign
l aration
A r
Ġcolor s
Ġprov ides
erc ent
Ġy et
Aisle Riot
D ocuments
ĠRef resh
Ġs ources
m kisofs
à¤ĩ à¤¡
à¥Ĥ à¤ģ
à¤¾ :
à¤° à¤ªà¤Ł
à¤ª à¤¢
Ġà¤ı à¤ª
Ġà¤¸ à¤ļ
à¤Ł à¤²
Ġà¤¤ à¤¹à¤¤
à¤ı à¤¨
j eshkajha
ra jeshkajha
Ġj itter
im atable
P C
Burn s
Ġimmediate ly
Ġrecogn ized
j unction
Ġcon junction
U sed
ab lished
Ġest ablished
O M
ĠR OM
Le ave
Ġother wise
ĠS ize
ith m
or ithm
g orithm
Ġal gorithm
L S
Re ply
le vel
iss ed
Ex port
s o
Ġal so
Ġal ways
y zer
nal yzer
ĠA nalyzer
Ġenc oding
Act ivate
ĠC omplete
ĠData base
D b
Symbol Db
Ġconflict ed
Ġstas hes
B ranches
Sp ec
am Spec
Par amSpec
G Type
Ġd esigner
Act ive
an ese
ap anese
is ual
Reg ular
S ample
G en
Ġoverwrit e
Ġ ject
M essages
v s
Interrupt ing
Ġread y
a rent
act ivate
ĠT erminal
n one
Com pile
Ġun saved
Ġm enus
Al tern
ĠP l
Ġ ear
et ter
Ġb etter
Ġocc urs
ĠS qu
ap s
ce ll
ĠM onitor
H ide
GL SL
ay land
ĠW ayland
à¤¬ à¤«
à¤¬ à¤ľ
à¤ĸ à¤¡
Ġà¤ļ à¤®à¤ķ
à¤ĩà¤¸ à¤®
à¥Īà¤Ĥ à¤ĥ
à¤Ĩ à¤¬
à¥Ģ :%
à¤ı à¤ļ
Ġà¤ħ à¤ªà¤°
Ġà¤ľà¤¬ à¤ķ
Ġà¤ĺ à¤°
à¤īà¤ľ à¤°
à¤¬ à¤Łà¤¨
Ġà¤Ńà¤° à¤¨
Ġà¤ķ à¤Ń
à¥Ĥ -
à¤ıà¤® à¤¡
3 23
ch o
ĠIn put
ĠD evice
Ġcl ipping
ĠGL SL
ĠAR B
Ġrectangle s
atch ing
ĠJ ournal
Cogl Object
pport ed
ys fs
s ysfs
ĠText ure
T ilt
Ġt ilt
Ġoff screen
H ow
ix el
pol ated
Ġinter polated
Ġun set
Ġrat her
All ocate
ri x
Ġmat rix
iv ot
roll ing
Ġcan vas
F actor
OT O
ĠPH OTO
ĠV IDEO
Def ines
Ġs aturation
Ġd istance
ĠA lpha
m d
Al ign
d isc
Check s
Convert s
cd rdao
Lib isofs
Ġus able
Ġ known
Ġre named
Ġblank ed
ĠN autilus
Ġim possible
Ġont inue
Ġj ust
ug g
arg er
ent ry
is k
term inal
Ġon es
u er
ss uer
I ssuer
ĠSelect ed
d es
ĠS ensitive
r ange
Ġcont ext
L ess
ĠN o
St atic
L anguages
_ %
ĠW arning
ĠG lade
ĠD ock
ĠV ariable
us ing
Ġst atic
ale tte
Det ach
il st
Ġwh ilst
Per l
Tag s
T ab
Ġfol ds
ĠF olds
C ut
pp ercase
u ate
Ġsign als
Y es
K ernel
Ġd efinition
Ġdec laration
Ġre de
ol ution
Whe n
Ġc ross
C ell
ĠA nd
ĠP ause
ĠLe ave
Ġbookmark s
a ction
ĠG UI
ĠCont ent
ĠA ccessible
Ġcons ole
0 9
à¤² à¤Łà¤°
Ġà¤² à¤ª
à¤° à¤ľ
Ġà¤¸ à¤¸
Ġà¤¸ à¤ª
à¤Ĩ à¤Ł
à¤ħà¤ª à¤¡
