{
  "version": "1.0",
  "truncation": null,
  "padding": null,
  "added_tokens": [
    {
      "id": 0,
      "content": "[UNK]",
      "single_word": false,
      "lstrip": false,
      "rstrip": false,
      "normalized": false,
      "special": true
    },
    {
      "id": 1,
      "content": "[CLS]",
      "single_word": false,
      "lstrip": false,
      "rstrip": false,
      "normalized": false,
      "special": true
    },
    {
      "id": 2,
      "content": "[SEP]",
      "single_word": false,
      "lstrip": false,
      "rstrip": false,
      "normalized": false,
      "special": true
    },
    {
      "id": 3,
      "content": "[PAD]",
      "single_word": false,
      "lstrip": false,
      "rstrip": false,
      "normalized": false,
      "special": true
    },
    {
      "id": 4,
      "content": "[MASK]",
      "single_word": false,
      "lstrip": false,
      "rstrip": false,
      "normalized": false,
      "special": true
    }
  ],
  "normalizer": {
    "type": "Sequence",
    "normalizers": [
      {
        "type": "NFC"
      },
      {
        "type": "ByteLevel"
      },
      {
        "type": "BertNormalizer",
        "clean_text": true,
        "handle_chinese_chars": true,
        "strip_accents": null,
        "lowercase": true
      }
    ]
  },
  "pre_tokenizer": {
    "type": "Sequence",
    "pretokenizers": [
      {
        "type": "Whitespace"
      },
      {
        "type": "BertPreTokenizer"
      }
    ]
  },
  "post_processor": null,
  "decoder": null,
  "model": {
    "type": "BPE",
    "dropout": null,
    "unk_token": "[UNK]",
    "continuing_subword_prefix": null,
    "end_of_word_suffix": null,
    "fuse_unk": false,
    "byte_fallback": false,
    "ignore_merges": false,
    "vocab": {
      "[UNK]": 0,
      "[CLS]": 1,
      "[SEP]": 2,
      "[PAD]": 3,
      "[MASK]": 4,
      "!": 5,
      "\"": 6,
      "#": 7,
      "$": 8,
      "%": 9,
      "&": 10,
      "'": 11,
      "(": 12,
      ")": 13,
      "*": 14,
      "+": 15,
      ",": 16,
      "-": 17,
      ".": 18,
      "/": 19,
      "0": 20,
      "1": 21,
      "2": 22,
      "3": 23,
      "4": 24,
      "5": 25,
      "6": 26,
      "7": 27,
      "8": 28,
      "9": 29,
      ":": 30,
      ";": 31,
      "<": 32,
      "=": 33,
      ">": 34,
      "?": 35,
      "@": 36,
      "[": 37,
      "\\": 38,
      "]": 39,
      "^": 40,
      "_": 41,
      "`": 42,
      "a": 43,
      "b": 44,
      "c": 45,
      "d": 46,
      "e": 47,
      "f": 48,
      "g": 49,
      "h": 50,
      "i": 51,
      "j": 52,
      "k": 53,
      "l": 54,
      "m": 55,
      "n": 56,
      "o": 57,
      "p": 58,
      "q": 59,
      "r": 60,
      "s": 61,
      "t": 62,
      "u": 63,
      "v": 64,
      "w": 65,
      "x": 66,
      "y": 67,
      "z": 68,
      "{": 69,
      "|": 70,
      "}": 71,
      "~": 72,
      "¡": 73,
      "¢": 74,
      "£": 75,
      "¤": 76,
      "¥": 77,
      "¦": 78,
      "§": 79,
      "¨": 80,
      "©": 81,
      "ª": 82,
      "«": 83,
      "¬": 84,
      "®": 85,
      "¯": 86,
      "°": 87,
      "±": 88,
      "²": 89,
      "³": 90,
      "´": 91,
      "µ": 92,
      "¶": 93,
      "·": 94,
      "¸": 95,
      "¹": 96,
      "º": 97,
      "»": 98,
      "¼": 99,
      "½": 100,
      "¾": 101,
      "¿": 102,
      "×": 103,
      "æ": 104,
      "ð": 105,
      "ø": 106,
      "ħ": 107,
      "ı": 108,
      "ĳ": 109,
      "ĸ": 110,
      "ŀ": 111,
      "ł": 112,
      "eg": 113,
      "gt": 114,
      "ga": 115,
      "ng": 116,
      "gth": 117,
      "er": 118,
      "sg": 119,
      "dg": 120,
      "gtheg": 121,
      "in": 122,
      "tg": 123,
      "ing": 124,
      "or": 125,
      "on": 126,
      "re": 127,
      "en": 128,
      "at": 129,
      "ar": 130,
      "of": 131,
      "yg": 132,
      "al": 133,
      "it": 134,
      "st": 135,
      "an": 136,
      "gan": 137,
      "og": 138,
      "edg": 139,
      "ou": 140,
      "gh": 141,
      "ic": 142,
      "ed": 143,
      "th": 144,
      "ro": 145,
      "es": 146,
      "gw": 147,
      "ong": 148,
      "gs": 149,
      "gandg": 150,
      "is": 151,
      "ch": 152,
      "il": 153,
      "el": 154,
      "gag": 155,
      "erg": 156,
      "as": 157,
      "for": 158,
      "gtog": 159,
      "ofg": 160,
      "om": 161,
      "ion": 162,
      "ag": 163,
      "ingg": 164,
      "ec": 165,
      "ur": 166,
      "ol": 167,
      "am": 168,
      "asg": 169,
      "isg": 170,
      "esg": 171,
      "ac": 172,
      "gb": 173,
      "ent": 174,
      "ir": 175,
      "em": 176,
      "im": 177,
      "gc": 178,
      "gm": 179,
      "ow": 180,
      "iv": 181,
      "un": 182,
      "ofgtheg": 183,
      "le": 184,
      "ang": 185,
      "ad": 186,
      "ith": 187,
      "us": 188,
      "iong": 189,
      "gp": 190,
      "id": 191,
      "eng": 192,
      "et": 193,
      "lyg": 194,
      "os": 195,
      "ri": 196,
      "ver": 197,
      "gd": 198,
      "atg": 199,
      "gal": 200,
      "ul": 201,
      "gto": 202,
      "ingtheg": 203,
      "pl": 204,
      "gf": 205,
      "gand": 206,
      "gwh": 207,
      "ra": 208,
      "ter": 209,
      "egw": 210,
      "19": 211,
      "rom": 212,
      "con": 213,
      "op": 214,
      "res": 215,
      "um": 216,
      "egth": 217,
      "gn": 218,
      "00": 219,
      "gar": 220,
      "ear": 221,
      "sh": 222,
      "li": 223,
      "ay": 224,
      "bl": 225,
      "ex": 226,
      "egt": 227,
      "ot": 228,
      "and": 229,
      "gin": 230,
      "oun": 231,
      "av": 232,
      "com": 233,
      "ereg": 234,
      "oc": 235,
      "all": 236,
      "ut": 237,
      "gas": 238,
      "ev": 239,
      "itg": 240,
      "gthatg": 241,
      "di": 242,
      "cl": 243,
      "ation": 244,
      "alg": 245,
      "ep": 246,
      "est": 247,
      "entg": 248,
      "uc": 249,
      "gthegs": 250,
      "ew": 251,
      "sgw": 252,
      "gr": 253,
      "gat": 254,
      "be": 255,
      "ill": 256,
      "gl": 257,
      "ers": 258,
      "ich": 259,
      "pro": 260,
      "ma": 261,
      "qu": 262,
      "egs": 263,
      "ect": 264,
      "gthe": 265,
      "ging": 266,
      "from": 267,
      "edgb": 268,
      "ap": 269,
      "gre": 270,
      "up": 271,
      "od": 272,
      "wasg": 273,
      "gasg": 274,
      "adg": 275,
      "our": 276,
      "oth": 277,
      "ist": 278,
      "andg": 279,
      "ov": 280,
      "int": 281,
      "with": 282,
      "gam": 283,
      "igh": 284,
      "ish": 285,
      "edgtheg": 286,
      "ak": 287,
      "egh": 288,
      "ack": 289,
      "gwith": 290,
      "anc": 291,
      "rec": 292,
      "ationg": 293,
      "art": 294,
      "ough": 295,
      "edgtog": 296,
      "ip": 297,
      "gwasg": 298,
      "ell": 299,
      "por": 300,
      "if": 301,
      "se": 302,
      "gthegf": 303,
      "beg": 304,
      "gac": 305,
      "wh": 306,
      "ud": 307,
      "enc": 308,
      "ant": 309,
      "end": 310,
      "over": 311,
      "egtheg": 312,
      "gg": 313,
      "pr": 314,
      "gang": 315,
      "leg": 316,
      "inggtheg": 317,
      "gsh": 318,
      "rit": 319,
      "ess": 320,
      "ldg": 321,
      "per": 322,
      "form": 323,
      "otg": 324,
      "ef": 325,
      "berg": 326,
      "gtogtheg": 327,
      "ord": 328,
      "str": 329,
      "20": 330,
      "gaf": 331,
      "ard": 332,
      "egm": 333,
      "stg": 334,
      "200": 335,
      "ateg": 336,
      "hisg": 337,
      "gk": 338,
      "ph": 339,
      "out": 340,
      "gatg": 341,
      "ab": 342,
      "ast": 343,
      "ongtheg": 344,
      "su": 345,
      "gthat": 346,
      "iveg": 347,
      "gwhich": 348,
      "gj": 349,
      "ersg": 350,
      "low": 351,
      "gad": 352,
      "egofg": 353,
      "gofg": 354,
      "gagj": 355,
      "ok": 356,
      "vi": 357,
      "ayg": 358,
      "ly": 359,
      "itsg": 360,
      "egb": 361,
      "man": 362,
      "ial": 363,
      "ach": 364,
      "egtog": 365,
      "utg": 366,
      "ork": 367,
      "estg": 368,
      "ouldg": 369,
      "ghisg": 370,
      "comp": 371,
      "gst": 372,
      "inc": 373,
      "cth": 374,
      "arg": 375,
      "gtheir": 376,
      "gags": 377,
      "sog": 378,
      "we": 379,
      "egc": 380,
      "sgandg": 381,
      "off": 382,
      "sp": 383,
      "gitg": 384,
      "ath": 385,
      "egd": 386,
      "edgbyg": 387,
      "gfor": 388,
      "red": 389,
      "ityg": 390,
      "egwasg": 391,
      "new": 392,
      "port": 393,
      "aryg": 394,
      "18": 395,
      "gthegc": 396,
      "act": 397,
      "iesg": 398,
      "cont": 399,
      "ig": 400,
      "ind": 401,
      "ass": 402,
      "ies": 403,
      "egofgtheg": 404,
      "gthegt": 405,
      "ever": 406,
      "comm": 407,
      "ia": 408,
      "gthisg": 409,
      "gab": 410,
      "ound": 411,
      "gthegb": 412,
      "gtr": 413,
      "ign": 414,
      "edging": 415,
      "egf": 416,
      "ain": 417,
      "ren": 418,
      "und": 419,
      "hav": 420,
      "gtw": 421,
      "year": 422,
      "pe": 423,
      "outg": 424,
      "ber": 425,
      "ical": 426,
      "mar": 427,
      "lat": 428,
      "gap": 429,
      "egandg": 430,
      "pos": 431,
      "irstg": 432,
      "etg": 433,
      "abl": 434,
      "iz": 435,
      "201": 436,
      "pres": 437,
      "duc": 438,
      "notg": 439,
      "own": 440,
      "sgofg": 441,
      "redg": 442,
      "clud": 443,
      "par": 444,
      "byg": 445,
      "gandgtheg": 446,
      "nor": 447,
      "erv": 448,
      "ens": 449,
      "gcon": 450,
      "ity": 451,
      "atedg": 452,
      "ff": 453,
      "ret": 454,
      "ous": 455,
      "ans": 456,
      "egof": 457,
      "br": 458,
      "org": 459,
      "bo": 460,
      "po": 461,
      "ult": 462,
      "ostg": 463,
      "eas": 464,
      "ition": 465,
      "edgby": 466,
      "gagjg": 467,
      "ick": 468,
      "ub": 469,
      "gheg": 470,
      "aw": 471,
      "gtheyg": 472,
      "gthegm": 473,
      "ship": 474,
      "att": 475,
      "play": 476,
      "gbutg": 477,
      "was": 478,
      "gall": 479,
      "iang": 480,
      "ob": 481,
      "beeng": 482,
      "land": 483,
      "wereg": 484,
      "gau": 485,
      "stat": 486,
      "inter": 487,
      "lin": 488,
      "gtim": 489,
      "mor": 490,
      "gu": 491,
      "gingtheg": 492,
      "outh": 493,
      "gon": 494,
      "sc": 495,
      "gofgtheg": 496,
      "otherg": 497,
      "ilm": 498,
      "terg": 499,
      "allyg": 500,
      "fl": 501,
      "dis": 502,
      "galsog": 503,
      "ardg": 504,
      "hadg": 505,
      "ment": 506,
      "de": 507,
      "emberg": 508,
      "gafter": 509,
      "ount": 510,
      "gch": 511,
      "pa": 512,
      "gatt": 513,
      "gv": 514,
      "reg": 515,
      "tiong": 516,
      "leas": 517,
      "ne": 518,
      "gof": 519,
      "gareg": 520,
      "usg": 521,
      "econ": 522,
      "sgwereg": 523,
      "eging": 524,
      "au": 525,
      "pre": 526,
      "edgag": 527,
      "gong": 528,
      "gen": 529,
      "rough": 530,
      "forgtheg": 531,
      "urn": 532,
      "gtwog": 533,
      "gcom": 534,
      "des": 535,
      "bec": 536,
      "ict": 537,
      "he": 538,
      "sid": 539,
      "ousg": 540,
      "col": 541,
      "by": 542,
      "elyg": 543,
      "dec": 544,
      "ge": 545,
      "oundg": 546,
      "aus": 547,
      "min": 548,
      "mentg": 549,
      "ric": 550,
      "stor": 551,
      "egag": 552,
      "go": 553,
      "ail": 554,
      "egto": 555,
      "fe": 556,
      "gwas": 557,
      "owng": 558,
      "co": 559,
      "rib": 560,
      "ubl": 561,
      "lo": 562,
      "gte": 563,
      "row": 564,
      "gain": 565,
      "ings": 566,
      "nam": 567,
      "ori": 568,
      "199": 569,
      "north": 570,
      "ek": 571,
      "idg": 572,
      "etwe": 573,
      "ollow": 574,
      "g1": 575,
      "ild": 576,
      "ix": 577,
      "eric": 578,
      "iss": 579,
      "antg": 580,
      "ros": 581,
      "not": 582,
      "edgwith": 583,
      "gasgag": 584,
      "char": 585,
      "gthre": 586,
      "let": 587,
      "ept": 588,
      "ctheg": 589,
      "ank": 590,
      "gy": 591,
      "sgtog": 592,
      "gandgs": 593,
      "mon": 594,
      "jo": 595,
      "part": 596,
      "erng": 597,
      "riv": 598,
      "sgofgtheg": 599,
      "haveg": 600,
      "gwhog": 601,
      "are": 602,
      "sgs": 603,
      "gacc": 604,
      "sging": 605,
      "unit": 606,
      "amp": 607,
      "gatgtheg": 608,
      "view": 609,
      "kn": 610,
      "gfrom": 611,
      "fin": 612,
      "inggs": 613,
      "work": 614,
      "itt": 615,
      "gi": 616,
      "cre": 617,
      "ryg": 618,
      "ry": 619,
      "uch": 620,
      "gthem": 621,
      "inggtog": 622,
      "nation": 623,
      "ergs": 624,
      "prov": 625,
      "bu": 626,
      "pol": 627,
      "gass": 628,
      "gthrough": 629,
      "firstg": 630,
      "ofgs": 631,
      "ru": 632,
      "edgh": 633,
      "pt": 634,
      "lik": 635,
      "old": 636,
      "000": 637,
      "to": 638,
      "ann": 639,
      "ide": 640,
      "produc": 641,
      "cor": 642,
      "fromgtheg": 643,
      "dur": 644,
      "car": 645,
      "fer": 646,
      "ure": 647,
      "num": 648,
      "gwhil": 649,
      "gpro": 650,
      "ghow": 651,
      "ext": 652,
      "unt": 653,
      "gisg": 654,
      "ustg": 655,
      "gis": 656,
      "bum": 657,
      "gact": 658,
      "plac": 659,
      "odg": 660,
      "publ": 661,
      "releas": 662,
      "af": 663,
      "gover": 664,
      "ey": 665,
      "ock": 666,
      "atch": 667,
      "air": 668,
      "ement": 669,
      "ght": 670,
      "ated": 671,
      "10": 672,
      "iag": 673,
      "egfor": 674,
      "gpl": 675,
      "ian": 676,
      "usic": 677,
      "ron": 678,
      "offic": 679,
      "gagl": 680,
      "ameg": 681,
      "gandgh": 682,
      "under": 683,
      "eth": 684,
      "cent": 685,
      "edgfor": 686,
      "iel": 687,
      "wor": 688,
      "ular": 689,
      "gagf": 690,
      "ally": 691,
      "struc": 692,
      "ark": 693,
      "sgh": 694,
      "mang": 695,
      "mad": 696,
      "mov": 697,
      "ah": 698,
      "elect": 699,
      "epis": 700,
      "edgthatg": 701,
      "evel": 702,
      "ater": 703,
      "istg": 704,
      "oneg": 705,
      "cho": 706,
      "rol": 707,
      "episod": 708,
      "ight": 709,
      "ific": 710,
      "inggh": 711,
      "ib": 712,
      "gtra": 713,
      "egwith": 714,
      "ost": 715,
      "includ": 716,
      "g19": 717,
      "ful": 718,
      "cap": 719,
      "gbyg": 720,
      "gagain": 721,
      "astg": 722,
      "gthegd": 723,
      "inn": 724,
      "song": 725,
      "omeg": 726,
      "ju": 727,
      "other": 728,
      "ert": 729,
      "17": 730,
      "gbe": 731,
      "evelop": 732,
      "sgof": 733,
      "pec": 734,
      "gthes": 735,
      "into": 736,
      "oryg": 737,
      "rop": 738,
      "ram": 739,
      "les": 740,
      "edgingtheg": 741,
      "oldg": 742,
      "gor": 743,
      "vers": 744,
      "gaw": 745,
      "ld": 746,
      "ightg": 747,
      "ghowever": 748,
      "15": 749,
      "ett": 750,
      "sgb": 751,
      "ond": 752,
      "la": 753,
      "gasgtheg": 754,
      "ons": 755,
      "gthatgtheg": 756,
      "oup": 757,
      "sgwith": 758,
      "egwas": 759,
      "gafterg": 760,
      "ginclud": 761,
      "edgs": 762,
      "gle": 763,
      "ors": 764,
      "earlyg": 765,
      "rect": 766,
      "oper": 767,
      "ari": 768,
      "onlyg": 769,
      "edgong": 770,
      "ions": 771,
      "tgofgtheg": 772,
      "gtak": 773,
      "war": 774,
      "olog": 775,
      "yst": 776,
      "ual": 777,
      "eyg": 778,
      "origin": 779,
      "ucc": 780,
      "main": 781,
      "vol": 782,
      "serv": 783,
      "gair": 784,
      "which": 785,
      "sgc": 786,
      "inggag": 787,
      "gwereg": 788,
      "landg": 789,
      "reas": 790,
      "mostg": 791,
      "atur": 792,
      "film": 793,
      "elf": 794,
      "endg": 795,
      "gthegh": 796,
      "itiong": 797,
      "econdg": 798,
      "unitedg": 799,
      "uaryg": 800,
      "sgfor": 801,
      "gagk": 802,
      "16": 803,
      "30": 804,
      "vel": 805,
      "def": 806,
      "ger": 807,
      "edgto": 808,
      "gadd": 809,
      "ood": 810,
      "eiv": 811,
      "mak": 812,
      "med": 813,
      "etweeng": 814,
      "ress": 815,
      "gbut": 816,
      "gav": 817,
      "me": 818,
      "record": 819,
      "pop": 820,
      "ary": 821,
      "12": 822,
      "though": 823,
      "sgf": 824,
      "inu": 825,
      "group": 826,
      "ern": 827,
      "loc": 828,
      "ident": 829,
      "gther": 830,
      "ste": 831,
      "resp": 832,
      "way": 833,
      "irst": 834,
      "gameric": 835,
      "tgofg": 836,
      "icalg": 837,
      "gro": 838,
      "ingag": 839,
      "acter": 840,
      "show": 841,
      "so": 842,
      "garm": 843,
      "gener": 844,
      "ine": 845,
      "sgingtheg": 846,
      "cing": 847,
      "befor": 848,
      "esgandg": 849,
      "gaboutg": 850,
      "egre": 851,
      "her": 852,
      "ort": 853,
      "bas": 854,
      "forc": 855,
      "perform": 856,
      "mayg": 857,
      "amil": 858,
      "you": 859,
      "gex": 860,
      "rong": 861,
      "day": 862,
      "gteam": 863,
      "gun": 864,
      "ik": 865,
      "ire": 866,
      "ghadg": 867,
      "wouldg": 868,
      "overg": 869,
      "ineg": 870,
      "son": 871,
      "ism": 872,
      "ivers": 873,
      "until": 874,
      "gra": 875,
      "bri": 876,
      "pit": 877,
      "pear": 878,
      "chool": 879,
      "198": 880,
      "ck": 881,
      "rat": 882,
      "cur": 883,
      "pers": 884,
      "ialg": 885,
      "algs": 886,
      "larg": 887,
      "gmill": 888,
      "anyg": 889,
      "gdes": 890,
      "gagh": 891,
      "public": 892,
      "gdur": 893,
      "ageg": 894,
      "gthegfirstg": 895,
      "vis": 896,
      "its": 897,
      "194": 898,
      "writ": 899,
      "50": 900,
      "ystem": 901,
      "ym": 902,
      "chang": 903,
      "four": 904,
      "can": 905,
      "egwh": 906,
      "back": 907,
      "g2": 908,
      "gfe": 909,
      "diff": 910,
      "bro": 911,
      "edgbygtheg": 912,
      "ash": 913,
      "gart": 914,
      "14": 915,
      "numberg": 916,
      "egthatg": 917,
      "ject": 918,
      "king": 919,
      "galthough": 920,
      "event": 921,
      "sgd": 922,
      "eff": 923,
      "ft": 924,
      "iev": 925,
      "gwe": 926,
      "gtogbeg": 927,
      "ris": 928,
      "ritish": 929,
      "roy": 930,
      "nog": 931,
      "anceg": 932,
      "enn": 933,
      "rad": 934,
      "ilit": 935,
      "bur": 936,
      "ags": 937,
      "struct": 938,
      "ementg": 939,
      "oci": 940,
      "oy": 941,
      "edgtogtheg": 942,
      "aing": 943,
      "galong": 944,
      "ely": 945,
      "rac": 946,
      "gcont": 947,
      "wayg": 948,
      "gwheng": 949,
      "sup": 950,
      "13": 951,
      "ott": 952,
      "ross": 953,
      "east": 954,
      "ory": 955,
      "sgwh": 956,
      "gagt": 957,
      "crib": 958,
      "hasg": 959,
      "197": 960,
      "ins": 961,
      "g200": 962,
      "ations": 963,
      "ii": 964,
      "national": 965,
      "esgofg": 966,
      "gtrans": 967,
      "ounc": 968,
      "ball": 969,
      "agu": 970,
      "ghtg": 971,
      "call": 972,
      "196": 973,
      "star": 974,
      "teng": 975,
      "count": 976,
      "ingt": 977,
      "ust": 978,
      "ureg": 979,
      "open": 980,
      "gherg": 981,
      "erc": 982,
      "gcent": 983,
      "character": 984,
      "gcl": 985,
      "fr": 986,
      "rot": 987,
      "gagm": 988,
      "peri": 989,
      "eal": 990,
      "continu": 991,
      "high": 992,
      "gann": 993,
      "bor": 994,
      "exp": 995,
      "bel": 996,
      "ftg": 997,
      "hel": 998,
      "mall": 999,
      "iceg": 1000,
      "herg": 1001,
      "point": 1002,
      "aid": 1003,
      "pass": 1004,
      "long": 1005,
      "unitedgstat": 1006,
      "arm": 1007,
      "stral": 1008,
      "rang": 1009,
      "gthough": 1010,
      "lead": 1011,
      "nov": 1012,
      "gkm": 1013,
      "emb": 1014,
      "age": 1015,
      "such": 1016,
      "ys": 1017,
      "present": 1018,
      "gbec": 1019,
      "west": 1020,
      "ritic": 1021,
      "yp": 1022,
      "gongtheg": 1023,
      "eghadg": 1024,
      "isiong": 1025,
      "direct": 1026,
      "sgfrom": 1027,
      "sgm": 1028,
      "pow": 1029,
      "opl": 1030,
      "eveng": 1031,
      "uss": 1032,
      "maj": 1033,
      "heg": 1034,
      "conc": 1035,
      "eu": 1036,
      "grec": 1037,
      "cas": 1038,
      "cal": 1039,
      "edgasg": 1040,
      "gitgwasg": 1041,
      "gtheng": 1042,
      "illi": 1043,
      "urch": 1044,
      "ance": 1045,
      "octo": 1046,
      "uccess": 1047,
      "du": 1048,
      "ather": 1049,
      "git": 1050,
      "gby": 1051,
      "edgandg": 1052,
      "now": 1053,
      "g201": 1054,
      "eriesg": 1055,
      "enceg": 1056,
      "gasgw": 1057,
      "gagre": 1058,
      "follow": 1059,
      "ibl": 1060,
      "div": 1061,
      "dep": 1062,
      "return": 1063,
      "him": 1064,
      "ygandg": 1065,
      "rist": 1066,
      "cr": 1067,
      "gter": 1068,
      "uallyg": 1069,
      "intog": 1070,
      "press": 1071,
      "develop": 1072,
      "lesg": 1073,
      "sub": 1074,
      "didg": 1075,
      "fac": 1076,
      "oh": 1077,
      "order": 1078,
      "raph": 1079,
      "game": 1080,
      "sider": 1081,
      "lif": 1082,
      "clos": 1083,
      "engtheg": 1084,
      "ableg": 1085,
      "ium": 1086,
      "edgfrom": 1087,
      "igng": 1088,
      "11": 1089,
      "algp": 1090,
      "giv": 1091,
      "mark": 1092,
      "cons": 1093,
      "oot": 1094,
      "album": 1095,
      "one": 1096,
      "gthis": 1097,
      "receiv": 1098,
      "gandgm": 1099,
      "ofgh": 1100,
      "als": 1101,
      "gthegn": 1102,
      "bre": 1103,
      "requ": 1104,
      "alsog": 1105,
      "equ": 1106,
      "gare": 1107,
      "laterg": 1108,
      "govern": 1109,
      "portg": 1110,
      "sever": 1111,
      "joh": 1112,
      "te": 1113,
      "egl": 1114,
      "manyg": 1115,
      "gthereg": 1116,
      "vent": 1117,
      "ines": 1118,
      "yl": 1119,
      "galbum": 1120,
      "gthegl": 1121,
      "seas": 1122,
      "cam": 1123,
      "gthegsong": 1124,
      "ards": 1125,
      "batt": 1126,
      "light": 1127,
      "edghisg": 1128,
      "gappear": 1129,
      "cra": 1130,
      "ull": 1131,
      "gwhereg": 1132,
      "kill": 1133,
      "eptemberg": 1134,
      "years": 1135,
      "gwor": 1136,
      "oll": 1137,
      "dom": 1138,
      "run": 1139,
      "complet": 1140,
      "cover": 1141,
      "gmar": 1142,
      "iredg": 1143,
      "gitsg": 1144,
      "spec": 1145,
      "gmor": 1146,
      "iallyg": 1147,
      "oodg": 1148,
      "gthang": 1149,
      "der": 1150,
      "esgtog": 1151,
      "prom": 1152,
      "udi": 1153,
      "edgin": 1154,
      "gapr": 1155,
      "dist": 1156,
      "ax": 1157,
      "jun": 1158,
      "both": 1159,
      "ribut": 1160,
      "edgm": 1161,
      "gapril": 1162,
      "ox": 1163,
      "grad": 1164,
      "ence": 1165,
      "ther": 1166,
      "ive": 1167,
      "gwithgtheg": 1168,
      "wog": 1169,
      "gtook": 1170,
      "ate": 1171,
      "eat": 1172,
      "egingtheg": 1173,
      "bar": 1174,
      "gsheg": 1175,
      "ision": 1176,
      "do": 1177,
      "univers": 1178,
      "sgthatg": 1179,
      "gnew": 1180,
      "storm": 1181,
      "rem": 1182,
      "road": 1183,
      "eter": 1184,
      "empt": 1185,
      "edgon": 1186,
      "gattack": 1187,
      "duringgtheg": 1188,
      "music": 1189,
      "ectg": 1190,
      "rais": 1191,
      "stre": 1192,
      "ember": 1193,
      "aterg": 1194,
      "beingg": 1195,
      "ghasg": 1196,
      "gyork": 1197,
      "iog": 1198,
      "25": 1199,
      "edgatg": 1200,
      "gtheseg": 1201,
      "had": 1202,
      "moreg": 1203,
      "ongs": 1204,
      "ifi": 1205,
      "uk": 1206,
      "sgin": 1207,
      "egand": 1208,
      "az": 1209,
      "organ": 1210,
      "sgre": 1211,
      "rip": 1212,
      "gustg": 1213,
      "consider": 1214,
      "stand": 1215,
      "miss": 1216,
      "tion": 1217,
      "gasgwell": 1218,
      "yn": 1219,
      "som": 1220,
      "stateg": 1221,
      "octoberg": 1222,
      "known": 1223,
      "gagw": 1224,
      "ush": 1225,
      "gallow": 1226,
      "later": 1227,
      "gpr": 1228,
      "fiel": 1229,
      "val": 1230,
      "ci": 1231,
      "gus": 1232,
      "ham": 1233,
      "vari": 1234,
      "ghav": 1235,
      "gandgag": 1236,
      "elev": 1237,
      "onegofgtheg": 1238,
      "read": 1239,
      "rench": 1240,
      "ationgofg": 1241,
      "irdg": 1242,
      "g3": 1243,
      "ghegwasg": 1244,
      "gsp": 1245,
      "theg": 1246,
      "ganyg": 1247,
      "eries": 1248,
      "imil": 1249,
      "ink": 1250,
      "gcentur": 1251,
      "alf": 1252,
      "well": 1253,
      "prot": 1254,
      "major": 1255,
      "near": 1256,
      "gaugustg": 1257,
      "esging": 1258,
      "imp": 1259,
      "veryg": 1260,
      "reat": 1261,
      "right": 1262,
      "gant": 1263,
      "fort": 1264,
      "cla": 1265,
      "ingging": 1266,
      "sur": 1267,
      "iongofg": 1268,
      "algc": 1269,
      "rout": 1270,
      "ke": 1271,
      "death": 1272,
      "algm": 1273,
      "ung": 1274,
      "inggandg": 1275,
      "gper": 1276,
      "ice": 1277,
      "ofgag": 1278,
      "gaccord": 1279,
      "gandgt": 1280,
      "cang": 1281,
      "indi": 1282,
      "egwereg": 1283,
      "list": 1284,
      "gthegp": 1285,
      "gagainstg": 1286,
      "gthreeg": 1287,
      "40": 1288,
      "gwork": 1289,
      "ygofg": 1290,
      "lear": 1291,
      "econd": 1292,
      "edgthat": 1293,
      "dra": 1294,
      "imat": 1295,
      "gwhileg": 1296,
      "jan": 1297,
      "gaustral": 1298,
      "ergandg": 1299,
      "compan": 1300,
      "esgwereg": 1301,
      "leagu": 1302,
      "stit": 1303,
      "gthegw": 1304,
      "design": 1305,
      "gwar": 1306,
      "everg": 1307,
      "ativeg": 1308,
      "result": 1309,
      "flu": 1310,
      "gaddition": 1311,
      "down": 1312,
      "algd": 1313,
      "vir": 1314,
      "prog": 1315,
      "gsom": 1316,
      "no": 1317,
      "expl": 1318,
      "cong": 1319,
      "itgwasg": 1320,
      "iteg": 1321,
      "underg": 1322,
      "ergofgtheg": 1323,
      "inggthatg": 1324,
      "gher": 1325,
      "gthos": 1326,
      "issu": 1327,
      "thgcentur": 1328,
      "differ": 1329,
      "vict": 1330,
      "dem": 1331,
      "whil": 1332,
      "establ": 1333,
      "provid": 1334,
      "mod": 1335,
      "increas": 1336,
      "quar": 1337,
      "establish": 1338,
      "inv": 1339,
      "gmilliong": 1340,
      "alt": 1341,
      "forg": 1342,
      "rag": 1343,
      "del": 1344,
      "wheng": 1345,
      "ginter": 1346,
      "gtogs": 1347,
      "poss": 1348,
      "fir": 1349,
      "previ": 1350,
      "pris": 1351,
      "buil": 1352,
      "each": 1353,
      "itygofg": 1354,
      "book": 1355,
      "gwouldg": 1356,
      "gabout": 1357,
      "thor": 1358,
      "maing": 1359,
      "193": 1360,
      "rent": 1361,
      "ook": 1362,
      "gagc": 1363,
      "eason": 1364,
      "illiam": 1365,
      "leyg": 1366,
      "195": 1367,
      "sequ": 1368,
      "remain": 1369,
      "partic": 1370,
      "sk": 1371,
      "ergofg": 1372,
      "24": 1373,
      "describ": 1374,
      "engl": 1375,
      "apan": 1376,
      "egisg": 1377,
      "even": 1378,
      "ai": 1379,
      "claim": 1380,
      "rel": 1381,
      "gcar": 1382,
      "gthey": 1383,
      "gdec": 1384,
      "gplay": 1385,
      "ghe": 1386,
      "start": 1387,
      "stitut": 1388,
      "extg": 1389,
      "ledg": 1390,
      "gsuch": 1391,
      "ean": 1392,
      "ator": 1393,
      "imilar": 1394,
      "gtime": 1395,
      "egtogtheg": 1396,
      "atingg": 1397,
      "still": 1398,
      "ationsg": 1399,
      "ega": 1400,
      "gandgf": 1401,
      "iongofgtheg": 1402,
      "umm": 1403,
      "park": 1404,
      "club": 1405,
      "ures": 1406,
      "inggofg": 1407,
      "south": 1408,
      "algf": 1409,
      "uck": 1410,
      "gcomm": 1411,
      "lex": 1412,
      "pi": 1413,
      "icg": 1414,
      "rain": 1415,
      "apt": 1416,
      "inceg": 1417,
      "dayg": 1418,
      "law": 1419,
      "gthan": 1420,
      "coll": 1421,
      "ordg": 1422,
      "na": 1423,
      "liv": 1424,
      "atter": 1425,
      "americ": 1426,
      "havegbeeng": 1427,
      "march": 1428,
      "cup": 1429,
      "ionsg": 1430,
      "init": 1431,
      "rew": 1432,
      "black": 1433,
      "ecut": 1434,
      "gandgwasg": 1435,
      "child": 1436,
      "polit": 1437,
      "gandgw": 1438,
      "capt": 1439,
      "21": 1440,
      "eb": 1441,
      "rock": 1442,
      "gboth": 1443,
      "ug": 1444,
      "alk": 1445,
      "gbefor": 1446,
      "reach": 1447,
      "gamericang": 1448,
      "gcomp": 1449,
      "ner": 1450,
      "studi": 1451,
      "betweeng": 1452,
      "effect": 1453,
      "gtow": 1454,
      "rican": 1455,
      "22": 1456,
      "gpart": 1457,
      "oss": 1458,
      "rest": 1459,
      "omb": 1460,
      "gthegfilm": 1461,
      "gamong": 1462,
      "therg": 1463,
      "gtrad": 1464,
      "bygtheg": 1465,
      "control": 1466,
      "mid": 1467,
      "ould": 1468,
      "volv": 1469,
      "class": 1470,
      "build": 1471,
      "icallyg": 1472,
      "edghim": 1473,
      "level": 1474,
      "100": 1475,
      "gup": 1476,
      "edgf": 1477,
      "rack": 1478,
      "identg": 1479,
      "self": 1480,
      "gthegtim": 1481,
      "gtri": 1482,
      "earch": 1483,
      "ior": 1484,
      "gpe": 1485,
      "person": 1486,
      "edgongtheg": 1487,
      "bruaryg": 1488,
      "publish": 1489,
      "gtheirg": 1490,
      "champ": 1491,
      "enter": 1492,
      "dam": 1493,
      "ghigh": 1494,
      "head": 1495,
      "didgnotg": 1496,
      "gtour": 1497,
      "cast": 1498,
      "couldg": 1499,
      "cour": 1500,
      "ward": 1501,
      "sgwasg": 1502,
      "ca": 1503,
      "gattempt": 1504,
      "gnor": 1505,
      "23": 1506,
      "met": 1507,
      "ingghisg": 1508,
      "ganotherg": 1509,
      "empl": 1510,
      "eghisg": 1511,
      "vill": 1512,
      "english": 1513,
      "27": 1514,
      "gappro": 1515,
      "greg": 1516,
      "report": 1517,
      "ieg": 1518,
      "eph": 1519,
      "peopl": 1520,
      "been": 1521,
      "har": 1522,
      "ideog": 1523,
      "ument": 1524,
      "gfollow": 1525,
      "gagainst": 1526,
      "iat": 1527,
      "gbeg": 1528,
      "ina": 1529,
      "stud": 1530,
      "ce": 1531,
      "fall": 1532,
      "que": 1533,
      "esgofgtheg": 1534,
      "egthegs": 1535,
      "newgyork": 1536,
      "church": 1537,
      "lim": 1538,
      "aff": 1539,
      "british": 1540,
      "gwrit": 1541,
      "gaftergtheg": 1542,
      "ggest": 1543,
      "entlyg": 1544,
      "gturn": 1545,
      "60": 1546,
      "young": 1547,
      "greatg": 1548,
      "withgtheg": 1549,
      "den": 1550,
      "28": 1551,
      "gadv": 1552,
      "gse": 1553,
      "review": 1554,
      "gdi": 1555,
      "ograph": 1556,
      "indg": 1557,
      "sgp": 1558,
      "ingleg": 1559,
      "ghist": 1560,
      "whog": 1561,
      "sgtheg": 1562,
      "plan": 1563,
      "galso": 1564,
      "strong": 1565,
      "ley": 1566,
      "uredg": 1567,
      "egfrom": 1568,
      "gtwo": 1569,
      "ationgofgtheg": 1570,
      "becaus": 1571,
      "ran": 1572,
      "ract": 1573,
      "found": 1574,
      "omin": 1575,
      "gdis": 1576,
      "famil": 1577,
      "ital": 1578,
      "week": 1579,
      "ics": 1580,
      "ird": 1581,
      "gaz": 1582,
      "inggm": 1583,
      "ct": 1584,
      "g18": 1585,
      "cen": 1586,
      "import": 1587,
      "uccessful": 1588,
      "christ": 1589,
      "ier": 1590,
      "avyg": 1591,
      "ofghisg": 1592,
      "gsever": 1593,
      "gint": 1594,
      "inggthegs": 1595,
      "gameg": 1596,
      "ask": 1597,
      "gbl": 1598,
      "ilyg": 1599,
      "worldg": 1600,
      "lightg": 1601,
      "hist": 1602,
      "riend": 1603,
      "edgas": 1604,
      "gtrack": 1605,
      "lov": 1606,
      "ectiong": 1607,
      "elt": 1608,
      "g4": 1609,
      "agandg": 1610,
      "post": 1611,
      "sgong": 1612,
      "26": 1613,
      "ech": 1614,
      "centr": 1615,
      "intg": 1616,
      "after": 1617,
      "aredg": 1618,
      "gthere": 1619,
      "rail": 1620,
      "app": 1621,
      "ridg": 1622,
      "dog": 1623,
      "don": 1624,
      "prim": 1625,
      "areg": 1626,
      "ates": 1627,
      "gproduc": 1628,
      "gitgisg": 1629,
      "bin": 1630,
      "edgthegs": 1631,
      "dr": 1632,
      "hous": 1633,
      "ps": 1634,
      "japan": 1635,
      "inggfor": 1636,
      "rope": 1637,
      "respons": 1638,
      "gassoci": 1639,
      "ultg": 1640,
      "gjoh": 1641,
      "ghim": 1642,
      "gmon": 1643,
      "gtot": 1644,
      "gtech": 1645,
      "gcol": 1646,
      "els": 1647,
      "sol": 1648,
      "prof": 1649,
      "playg": 1650,
      "algb": 1651,
      "ired": 1652,
      "world": 1653,
      "bridg": 1654,
      "ground": 1655,
      "29": 1656,
      "rev": 1657,
      "position": 1658,
      "westg": 1659,
      "gsup": 1660,
      "inggwith": 1661,
      "lateg": 1662,
      "etween": 1663,
      "ief": 1664,
      "mal": 1665,
      "urrican": 1666,
      "gpar": 1667,
      "gappe": 1668,
      "pri": 1669,
      "begang": 1670,
      "novemberg": 1671,
      "vo": 1672,
      "eam": 1673,
      "becom": 1674,
      "partgofgtheg": 1675,
      "garch": 1676,
      "gz": 1677,
      "julyg": 1678,
      "egwouldg": 1679,
      "ore": 1680,
      "0s": 1681,
      "gco": 1682,
      "gincludingg": 1683,
      "yth": 1684,
      "gtit": 1685,
      "bi": 1686,
      "commun": 1687,
      "ivelyg": 1688,
      "inggofgtheg": 1689,
      "oreg": 1690,
      "gotherg": 1691,
      "cs": 1692,
      "popul": 1693,
      "eastg": 1694,
      "ection": 1695,
      "ets": 1696,
      "ility": 1697,
      "unch": 1698,
      "bertg": 1699,
      "hadgbeeng": 1700,
      "gsouth": 1701,
      "ionship": 1702,
      "garoundg": 1703,
      "essg": 1704,
      "esgingtheg": 1705,
      "johng": 1706,
      "games": 1707,
      "fre": 1708,
      "rank": 1709,
      "roduc": 1710,
      "gmostg": 1711,
      "exc": 1712,
      "quad": 1713,
      "ideg": 1714,
      "isgag": 1715,
      "ray": 1716,
      "ener": 1717,
      "hom": 1718,
      "gtrain": 1719,
      "jam": 1720,
      "iment": 1721,
      "care": 1722,
      "gaward": 1723,
      "command": 1724,
      "emp": 1725,
      "ycl": 1726,
      "dest": 1727,
      "island": 1728,
      "2010": 1729,
      "becam": 1730,
      "gph": 1731,
      "juneg": 1732,
      "januaryg": 1733,
      "inggto": 1734,
      "gthegsouth": 1735,
      "gpo": 1736,
      "ingsg": 1737,
      "power": 1738,
      "gmin": 1739,
      "iter": 1740,
      "much": 1741,
      "ghegs": 1742,
      "ether": 1743,
      "madeg": 1744,
      "round": 1745,
      "eder": 1746,
      "egthat": 1747,
      "room": 1748,
      "mo": 1749,
      "minist": 1750,
      "match": 1751,
      "sgand": 1752,
      "tim": 1753,
      "2008": 1754,
      "caus": 1755,
      "edginto": 1756,
      "ignific": 1757,
      "gir": 1758,
      "gnot": 1759,
      "feat": 1760,
      "gmet": 1761,
      "ouslyg": 1762,
      "began": 1763,
      "critic": 1764,
      "gmanyg": 1765,
      "neg": 1766,
      "will": 1767,
      "edgasgag": 1768,
      "sgareg": 1769,
      "esgtheg": 1770,
      "put": 1771,
      "190": 1772,
      "ilesg": 1773,
      "rich": 1774,
      "ession": 1775,
      "gthegfirst": 1776,
      "relat": 1777,
      "gworldg": 1778,
      "likeg": 1779,
      "conf": 1780,
      "manag": 1781,
      "formerg": 1782,
      "acc": 1783,
      "rap": 1784,
      "occur": 1785,
      "pur": 1786,
      "anag": 1787,
      "augh": 1788,
      "yearsg": 1789,
      "month": 1790,
      "gannounc": 1791,
      "elv": 1792,
      "replac": 1793,
      "gbecaus": 1794,
      "unitedgstates": 1795,
      "refer": 1796,
      "decemberg": 1797,
      "2009": 1798,
      "edgthatgtheg": 1799,
      "ton": 1800,
      "unn": 1801,
      "only": 1802,
      "aidg": 1803,
      "ygs": 1804,
      "first": 1805,
      "ygtog": 1806,
      "eir": 1807,
      "orn": 1808,
      "gtheygwereg": 1809,
      "atesg": 1810,
      "ogn": 1811,
      "wardg": 1812,
      "fact": 1813,
      "gkmg": 1814,
      "gship": 1815,
      "garound": 1816,
      "esgthatg": 1817,
      "suchgasg": 1818,
      "erging": 1819,
      "ston": 1820,
      "gfin": 1821,
      "cul": 1822,
      "gma": 1823,
      "itiesg": 1824,
      "butg": 1825,
      "ghad": 1826,
      "real": 1827,
      "gif": 1828,
      "los": 1829,
      "season": 1830,
      "ael": 1831,
      "gthen": 1832,
      "itch": 1833,
      "chest": 1834,
      "line": 1835,
      "partg": 1836,
      "2011": 1837,
      "grow": 1838,
      "agn": 1839,
      "fur": 1840,
      "gwhichgwasg": 1841,
      "educ": 1842,
      "ster": 1843,
      "unc": 1844,
      "europe": 1845,
      "leav": 1846,
      "gserv": 1847,
      "embersg": 1848,
      "gwher": 1849,
      "2007": 1850,
      "egin": 1851,
      "gagb": 1852,
      "eh": 1853,
      "reli": 1854,
      "egtim": 1855,
      "proc": 1856,
      "gduringgtheg": 1857,
      "gmusic": 1858,
      "program": 1859,
      "80": 1860,
      "sw": 1861,
      "gpres": 1862,
      "viv": 1863,
      "ities": 1864,
      "ghar": 1865,
      "ilitaryg": 1866,
      "tong": 1867,
      "easong": 1868,
      "gauthor": 1869,
      "ireg": 1870,
      "ven": 1871,
      "ace": 1872,
      "ouse": 1873,
      "popular": 1874,
      "ourc": 1875,
      "look": 1876,
      "unitedgstatesg": 1877,
      "qual": 1878,
      "uff": 1879,
      "roleg": 1880,
      "ittleg": 1881,
      "atic": 1882,
      "ileg": 1883,
      "vert": 1884,
      "imm": 1885,
      "roadg": 1886,
      "gwhen": 1887,
      "pat": 1888,
      "egthang": 1889,
      "bert": 1890,
      "thgcentury": 1891,
      "gandgb": 1892,
      "gandgd": 1893,
      "resg": 1894,
      "just": 1895,
      "gdespit": 1896,
      "opp": 1897,
      "actg": 1898,
      "gtop": 1899,
      "numbergofg": 1900,
      "sch": 1901,
      "ootball": 1902,
      "roll": 1903,
      "gtogb": 1904,
      "ggu": 1905,
      "mg": 1906,
      "influ": 1907,
      "emper": 1908,
      "ganim": 1909,
      "aur": 1910,
      "peak": 1911,
      "add": 1912,
      "compet": 1913,
      "compos": 1914,
      "becameg": 1915,
      "germang": 1916,
      "gaccordinggtog": 1917,
      "edgtogbeg": 1918,
      "emal": 1919,
      "inf": 1920,
      "great": 1921,
      "gschool": 1922,
      "gtro": 1923,
      "ite": 1924,
      "pet": 1925,
      "has": 1926,
      "headg": 1927,
      "gchar": 1928,
      "earli": 1929,
      "leng": 1930,
      "assg": 1931,
      "g5": 1932,
      "impl": 1933,
      "sty": 1934,
      "governmentg": 1935,
      "phil": 1936,
      "egong": 1937,
      "eghasg": 1938,
      "70": 1939,
      "gaing": 1940,
      "introduc": 1941,
      "pan": 1942,
      "band": 1943,
      "2012": 1944,
      "knowng": 1945,
      "geach": 1946,
      "istic": 1947,
      "break": 1948,
      "blem": 1949,
      "leftg": 1950,
      "organiz": 1951,
      "field": 1952,
      "warg": 1953,
      "ness": 1954,
      "gforgtheg": 1955,
      "gfilm": 1956,
      "lond": 1957,
      "det": 1958,
      "ays": 1959,
      "rul": 1960,
      "conn": 1961,
      "hol": 1962,
      "gweek": 1963,
      "abor": 1964,
      "io": 1965,
      "glong": 1966,
      "gnov": 1967,
      "justg": 1968,
      "join": 1969,
      "egbec": 1970,
      "able": 1971,
      "ten": 1972,
      "gandghisg": 1973,
      "rown": 1974,
      "ativ": 1975,
      "igat": 1976,
      "inggtogtheg": 1977,
      "half": 1978,
      "189": 1979,
      "gorg": 1980,
      "gaff": 1981,
      "gyou": 1982,
      "ualg": 1983,
      "edgup": 1984,
      "nationalg": 1985,
      "econom": 1986,
      "garriv": 1987,
      "februaryg": 1988,
      "gpol": 1989,
      "improv": 1990,
      "gmayg": 1991,
      "uild": 1992,
      "sgl": 1993,
      "experi": 1994,
      "2006": 1995,
      "epend": 1996,
      "gactiv": 1997,
      "foundg": 1998,
      "georg": 1999,
      "river": 2000,
      "ivil": 2001,
      "promot": 2002,
      "draw": 2003,
      "gtelev": 2004,
      "beforeg": 2005,
      "gandgc": 2006,
      "groundg": 2007,
      "oughtg": 2008,
      "odyg": 2009,
      "ichael": 2010,
      "omen": 2011,
      "gshow": 2012,
      "gthatgh": 2013,
      "princ": 2014,
      "ablegtog": 2015,
      "chart": 2016,
      "americang": 2017,
      "official": 2018,
      "aut": 2019,
      "ped": 2020,
      "imag": 2021,
      "ents": 2022,
      "ling": 2023,
      "ertain": 2024,
      "involv": 2025,
      "research": 2026,
      "gnorth": 2027,
      "arch": 2028,
      "quarter": 2029,
      "life": 2030,
      "cm": 2031,
      "ortg": 2032,
      "endgofgtheg": 2033,
      "neyg": 2034,
      "egbyg": 2035,
      "gcall": 2036,
      "story": 2037,
      "gtechn": 2038,
      "structiong": 2039,
      "gback": 2040,
      "etim": 2041,
      "less": 2042,
      "ont": 2043,
      "gtur": 2044,
      "but": 2045,
      "egtheir": 2046,
      "ought": 2047,
      "gfour": 2048,
      "gbas": 2049,
      "inggf": 2050,
      "observ": 2051,
      "know": 2052,
      "non": 2053,
      "ue": 2054,
      "gangel": 2055,
      "ofgw": 2056,
      "lor": 2057,
      "gmad": 2058,
      "gsur": 2059,
      "pac": 2060,
      "videog": 2061,
      "inggc": 2062,
      "ie": 2063,
      "edgc": 2064,
      "posit": 2065,
      "help": 2066,
      "gseason": 2067,
      "spe": 2068,
      "eryg": 2069,
      "edga": 2070,
      "ropical": 2071,
      "icag": 2072,
      "ref": 2073,
      "quest": 2074,
      "bill": 2075,
      "companyg": 2076,
      "setg": 2077,
      "gthegsecondg": 2078,
      "fordg": 2079,
      "gforc": 2080,
      "inggingtheg": 2081,
      "gspec": 2082,
      "differentg": 2083,
      "gthegtwog": 2084,
      "england": 2085,
      "use": 2086,
      "builtg": 2087,
      "gitgwas": 2088,
      "gask": 2089,
      "gdu": 2090,
      "gwithgag": 2091,
      "gtyp": 2092,
      "wer": 2093,
      "nav": 2094,
      "umb": 2095,
      "ansg": 2096,
      "jur": 2097,
      "epar": 2098,
      "ationship": 2099,
      "oph": 2100,
      "ared": 2101,
      "rog": 2102,
      "ford": 2103,
      "algofg": 2104,
      "ged": 2105,
      "rh": 2106,
      "earth": 2107,
      "ounter": 2108,
      "esgwith": 2109,
      "government": 2110,
      "ilityg": 2111,
      "gmak": 2112,
      "itor": 2113,
      "intend": 2114,
      "represent": 2115,
      "stri": 2116,
      "secondg": 2117,
      "gasgwellgasg": 2118,
      "gel": 2119,
      "eghad": 2120,
      "g199": 2121,
      "iqu": 2122,
      "his": 2123,
      "recordg": 2124,
      "ici": 2125,
      "offer": 2126,
      "championship": 2127,
      "ating": 2128,
      "gdef": 2129,
      "downg": 2130,
      "kingdom": 2131,
      "gsub": 2132,
      "gde": 2133,
      "cu": 2134,
      "oct": 2135,
      "city": 2136,
      "gret": 2137,
      "sheg": 2138,
      "gthom": 2139,
      "whatg": 2140,
      "decid": 2141,
      "itar": 2142,
      "gagnew": 2143,
      "imatelyg": 2144,
      "disc": 2145,
      "undergtheg": 2146,
      "westerng": 2147,
      "quick": 2148,
      "ablyg": 2149,
      "jack": 2150,
      "ours": 2151,
      "gjun": 2152,
      "easterng": 2153,
      "eseg": 2154,
      "ouncil": 2155,
      "mith": 2156,
      "propos": 2157,
      "respect": 2158,
      "perg": 2159,
      "rid": 2160,
      "ana": 2161,
      "boardg": 2162,
      "pair": 2163,
      "men": 2164,
      "gtimeg": 2165,
      "sing": 2166,
      "ghel": 2167,
      "gent": 2168,
      "company": 2169,
      "hear": 2170,
      "75": 2171,
      "ociet": 2172,
      "gthegfollow": 2173,
      "agegofg": 2174,
      "ivid": 2175,
      "ission": 2176,
      "sci": 2177,
      "voc": 2178,
      "episodeg": 2179,
      "gtre": 2180,
      "cag": 2181,
      "empor": 2182,
      "pert": 2183,
      "gagd": 2184,
      "believ": 2185,
      "mir": 2186,
      "scor": 2187,
      "mer": 2188,
      "gthegth": 2189,
      "ensiveg": 2190,
      "pal": 2191,
      "gso": 2192,
      "angu": 2193,
      "ampl": 2194,
      "far": 2195,
      "charg": 2196,
      "ump": 2197,
      "ultur": 2198,
      "cc": 2199,
      "gthegmostg": 2200,
      "eptg": 2201,
      "myg": 2202,
      "employ": 2203,
      "ellow": 2204,
      "ersgandg": 2205,
      "2013": 2206,
      "eventuallyg": 2207,
      "gagjg0": 2208,
      "sgwhog": 2209,
      "natur": 2210,
      "craftg": 2211,
      "edgit": 2212,
      "exist": 2213,
      "erson": 2214,
      "ali": 2215,
      "gmi": 2216,
      "imin": 2217,
      "ured": 2218,
      "edgang": 2219,
      "russ": 2220,
      "inggw": 2221,
      "gthegsam": 2222,
      "lastg": 2223,
      "uel": 2224,
      "iver": 2225,
      "keep": 2226,
      "ength": 2227,
      "positiong": 2228,
      "ourn": 2229,
      "episode": 2230,
      "outgofg": 2231,
      "ront": 2232,
      "construct": 2233,
      "gaver": 2234,
      "engag": 2235,
      "gaustralia": 2236,
      "rentg": 2237,
      "hum": 2238,
      "ghegwas": 2239,
      "inggfrom": 2240,
      "2005": 2241,
      "finish": 2242,
      "31": 2243,
      "gton": 2244,
      "gdep": 2245,
      "lav": 2246,
      "fiveg": 2247,
      "german": 2248,
      "yging": 2249,
      "carri": 2250,
      "hingt": 2251,
      "esgfor": 2252,
      "idenc": 2253,
      "eith": 2254,
      "ghis": 2255,
      "ants": 2256,
      "successful": 2257,
      "cop": 2258,
      "pot": 2259,
      "hand": 2260,
      "night": 2261,
      "how": 2262,
      "gplac": 2263,
      "gatgthegtim": 2264,
      "dav": 2265,
      "500": 2266,
      "isgtheg": 2267,
      "canad": 2268,
      "eri": 2269,
      "edgw": 2270,
      "reduc": 2271,
      "egtheyg": 2272,
      "productiong": 2273,
      "contain": 2274,
      "sgag": 2275,
      "usedgtog": 2276,
      "gthegfin": 2277,
      "sen": 2278,
      "pect": 2279,
      "emor": 2280,
      "ution": 2281,
      "sgongtheg": 2282,
      "eptiong": 2283,
      "gwithg": 2284,
      "conv": 2285,
      "rans": 2286,
      "esgfrom": 2287,
      "gtogag": 2288,
      "ymp": 2289,
      "previousg": 2290,
      "extend": 2291,
      "discover": 2292,
      "bestg": 2293,
      "committ": 2294,
      "rick": 2295,
      "gingag": 2296,
      "gtest": 2297,
      "pen": 2298,
      "thg": 2299,
      "35": 2300,
      "ustr": 2301,
      "othergs": 2302,
      "marri": 2303,
      "grecord": 2304,
      "support": 2305,
      "stag": 2306,
      "wall": 2307,
      "gsomeg": 2308,
      "earn": 2309,
      "rightg": 2310,
      "ha": 2311,
      "ature": 2312,
      "gcan": 2313,
      "ghom": 2314,
      "centur": 2315,
      "ofgt": 2316,
      "90": 2317,
      "compl": 2318,
      "tern": 2319,
      "urb": 2320,
      "gmph": 2321,
      "ingghim": 2322,
      "lineg": 2323,
      "six": 2324,
      "fieldg": 2325,
      "said": 2326,
      "inag": 2327,
      "aint": 2328,
      "ghas": 2329,
      "gassist": 2330,
      "gnog": 2331,
      "ler": 2332,
      "independ": 2333,
      "cingtheg": 2334,
      "gnotg": 2335,
      "ggener": 2336,
      "viol": 2337,
      "cityg": 2338,
      "garmyg": 2339,
      "cin": 2340,
      "sgar": 2341,
      "prais": 2342,
      "ggr": 2343,
      "diffic": 2344,
      "edgags": 2345,
      "immed": 2346,
      "jectg": 2347,
      "system": 2348,
      "gbar": 2349,
      "friend": 2350,
      "gmilesg": 2351,
      "performanc": 2352,
      "fav": 2353,
      "gandgl": 2354,
      "gpubl": 2355,
      "consist": 2356,
      "ript": 2357,
      "ueg": 2358,
      "destroy": 2359,
      "charact": 2360,
      "inggong": 2361,
      "ongag": 2362,
      "eck": 2363,
      "atgtheg": 2364,
      "gman": 2365,
      "region": 2366,
      "ister": 2367,
      "g10": 2368,
      "gsc": 2369,
      "ney": 2370,
      "gcritic": 2371,
      "stationg": 2372,
      "itedg": 2373,
      "outsid": 2374,
      "gust": 2375,
      "everyg": 2376,
      "gmarch": 2377,
      "legofg": 2378,
      "etic": 2379,
      "left": 2380,
      "plann": 2381,
      "ergm": 2382,
      "duct": 2383,
      "suff": 2384,
      "antic": 2385,
      "chief": 2386,
      "ges": 2387,
      "gtroop": 2388,
      "cthegf": 2389,
      "ival": 2390,
      "ield": 2391,
      "maint": 2392,
      "gthirdg": 2393,
      "gft": 2394,
      "gaglarg": 2395,
      "gmillion": 2396,
      "seasong": 2397,
      "originallyg": 2398,
      "magaz": 2399,
      "mi": 2400,
      "hold": 2401,
      "inggb": 2402,
      "colleg": 2403,
      "remov": 2404,
      "engine": 2405,
      "ovi": 2406,
      "itgisg": 2407,
      "gjan": 2408,
      "wood": 2409,
      "ularlyg": 2410,
      "northerng": 2411,
      "2014": 2412,
      "storyg": 2413,
      "gge": 2414,
      "girl": 2415,
      "edgt": 2416,
      "john": 2417,
      "anch": 2418,
      "gbel": 2419,
      "gsong": 2420,
      "paign": 2421,
      "gform": 2422,
      "project": 2423,
      "series": 2424,
      "cthegs": 2425,
      "gfromgtheg": 2426,
      "hib": 2427,
      "pract": 2428,
      "gbygtheg": 2429,
      "gandga": 2430,
      "ulti": 2431,
      "oubl": 2432,
      "unk": 2433,
      "steadg": 2434,
      "station": 2435,
      "short": 2436,
      "egdes": 2437,
      "oul": 2438,
      "goodg": 2439,
      "dition": 2440,
      "hon": 2441,
      "etweengtheg": 2442,
      "ountg": 2443,
      "mount": 2444,
      "atherg": 2445,
      "goneg": 2446,
      "damag": 2447,
      "gthegbritish": 2448,
      "presidentg": 2449,
      "effort": 2450,
      "gger": 2451,
      "usedg": 2452,
      "yd": 2453,
      "beh": 2454,
      "recogn": 2455,
      "ae": 2456,
      "reng": 2457,
      "fle": 2458,
      "gwill": 2459,
      "outgtheg": 2460,
      "ouch": 2461,
      "alsg": 2462,
      "raw": 2463,
      "stant": 2464,
      "ones": 2465,
      "forn": 2466,
      "45": 2467,
      "execut": 2468,
      "ople": 2469,
      "bow": 2470,
      "expect": 2471,
      "guntil": 2472,
      "suggest": 2473,
      "dev": 2474,
      "ofteng": 2475,
      "ruis": 2476,
      "gagfew": 2477,
      "ettl": 2478,
      "gsch": 2479,
      "during": 2480,
      "lifeg": 2481,
      "eightg": 2482,
      "lam": 2483,
      "ively": 2484,
      "track": 2485,
      "adem": 2486,
      "father": 2487,
      "2004": 2488,
      "greceiv": 2489,
      "element": 2490,
      "ane": 2491,
      "lak": 2492,
      "polic": 2493,
      "gbetweeng": 2494,
      "broad": 2495,
      "possibl": 2496,
      "international": 2497,
      "gnam": 2498,
      "gkn": 2499,
      "idd": 2500,
      "invest": 2501,
      "inggt": 2502,
      "wif": 2503,
      "eghim": 2504,
      "intogtheg": 2505,
      "gwilliam": 2506,
      "sec": 2507,
      "gappoint": 2508,
      "launch": 2509,
      "insp": 2510,
      "gli": 2511,
      "aterial": 2512,
      "school": 2513,
      "hasgbeeng": 2514,
      "prec": 2515,
      "gapproach": 2516,
      "ists": 2517,
      "galonggwith": 2518,
      "onc": 2519,
      "188": 2520,
      "number": 2521,
      "orsg": 2522,
      "ters": 2523,
      "express": 2524,
      "pointg": 2525,
      "egofgs": 2526,
      "rup": 2527,
      "pred": 2528,
      "gpeopl": 2529,
      "alleng": 2530,
      "occup": 2531,
      "gthegteam": 2532,
      "glater": 2533,
      "nomin": 2534,
      "bus": 2535,
      "alth": 2536,
      "gduring": 2537,
      "ergtog": 2538,
      "most": 2539,
      "gwhilegtheg": 2540,
      "edgtheir": 2541,
      "ecess": 2542,
      "borng": 2543,
      "ez": 2544,
      "bc": 2545,
      "vot": 2546,
      "gshort": 2547,
      "ocial": 2548,
      "gcam": 2549,
      "gtakeg": 2550,
      "neverg": 2551,
      "atedgwith": 2552,
      "gappl": 2553,
      "gyears": 2554,
      "variousg": 2555,
      "nes": 2556,
      "ral": 2557,
      "etwork": 2558,
      "shouldg": 2559,
      "gmov": 2560,
      "gtheghigh": 2561,
      "veg": 2562,
      "gfeetg": 2563,
      "gsog": 2564,
      "bat": 2565,
      "ipp": 2566,
      "ersgtog": 2567,
      "itu": 2568,
      "gcor": 2569,
      "comment": 2570,
      "wid": 2571,
      "gattend": 2572,
      "colon": 2573,
      "edgitsg": 2574,
      "elli": 2575,
      "wrot": 2576,
      "sign": 2577,
      "gacross": 2578,
      "egwhog": 2579,
      "embl": 2580,
      "attack": 2581,
      "ben": 2582,
      "nar": 2583,
      "greleas": 2584,
      "reserv": 2585,
      "experienc": 2586,
      "commerc": 2587,
      "ially": 2588,
      "gbo": 2589,
      "gabl": 2590,
      "ygwasg": 2591,
      "gsuchgasg": 2592,
      "aging": 2593,
      "gnear": 2594,
      "hegwasg": 2595,
      "egmad": 2596,
      "gpre": 2597,
      "gach": 2598,
      "gju": 2599,
      "nextg": 2600,
      "ning": 2601,
      "priv": 2602,
      "operation": 2603,
      "ongthegs": 2604,
      "cross": 2605,
      "creat": 2606,
      "edgat": 2607,
      "eld": 2608,
      "garea": 2609,
      "gold": 2610,
      "eghigh": 2611,
      "gtravel": 2612,
      "gjohng": 2613,
      "period": 2614,
      "importantg": 2615,
      "egwork": 2616,
      "clus": 2617,
      "septemberg": 2618,
      "staff": 2619,
      "gamerica": 2620,
      "ually": 2621,
      "gfirstg": 2622,
      "gandgthegs": 2623,
      "rowng": 2624,
      "need": 2625,
      "elg": 2626,
      "individ": 2627,
      "gloc": 2628,
      "mill": 2629,
      "gofgs": 2630,
      "emon": 2631,
      "calledg": 2632,
      "gthegbatt": 2633,
      "ody": 2634,
      "oseg": 2635,
      "piec": 2636,
      "mitt": 2637,
      "god": 2638,
      "inform": 2639,
      "itself": 2640,
      "glead": 2641,
      "gwho": 2642,
      "omet": 2643,
      "rung": 2644,
      "ggo": 2645,
      "ka": 2646,
      "gafric": 2647,
      "writteng": 2648,
      "fi": 2649,
      "beforegtheg": 2650,
      "opt": 2651,
      "bol": 2652,
      "franc": 2653,
      "gmm": 2654,
      "final": 2655,
      "lag": 2656,
      "gother": 2657,
      "ament": 2658,
      "ropicalg": 2659,
      "problem": 2660,
      "eang": 2661,
      "cel": 2662,
      "itz": 2663,
      "kingg": 2664,
      "constructiong": 2665,
      "get": 2666,
      "ald": 2667,
      "gprov": 2668,
      "gshegwasg": 2669,
      "gthegship": 2670,
      "2000": 2671,
      "particip": 2672,
      "wing": 2673,
      "2015": 2674,
      "gari": 2675,
      "crew": 2676,
      "austral": 2677,
      "gtelevisiong": 2678,
      "edgofg": 2679,
      "2003": 2680,
      "parent": 2681,
      "meet": 2682,
      "g6": 2683,
      "ba": 2684,
      "makeg": 2685,
      "irt": 2686,
      "bra": 2687,
      "phys": 2688,
      "ring": 2689,
      "plat": 2690,
      "exic": 2691,
      "fail": 2692,
      "gamesg": 2693,
      "meng": 2694,
      "street": 2695,
      "overgtheg": 2696,
      "aveg": 2697,
      "combin": 2698,
      "gdevelop": 2699,
      "respond": 2700,
      "amag": 2701,
      "gdirect": 2702,
      "ergingtheg": 2703,
      "iness": 2704,
      "object": 2705,
      "ere": 2706,
      "edgfromgtheg": 2707,
      "gandging": 2708,
      "original": 2709,
      "begs": 2710,
      "egofghisg": 2711,
      "ales": 2712,
      "enryg": 2713,
      "ergfor": 2714,
      "2g": 2715,
      "royal": 2716,
      "gingwhich": 2717,
      "may": 2718,
      "gdist": 2719,
      "ictg": 2720,
      "inggit": 2721,
      "ganginter": 2722,
      "etermin": 2723,
      "political": 2724,
      "iction": 2725,
      "max": 2726,
      "commong": 2727,
      "nag": 2728,
      "olar": 2729,
      "gpark": 2730,
      "ginto": 2731,
      "gaccept": 2732,
      "gcang": 2733,
      "state": 2734,
      "bs": 2735,
      "ream": 2736,
      "bell": 2737,
      "gtimes": 2738,
      "leastg": 2739,
      "cle": 2740,
      "deg": 2741,
      "craft": 2742,
      "bon": 2743,
      "cir": 2744,
      "edgforgtheg": 2745,
      "ignificantg": 2746,
      "ferenc": 2747,
      "gaut": 2748,
      "gpoint": 2749,
      "gpartic": 2750,
      "egas": 2751,
      "full": 2752,
      "stead": 2753,
      "version": 2754,
      "gtor": 2755,
      "gperform": 2756,
      "van": 2757,
      "gwhatg": 2758,
      "gcons": 2759,
      "egthegt": 2760,
      "mag": 2761,
      "weg": 2762,
      "yr": 2763,
      "urng": 2764,
      "french": 2765,
      "gareag": 2766,
      "gthegnew": 2767,
      "stall": 2768,
      "want": 2769,
      "ology": 2770,
      "useum": 2771,
      "sgto": 2772,
      "distr": 2773,
      "director": 2774,
      "ongtog": 2775,
      "edgan": 2776,
      "gsay": 2777,
      "egasg": 2778,
      "emerg": 2779,
      "gthegfollowingg": 2780,
      "gsu": 2781,
      "littleg": 2782,
      "enth": 2783,
      "ghous": 2784,
      "someg": 2785,
      "gadvanc": 2786,
      "ationgof": 2787,
      "good": 2788,
      "itud": 2789,
      "generallyg": 2790,
      "egby": 2791,
      "afterg": 2792,
      "gteng": 2793,
      "periodg": 2794,
      "firm": 2795,
      "gsing": 2796,
      "edgbygag": 2797,
      "riverg": 2798,
      "influenc": 2799,
      "gisgag": 2800,
      "kin": 2801,
      "visit": 2802,
      "depart": 2803,
      "lu": 2804,
      "egmin": 2805,
      "ginghisg": 2806,
      "gmark": 2807,
      "leadg": 2808,
      "novel": 2809,
      "lab": 2810,
      "inggthem": 2811,
      "ological": 2812,
      "commission": 2813,
      "gcount": 2814,
      "routeg": 2815,
      "gsix": 2816,
      "oon": 2817,
      "galli": 2818,
      "gabov": 2819,
      "esgareg": 2820,
      "whit": 2821,
      "player": 2822,
      "bank": 2823,
      "duringg": 2824,
      "sgfirstg": 2825,
      "inga": 2826,
      "sgwouldg": 2827,
      "immediat": 2828,
      "gthroughgtheg": 2829,
      "ospit": 2830,
      "gbatt": 2831,
      "186": 2832,
      "regard": 2833,
      "gend": 2834,
      "heldg": 2835,
      "putg": 2836,
      "gonlyg": 2837,
      "protect": 2838,
      "inggup": 2839,
      "gingaddition": 2840,
      "largestg": 2841,
      "oil": 2842,
      "gcaus": 2843,
      "ationgandg": 2844,
      "children": 2845,
      "ologyg": 2846,
      "reveal": 2847,
      "uresg": 2848,
      "gmed": 2849,
      "whereg": 2850,
      "gachiev": 2851,
      "gthegalbum": 2852,
      "sglater": 2853,
      "universityg": 2854,
      "gadminist": 2855,
      "gthegre": 2856,
      "ror": 2857,
      "box": 2858,
      "gres": 2859,
      "gcare": 2860,
      "33": 2861,
      "general": 2862,
      "severalg": 2863,
      "gagsmall": 2864,
      "risg": 2865,
      "playerg": 2866,
      "gtogre": 2867,
      "gtimesg": 2868,
      "gtell": 2869,
      "mot": 2870,
      "stra": 2871,
      "mentgofg": 2872,
      "occas": 2873,
      "interest": 2874,
      "brit": 2875,
      "edgthegt": 2876,
      "lost": 2877,
      "few": 2878,
      "gdav": 2879,
      "oong": 2880,
      "gandgthatg": 2881,
      "gyear": 2882,
      "difficult": 2883,
      "agwasg": 2884,
      "gthegnextg": 2885,
      "aken": 2886,
      "beat": 2887,
      "2001": 2888,
      "alog": 2889,
      "ale": 2890,
      "irth": 2891,
      "sgbyg": 2892,
      "mission": 2893,
      "small": 2894,
      "moregthang": 2895,
      "find": 2896,
      "islandg": 2897,
      "gpass": 2898,
      "gne": 2899,
      "gfur": 2900,
      "governor": 2901,
      "duegtog": 2902,
      "beginn": 2903,
      "glik": 2904,
      "sent": 2905,
      "gtradition": 2906,
      "connect": 2907,
      "gwrot": 2908,
      "gme": 2909,
      "minut": 2910,
      "izedg": 2911,
      "ides": 2912,
      "gterm": 2913,
      "camp": 2914,
      "gbill": 2915,
      "ts": 2916,
      "ky": 2917,
      "viron": 2918,
      "sgofgs": 2919,
      "contribut": 2920,
      "committe": 2921,
      "nin": 2922,
      "urchas": 2923,
      "edgwithgtheg": 2924,
      "sgt": 2925,
      "ery": 2926,
      "78": 2927,
      "ghistoryg": 2928,
      "ians": 2929,
      "win": 2930,
      "glaterg": 2931,
      "hip": 2932,
      "phas": 2933,
      "oppos": 2934,
      "gappearedg": 2935,
      "gawayg": 2936,
      "board": 2937,
      "readyg": 2938,
      "ij": 2939,
      "pret": 2940,
      "estim": 2941,
      "largeg": 2942,
      "49": 2943,
      "grand": 2944,
      "abit": 2945,
      "gaugust": 2946,
      "ifth": 2947,
      "cert": 2948,
      "gcontinu": 2949,
      "artg": 2950,
      "several": 2951,
      "gminut": 2952,
      "egwe": 2953,
      "ildg": 2954,
      "ghadgbeeng": 2955,
      "reeg": 2956,
      "gbutgtheg": 2957,
      "pil": 2958,
      "ergwasg": 2959,
      "divid": 2960,
      "gmean": 2961,
      "isc": 2962,
      "water": 2963,
      "gtogthegs": 2964,
      "76": 2965,
      "country": 2966,
      "hill": 2967,
      "receivedg": 2968,
      "g8": 2969,
      "paint": 2970,
      "englandg": 2971,
      "when": 2972,
      "ino": 2973,
      "scen": 2974,
      "36": 2975,
      "incegtheg": 2976,
      "ghegalsog": 2977,
      "yon": 2978,
      "mix": 2979,
      "omang": 2980,
      "gearlyg": 2981,
      "seriesg": 2982,
      "gwasgag": 2983,
      "gbeforeg": 2984,
      "itgwas": 2985,
      "2002": 2986,
      "burg": 2987,
      "stop": 2988,
      "ices": 2989,
      "ention": 2990,
      "versiong": 2991,
      "mat": 2992,
      "esgof": 2993,
      "egthem": 2994,
      "ages": 2995,
      "wouldgbeg": 2996,
      "wo": 2997,
      "mos": 2998,
      "block": 2999,
      "ently": 3000,
      "mach": 3001,
      "castg": 3002,
      "gapprox": 3003,
      "heav": 3004,
      "collect": 3005,
      "ggre": 3006,
      "namedg": 3007,
      "ula": 3008,
      "ve": 3009,
      "gmoreg": 3010,
      "nightg": 3011,
      "subsequ": 3012,
      "gagsh": 3013,
      "goal": 3014,
      "egmon": 3015,
      "ggover": 3016,
      "jamesg": 3017,
      "goffic": 3018,
      "william": 3019,
      "gsystem": 3020,
      "stren": 3021,
      "edgthem": 3022,
      "ganti": 3023,
      "ential": 3024,
      "inggwasg": 3025,
      "olymp": 3026,
      "ygofgtheg": 3027,
      "olk": 3028,
      "edgingag": 3029,
      "enough": 3030,
      "antryg": 3031,
      "gtoog": 3032,
      "edgatgtheg": 3033,
      "gdiv": 3034,
      "characterg": 3035,
      "goff": 3036,
      "38": 3037,
      "europeang": 3038,
      "drop": 3039,
      "imum": 3040,
      "gmod": 3041,
      "gasgang": 3042,
      "enem": 3043,
      "crip": 3044,
      "sgatg": 3045,
      "gdescrib": 3046,
      "inggin": 3047,
      "ardsg": 3048,
      "prob": 3049,
      "ise": 3050,
      "inggitg": 3051,
      "gtheregwereg": 3052,
      "built": 3053,
      "gjam": 3054,
      "ghaveg": 3055,
      "aceg": 3056,
      "ocument": 3057,
      "ordin": 3058,
      "gandgk": 3059,
      "selv": 3060,
      "flow": 3061,
      "aps": 3062,
      "ify": 3063,
      "intens": 3064,
      "nyg": 3065,
      "edgintog": 3066,
      "gog": 3067,
      "gpow": 3068,
      "ats": 3069,
      "chem": 3070,
      "london": 3071,
      "lad": 3072,
      "gwind": 3073,
      "ership": 3074,
      "galex": 3075,
      "conduct": 3076,
      "bet": 3077,
      "possib": 3078,
      "between": 3079,
      "ideo": 3080,
      "37": 3081,
      "inggatg": 3082,
      "gdesign": 3083,
      "gaudi": 3084,
      "driv": 3085,
      "bour": 3086,
      "becomeg": 3087,
      "ocrat": 3088,
      "grant": 3089,
      "blu": 3090,
      "rontg": 3091,
      "icat": 3092,
      "knowngasg": 3093,
      "gargu": 3094,
      "gacadem": 3095,
      "ivegs": 3096,
      "regular": 3097,
      "mus": 3098,
      "ghurrican": 3099,
      "che": 3100,
      "lyric": 3101,
      "ronic": 3102,
      "lessg": 3103,
      "prison": 3104,
      "erousg": 3105,
      "chos": 3106,
      "escap": 3107,
      "ropicalgstorm": 3108,
      "gandgisg": 3109,
      "ghegw": 3110,
      "garmy": 3111,
      "gtown": 3112,
      "ries": 3113,
      "zz": 3114,
      "letter": 3115,
      "inghisg": 3116,
      "gandgp": 3117,
      "deep": 3118,
      "paul": 3119,
      "many": 3120,
      "getg": 3121,
      "gthink": 3122,
      "mc": 3123,
      "operationg": 3124,
      "individual": 3125,
      "electric": 3126,
      "originalg": 3127,
      "ghegf": 3128,
      "gablegtog": 3129,
      "agon": 3130,
      "divisiong": 3131,
      "set": 3132,
      "profession": 3133,
      "division": 3134,
      "48": 3135,
      "election": 3136,
      "sgwhich": 3137,
      "ile": 3138,
      "galmostg": 3139,
      "rum": 3140,
      "ertg": 3141,
      "giveng": 3142,
      "glo": 3143,
      "relationship": 3144,
      "gseasong": 3145,
      "condition": 3146,
      "gappearanc": 3147,
      "gnation": 3148,
      "sgwer": 3149,
      "phot": 3150,
      "gavail": 3151,
      "ichi": 3152,
      "bit": 3153,
      "brok": 3154,
      "sghadg": 3155,
      "gstat": 3156,
      "aj": 3157,
      "poor": 3158,
      "gthought": 3159,
      "olv": 3160,
      "woodg": 3161,
      "algandg": 3162,
      "gwasgreleas": 3163,
      "familyg": 3164,
      "gnum": 3165,
      "gtheat": 3166,
      "gthegfrench": 3167,
      "gjohn": 3168,
      "gwhom": 3169,
      "legs": 3170,
      "midd": 3171,
      "ranc": 3172,
      "sgtogtheg": 3173,
      "alesg": 3174,
      "egdur": 3175,
      "sginclud": 3176,
      "uary": 3177,
      "arilyg": 3178,
      "edgitg": 3179,
      "gem": 3180,
      "gwhichgisg": 3181,
      "gath": 3182,
      "gmc": 3183,
      "erb": 3184,
      "area": 3185,
      "studio": 3186,
      "my": 3187,
      "learn": 3188,
      "ergh": 3189,
      "gpa": 3190,
      "presentg": 3191,
      "eag": 3192,
      "endgofg": 3193,
      "iseg": 3194,
      "egcouldg": 3195,
      "gjanuaryg": 3196,
      "utt": 3197,
      "gleg": 3198,
      "hall": 3199,
      "300": 3200,
      "gthisgwasg": 3201,
      "key": 3202,
      "concern": 3203,
      "deng": 3204,
      "rab": 3205,
      "langu": 3206,
      "sgor": 3207,
      "commandg": 3208,
      "coast": 3209,
      "aleg": 3210,
      "32": 3211,
      "gthree": 3212,
      "fa": 3213,
      "challeng": 3214,
      "openg": 3215,
      "inesg": 3216,
      "gagainstgtheg": 3217,
      "inch": 3218,
      "positiveg": 3219,
      "pap": 3220,
      "etimesg": 3221,
      "oor": 3222,
      "ishop": 3223,
      "action": 3224,
      "republic": 3225,
      "gwest": 3226,
      "featur": 3227,
      "ych": 3228,
      "legis": 3229,
      "orgofgtheg": 3230,
      "civil": 3231,
      "hop": 3232,
      "top": 3233,
      "gjo": 3234,
      "gtakeng": 3235,
      "president": 3236,
      "gno": 3237,
      "39": 3238,
      "vest": 3239,
      "energ": 3240,
      "gawardg": 3241,
      "roundg": 3242,
      "production": 3243,
      "g7": 3244,
      "being": 3245,
      "ieldg": 3246,
      "alli": 3247,
      "gthegsameg": 3248,
      "gstar": 3249,
      "atedgingtheg": 3250,
      "ehic": 3251,
      "ghum": 3252,
      "mart": 3253,
      "sgwas": 3254,
      "gandgj": 3255,
      "ationgfor": 3256,
      "antas": 3257,
      "pool": 3258,
      "ordergtog": 3259,
      "gincludinggtheg": 3260,
      "ras": 3261,
      "ki": 3262,
      "gtom": 3263,
      "dut": 3264,
      "gagaing": 3265,
      "spir": 3266,
      "given": 3267,
      "gsg": 3268,
      "garegs": 3269,
      "itygofgtheg": 3270,
      "gseptemberg": 3271,
      "era": 3272,
      "cafter": 3273,
      "fish": 3274,
      "olic": 3275,
      "chap": 3276,
      "stong": 3277,
      "plant": 3278,
      "gwhengtheg": 3279,
      "valu": 3280,
      "odi": 3281,
      "44": 3282,
      "gandgthegc": 3283,
      "65": 3284,
      "rav": 3285,
      "gassign": 3286,
      "aldg": 3287,
      "gperc": 3288,
      "previouslyg": 3289,
      "iograph": 3290,
      "inglyg": 3291,
      "embersgofgtheg": 3292,
      "stitution": 3293,
      "rob": 3294,
      "ersgwereg": 3295,
      "gagjg1": 3296,
      "egcall": 3297,
      "eel": 3298,
      "joy": 3299,
      "partyg": 3300,
      "career": 3301,
      "gdeb": 3302,
      "edgoutg": 3303,
      "adium": 3304,
      "edgthrough": 3305,
      "explain": 3306,
      "lip": 3307,
      "whileg": 3308,
      "mur": 3309,
      "ample": 3310,
      "gatgag": 3311,
      "paigng": 3312,
      "ghasgbeeng": 3313,
      "lack": 3314,
      "lan": 3315,
      "ift": 3316,
      "common": 3317,
      "ging199": 3318,
      "stream": 3319,
      "gjuneg": 3320,
      "gthomasg": 3321,
      "esh": 3322,
      "structur": 3323,
      "egagain": 3324,
      "cit": 3325,
      "ginf": 3326,
      "grun": 3327,
      "amilyg": 3328,
      "generalg": 3329,
      "rison": 3330,
      "gpop": 3331,
      "gvict": 3332,
      "gthreat": 3333,
      "entertain": 3334,
      "gday": 3335,
      "furtherg": 3336,
      "ging19": 3337,
      "ggeorg": 3338,
      "47": 3339,
      "gwhichg": 3340,
      "sgfromgtheg": 3341,
      "pitch": 3342,
      "process": 3343,
      "gterrit": 3344,
      "gthoseg": 3345,
      "fore": 3346,
      "fic": 3347,
      "investigat": 3348,
      "withgag": 3349,
      "shap": 3350,
      "55": 3351,
      "egdis": 3352,
      "cangbeg": 3353,
      "virgin": 3354,
      "esgag": 3355,
      "gasgags": 3356,
      "council": 3357,
      "bomb": 3358,
      "liveg": 3359,
      "esgnotg": 3360,
      "nameg": 3361,
      "ggiv": 3362,
      "fight": 3363,
      "inggtheir": 3364,
      "oldi": 3365,
      "gjulyg": 3366,
      "gacqu": 3367,
      "rovers": 3368,
      "sect": 3369,
      "fortg": 3370,
      "ero": 3371,
      "coach": 3372,
      "iesgofg": 3373,
      "initiallyg": 3374,
      "ille": 3375,
      "pleg": 3376,
      "gstart": 3377,
      "goldg": 3378,
      "others": 3379,
      "spap": 3380,
      "unitedgkingdom": 3381,
      "gcycl": 3382,
      "lostg": 3383,
      "anim": 3384,
      "strument": 3385,
      "edgasgtheg": 3386,
      "inggon": 3387,
      "deal": 3388,
      "emporaryg": 3389,
      "sell": 3390,
      "chicag": 3391,
      "cali": 3392,
      "variet": 3393,
      "maintain": 3394,
      "amin": 3395,
      "grandg": 3396,
      "omeng": 3397,
      "gev": 3398,
      "oub": 3399,
      "gwhoghadg": 3400,
      "46": 3401,
      "encyg": 3402,
      "upport": 3403,
      "gandgtheng": 3404,
      "parli": 3405,
      "gcouldg": 3406,
      "militaryg": 3407,
      "agh": 3408,
      "eltg": 3409,
      "g9": 3410,
      "revol": 3411,
      "environ": 3412,
      "cat": 3413,
      "embergofgtheg": 3414,
      "gunder": 3415,
      "returnedgtog": 3416,
      "ggun": 3417,
      "bul": 3418,
      "gheghadg": 3419,
      "gonegofgtheg": 3420,
      "gpos": 3421,
      "ebr": 3422,
      "gdon": 3423,
      "gangun": 3424,
      "egtogbeg": 3425,
      "chines": 3426,
      "oman": 3427,
      "similar": 3428,
      "grout": 3429,
      "garrang": 3430,
      "gareasg": 3431,
      "osaur": 3432,
      "egtwog": 3433,
      "economic": 3434,
      "happ": 3435,
      "itect": 3436,
      "gadapt": 3437,
      "gdif": 3438,
      "fornia": 3439,
      "ban": 3440,
      "ferred": 3441,
      "sam": 3442,
      "guitar": 3443,
      "gworldgwarg": 3444,
      "egmov": 3445,
      "gthegfour": 3446,
      "ocus": 3447,
      "gjack": 3448,
      "g198": 3449,
      "ersgofgtheg": 3450,
      "gforgex": 3451,
      "gmonth": 3452,
      "egy": 3453,
      "ovietg": 3454,
      "acyg": 3455,
      "gvi": 3456,
      "ationging": 3457,
      "gany": 3458,
      "ily": 3459,
      "edgherg": 3460,
      "hor": 3461,
      "link": 3462,
      "galtern": 3463,
      "rior": 3464,
      "gapproximatelyg": 3465,
      "gmg": 3466,
      "gaboutgtheg": 3467,
      "strateg": 3468,
      "eut": 3469,
      "streetg": 3470,
      "ni": 3471,
      "gavo": 3472,
      "washingt": 3473,
      "gscor": 3474,
      "egatg": 3475,
      "gandgsh": 3476,
      "eptember": 3477,
      "upgtog": 3478,
      "quadron": 3479,
      "gworld": 3480,
      "ences": 3481,
      "boy": 3482,
      "egwhich": 3483,
      "quadrong": 3484,
      "gnovemberg": 3485,
      "complex": 3486,
      "lingg": 3487,
      "peciallyg": 3488,
      "ourtg": 3489,
      "gdidg": 3490,
      "load": 3491,
      "sgforgtheg": 3492,
      "gtreat": 3493,
      "ecret": 3494,
      "judg": 3495,
      "powerg": 3496,
      "77": 3497,
      "determin": 3498,
      "lantic": 3499,
      "gvideog": 3500,
      "gwhit": 3501,
      "sgsuchgasg": 3502,
      "nic": 3503,
      "domin": 3504,
      "34": 3505,
      "gperson": 3506,
      "gblack": 3507,
      "gbre": 3508,
      "step": 3509,
      "rayg": 3510,
      "ability": 3511,
      "gsecond": 3512,
      "sameg": 3513,
      "ndg": 3514,
      "gdecemberg": 3515,
      "gindi": 3516,
      "otion": 3517,
      "gmay": 3518,
      "ulf": 3519,
      "lou": 3520,
      "defeat": 3521,
      "ghead": 3522,
      "egthan": 3523,
      "lock": 3524,
      "usuallyg": 3525,
      "letg": 3526,
      "onic": 3527,
      "watch": 3528,
      "glarg": 3529,
      "sgon": 3530,
      "begangtog": 3531,
      "ournal": 3532,
      "oric": 3533,
      "ili": 3534,
      "ously": 3535,
      "japanes": 3536,
      "edgd": 3537,
      "andid": 3538,
      "beth": 3539,
      "gthatgtheyg": 3540,
      "gteach": 3541,
      "gthegbandg": 3542,
      "nel": 3543,
      "respectively": 3544,
      "athergthang": 3545,
      "quicklyg": 3546,
      "gtwent": 3547,
      "gri": 3548,
      "gbook": 3549,
      "gtogether": 3550,
      "gtransport": 3551,
      "gtoghisg": 3552,
      "gconc": 3553,
      "ganother": 3554,
      "inggongtheg": 3555,
      "particular": 3556,
      "uniong": 3557,
      "conserv": 3558,
      "defe": 3559,
      "anish": 3560,
      "impress": 3561,
      "ya": 3562,
      "ase": 3563,
      "ilt": 3564,
      "gbestg": 3565,
      "campaign": 3566,
      "football": 3567,
      "saw": 3568,
      "ead": 3569,
      "release": 3570,
      "urfac": 3571,
      "financ": 3572,
      "sgwork": 3573,
      "moderng": 3574,
      "never": 3575,
      "urg": 3576,
      "ersgofg": 3577,
      "last": 3578,
      "robertg": 3579,
      "clas": 3580,
      "sgasg": 3581,
      "team": 3582,
      "commend": 3583,
      "ruc": 3584,
      "jew": 3585,
      "rossg": 3586,
      "wind": 3587,
      "imper": 3588,
      "exper": 3589,
      "cient": 3590,
      "inggd": 3591,
      "wasgag": 3592,
      "gleav": 3593,
      "continuedgtog": 3594,
      "gstud": 3595,
      "ractg": 3596,
      "edgout": 3597,
      "goctoberg": 3598,
      "gsaid": 3599,
      "pict": 3600,
      "purchas": 3601,
      "algh": 3602,
      "direc": 3603,
      "egdec": 3604,
      "thirdg": 3605,
      "edul": 3606,
      "kh": 3607,
      "mel": 3608,
      "jos": 3609,
      "iii": 3610,
      "ghavingg": 3611,
      "gwestg": 3612,
      "gclub": 3613,
      "extens": 3614,
      "gcap": 3615,
      "atedging": 3616,
      "verg": 3617,
      "length": 3618,
      "pay": 3619,
      "extrem": 3620,
      "egthrough": 3621,
      "limit": 3622,
      "distribut": 3623,
      "romang": 3624,
      "79": 3625,
      "gmuch": 3626,
      "mil": 3627,
      "fri": 3628,
      "ategtheg": 3629,
      "runn": 3630,
      "ogs": 3631,
      "opin": 3632,
      "egofgag": 3633,
      "gwhogwasg": 3634,
      "lar": 3635,
      "ationgwasg": 3636,
      "eed": 3637,
      "aughter": 3638,
      "feel": 3639,
      "gill": 3640,
      "urs": 3641,
      "roat": 3642,
      "industr": 3643,
      "gandgre": 3644,
      "ecur": 3645,
      "clim": 3646,
      "defend": 3647,
      "forgag": 3648,
      "lem": 3649,
      "appear": 3650,
      "october": 3651,
      "eriesgofg": 3652,
      "hard": 3653,
      "egwor": 3654,
      "eight": 3655,
      "ceed": 3656,
      "elp": 3657,
      "gaircraftg": 3658,
      "isterg": 3659,
      "house": 3660,
      "onyg": 3661,
      "people": 3662,
      "64": 3663,
      "resident": 3664,
      "g2010": 3665,
      "fam": 3666,
      "big": 3667,
      "lowerg": 3668,
      "gsw": 3669,
      "overall": 3670,
      "ani": 3671,
      "orpor": 3672,
      "network": 3673,
      "gzeal": 3674,
      "eeng": 3675,
      "rok": 3676,
      "imentg": 3677,
      "cost": 3678,
      "octor": 3679,
      "sal": 3680,
      "gincluding": 3681,
      "icesg": 3682,
      "egspec": 3683,
      "party": 3684,
      "gthegcent": 3685,
      "ghand": 3686,
      "yardg": 3687,
      "185": 3688,
      "styleg": 3689,
      "mac": 3690,
      "ganal": 3691,
      "gremain": 3692,
      "propert": 3693,
      "liter": 3694,
      "adv": 3695,
      "mas": 3696,
      "pir": 3697,
      "restg": 3698,
      "sl": 3699,
      "gram": 3700,
      "audi": 3701,
      "gagsingleg": 3702,
      "aval": 3703,
      "ilomet": 3704,
      "gprom": 3705,
      "bandg": 3706,
      "brief": 3707,
      "algofgtheg": 3708,
      "icket": 3709,
      "resultg": 3710,
      "university": 3711,
      "gartic": 3712,
      "allow": 3713,
      "ments": 3714,
      "arn": 3715,
      "ofga": 3716,
      "conclud": 3717,
      "hour": 3718,
      "every": 3719,
      "ait": 3720,
      "ongseptemberg": 3721,
      "designg": 3722,
      "ginch": 3723,
      "leagueg": 3724,
      "atedgtheg": 3725,
      "gstre": 3726,
      "family": 3727,
      "gaccess": 3728,
      "ustri": 3729,
      "gonly": 3730,
      "ives": 3731,
      "distinc": 3732,
      "gitgis": 3733,
      "himself": 3734,
      "ghol": 3735,
      "ofgtheir": 3736,
      "early": 3737,
      "keyg": 3738,
      "gdel": 3739,
      "gfebruaryg": 3740,
      "onom": 3741,
      "gdem": 3742,
      "ifiedg": 3743,
      "euten": 3744,
      "icsg": 3745,
      "entgtog": 3746,
      "provinc": 3747,
      "fund": 3748,
      "hu": 3749,
      "exual": 3750,
      "heavyg": 3751,
      "mass": 3752,
      "fig": 3753,
      "battal": 3754,
      "eremon": 3755,
      "gnow": 3756,
      "wasgtheg": 3757,
      "ida": 3758,
      "bal": 3759,
      "mast": 3760,
      "grock": 3761,
      "education": 3762,
      "cript": 3763,
      "developmentg": 3764,
      "gaway": 3765,
      "41": 3766,
      "oriang": 3767,
      "cthegc": 3768,
      "egmor": 3769,
      "eption": 3770,
      "evidenc": 3771,
      "gprog": 3772,
      "uggl": 3773,
      "inggherg": 3774,
      "42": 3775,
      "gcop": 3776,
      "ourt": 3777,
      "gtheygareg": 3778,
      "gbeingg": 3779,
      "iongwasg": 3780,
      "restgofgtheg": 3781,
      "femal": 3782,
      "your": 3783,
      "norm": 3784,
      "commercial": 3785,
      "egal": 3786,
      "alging": 3787,
      "ements": 3788,
      "worth": 3789,
      "ots": 3790,
      "projectg": 3791,
      "prepar": 3792,
      "author": 3793,
      "andon": 3794,
      "redit": 3795,
      "select": 3796,
      "ummerg": 3797,
      "1999": 3798,
      "greach": 3799,
      "ierg": 3800,
      "seem": 3801,
      "suffer": 3802,
      "occasion": 3803,
      "shotg": 3804,
      "ggl": 3805,
      "ginit": 3806,
      "gstudi": 3807,
      "notgbeg": 3808,
      "galway": 3809,
      "usp": 3810,
      "ggovern": 3811,
      "onegofg": 3812,
      "ggam": 3813,
      "gaghigh": 3814,
      "unic": 3815,
      "useg": 3816,
      "tiongofg": 3817,
      "emi": 3818,
      "gattract": 3819,
      "galreadyg": 3820,
      "edd": 3821,
      "gout": 3822,
      "used": 3823,
      "gmaj": 3824,
      "gusg": 3825,
      "oundtrack": 3826,
      "gbu": 3827,
      "cthegb": 3828,
      "color": 3829,
      "gwasgtheg": 3830,
      "partgofg": 3831,
      "sghaveg": 3832,
      "mother": 3833,
      "court": 3834,
      "print": 3835,
      "gaction": 3836,
      "fill": 3837,
      "hl": 3838,
      "inggang": 3839,
      "despit": 3840,
      "seeng": 3841,
      "sgthat": 3842,
      "g2011": 3843,
      "agre": 3844,
      "gtowards": 3845,
      "resh": 3846,
      "cb": 3847,
      "ootg": 3848,
      "lew": 3849,
      "gbecam": 3850,
      "prevent": 3851,
      "egforgtheg": 3852,
      "cameg": 3853,
      "egwill": 3854,
      "wards": 3855,
      "ingga": 3856,
      "mean": 3857,
      "ars": 3858,
      "teeng": 3859,
      "gartist": 3860,
      "ata": 3861,
      "expand": 3862,
      "gandgitsg": 3863,
      "onegof": 3864,
      "maygbeg": 3865,
      "goverg": 3866,
      "ghour": 3867,
      "95": 3868,
      "gjustg": 3869,
      "renc": 3870,
      "gartg": 3871,
      "riticalg": 3872,
      "cd": 3873,
      "scre": 3874,
      "flor": 3875,
      "local": 3876,
      "gaffect": 3877,
      "ression": 3878,
      "gtax": 3879,
      "gfre": 3880,
      "ingu": 3881,
      "edition": 3882,
      "gsal": 3883,
      "igg": 3884,
      "1950": 3885,
      "g2009": 3886,
      "ranch": 3887,
      "intern": 3888,
      "ole": 3889,
      "sideg": 3890,
      "winn": 3891,
      "greek": 3892,
      "othersg": 3893,
      "sgdeath": 3894,
      "prior": 3895,
      "gradu": 3896,
      "gthatgyear": 3897,
      "featuredg": 3898,
      "chor": 3899,
      "g15": 3900,
      "inggitsg": 3901,
      "gdo": 3902,
      "speciesg": 3903,
      "entgofgtheg": 3904,
      "gforgexample": 3905,
      "ander": 3906,
      "any": 3907,
      "indiang": 3908,
      "43": 3909,
      "term": 3910,
      "japaneseg": 3911,
      "gthegco": 3912,
      "battleg": 3913,
      "lay": 3914,
      "obt": 3915,
      "flect": 3916,
      "gtermin": 3917,
      "atedgbyg": 3918,
      "gintog": 3919,
      "greview": 3920,
      "clear": 3921,
      "ggroup": 3922,
      "responsibl": 3923,
      "prem": 3924,
      "ionging": 3925,
      "gsinceg": 3926,
      "greturn": 3927,
      "egtook": 3928,
      "eless": 3929,
      "cad": 3930,
      "cath": 3931,
      "oft": 3932,
      "favor": 3933,
      "majorg": 3934,
      "esgong": 3935,
      "gsid": 3936,
      "annel": 3937,
      "confl": 3938,
      "400": 3939,
      "idn": 3940,
      "gchamp": 3941,
      "180": 3942,
      "promin": 3943,
      "exampl": 3944,
      "gthegtop": 3945,
      "gtraff": 3946,
      "lev": 3947,
      "usegofg": 3948,
      "grang": 3949,
      "mont": 3950,
      "havegs": 3951,
      "former": 3952,
      "gaveg": 3953,
      "olf": 3954,
      "ake": 3955,
      "ymbol": 3956,
      "stock": 3957,
      "galonggtheg": 3958,
      "towng": 3959,
      "wentg": 3960,
      "arri": 3961,
      "egherg": 3962,
      "egwithgtheg": 3963,
      "aboutg": 3964,
      "fire": 3965,
      "gcontain": 3966,
      "gcoll": 3967,
      "havegag": 3968,
      "ignificant": 3969,
      "g30": 3970,
      "opport": 3971,
      "gchild": 3972,
      "behind": 3973,
      "gandgn": 3974,
      "chair": 3975,
      "inggthat": 3976,
      "cham": 3977,
      "orderg": 3978,
      "tiongofgtheg": 3979,
      "union": 3980,
      "ilities": 3981,
      "building": 3982,
      "gadam": 3983,
      "gatgthegtime": 3984,
      "frank": 3985,
      "voic": 3986,
      "uper": 3987,
      "broughtg": 3988,
      "uly": 3989,
      "onegs": 3990,
      "1998": 3991,
      "gland": 3992,
      "shar": 3993,
      "controvers": 3994,
      "chanc": 3995,
      "thgcenturyg": 3996,
      "ada": 3997,
      "gwater": 3998,
      "universitygofg": 3999,
      "londong": 4000,
      "gvari": 4001,
      "ucces": 4002,
      "speak": 4003,
      "discuss": 4004,
      "held": 4005,
      "ealth": 4006,
      "fourth": 4007,
      "gandgotherg": 4008,
      "ison": 4009,
      "gcapt": 4010,
      "gatgleastg": 4011,
      "dark": 4012,
      "gapprov": 4013,
      "thur": 4014,
      "ids": 4015,
      "gthusg": 4016,
      "gthegcount": 4017,
      "ories": 4018,
      "rush": 4019,
      "nerg": 4020,
      "gthegcol": 4021,
      "charlesg": 4022,
      "defin": 4023,
      "een": 4024,
      "gseveralg": 4025,
      "gind": 4026,
      "davidg": 4027,
      "sinceg": 4028,
      "esgand": 4029,
      "perc": 4030,
      "portray": 4031,
      "egbel": 4032,
      "ja": 4033,
      "ressg": 4034,
      "rdg": 4035,
      "glou": 4036,
      "entgofg": 4037,
      "organis": 4038,
      "gten": 4039,
      "editiong": 4040,
      "gawards": 4041,
      "leship": 4042,
      "referred": 4043,
      "gprot": 4044,
      "otel": 4045,
      "ara": 4046,
      "glov": 4047,
      "gtheglastg": 4048,
      "egk": 4049,
      "green": 4050,
      "burn": 4051,
      "gftg": 4052,
      "gaprilg19": 4053,
      "egn": 4054,
      "gbecom": 4055,
      "ration": 4056,
      "embers": 4057,
      "gclass": 4058,
      "egbetweeng": 4059,
      "gcharacter": 4060,
      "ottg": 4061,
      "etnam": 4062,
      "66": 4063,
      "centuryg": 4064,
      "g2008": 4065,
      "ustom": 4066,
      "gmatch": 4067,
      "gtheregwasg": 4068,
      "persong": 4069,
      "eitherg": 4070,
      "gthatgwasg": 4071,
      "eful": 4072,
      "gcur": 4073,
      "unction": 4074,
      "1997": 4075,
      "encegofg": 4076,
      "outgofgtheg": 4077,
      "iousg": 4078,
      "actiong": 4079,
      "edgtwog": 4080,
      "eghas": 4081,
      "vention": 4082,
      "becamegtheg": 4083,
      "grich": 4084,
      "gsimilar": 4085,
      "gwer": 4086,
      "math": 4087,
      "say": 4088,
      "gcla": 4089,
      "born": 4090,
      "ama": 4091,
      "adel": 4092,
      "indic": 4093,
      "g20": 4094,
      "hotg": 4095,
      "cthegm": 4096,
      "includedg": 4097,
      "sghim": 4098,
      "countyg": 4099,
      "egagk": 4100,
      "gaustraliang": 4101,
      "gamerican": 4102,
      "gmen": 4103,
      "edgand": 4104,
      "interestg": 4105,
      "egtheng": 4106,
      "ofgall": 4107,
      "inggthegt": 4108,
      "deb": 4109,
      "egp": 4110,
      "fut": 4111,
      "bound": 4112,
      "gtru": 4113,
      "inggags": 4114,
      "ersging": 4115,
      "osg": 4116,
      "cell": 4117,
      "recover": 4118,
      "feder": 4119,
      "unablegtog": 4120,
      "ospital": 4121,
      "createg": 4122,
      "pacific": 4123,
      "etherg": 4124,
      "cend": 4125,
      "udd": 4126,
      "antag": 4127,
      "job": 4128,
      "gtheregisg": 4129,
      "gactor": 4130,
      "ggar": 4131,
      "resist": 4132,
      "gtotalgofg": 4133,
      "gnewgyork": 4134,
      "garchitect": 4135,
      "forghisg": 4136,
      "ationgwith": 4137,
      "shegwasg": 4138,
      "ociety": 4139,
      "gbuild": 4140,
      "gbri": 4141,
      "struck": 4142,
      "radiog": 4143,
      "gknown": 4144,
      "85": 4145,
      "gwell": 4146,
      "iles": 4147,
      "eventg": 4148,
      "giousg": 4149,
      "va": 4150,
      "rast": 4151,
      "1930": 4152,
      "gspe": 4153,
      "ropicalgcycl": 4154,
      "question": 4155,
      "gtheggam": 4156,
      "onesg": 4157,
      "greatestg": 4158,
      "egtak": 4159,
      "gdown": 4160,
      "atag": 4161,
      "emin": 4162,
      "gasgitg": 4163,
      "gaccount": 4164,
      "encour": 4165,
      "returng": 4166,
      "canc": 4167,
      "spect": 4168,
      "liber": 4169,
      "australiang": 4170,
      "gonc": 4171,
      "aver": 4172,
      "garoundgtheg": 4173,
      "gwant": 4174,
      "statedgthatg": 4175,
      "playedg": 4176,
      "cher": 4177,
      "1g": 4178,
      "reason": 4179,
      "gthangtheg": 4180,
      "depend": 4181,
      "gcr": 4182,
      "lines": 4183,
      "estroy": 4184,
      "queeng": 4185,
      "gproductiong": 4186,
      "contract": 4187,
      "hun": 4188,
      "egis": 4189,
      "jac": 4190,
      "g2012": 4191,
      "encounter": 4192,
      "egcang": 4193,
      "3g": 4194,
      "mexic": 4195,
      "europ": 4196,
      "ylvan": 4197,
      "fly": 4198,
      "pick": 4199,
      "atelyg": 4200,
      "log": 4201,
      "gofghisg": 4202,
      "neigh": 4203,
      "lationship": 4204,
      "ganth": 4205,
      "engineer": 4206,
      "egday": 4207,
      "race": 4208,
      "gpublic": 4209,
      "irm": 4210,
      "fromg": 4211,
      "oupl": 4212,
      "ressiong": 4213,
      "decad": 4214,
      "county": 4215,
      "install": 4216,
      "sea": 4217,
      "edlyg": 4218,
      "gung": 4219,
      "aniel": 4220,
      "gbutgwasg": 4221,
      "gash": 4222,
      "rupt": 4223,
      "meas": 4224,
      "egat": 4225,
      "rod": 4226,
      "gmichael": 4227,
      "soldg": 4228,
      "minor": 4229,
      "role": 4230,
      "onghisg": 4231,
      "gmphg": 4232,
      "enu": 4233,
      "gthick": 4234,
      "gactiong": 4235,
      "gpet": 4236,
      "video": 4237,
      "cha": 4238,
      "student": 4239,
      "versiongofgtheg": 4240,
      "egar": 4241,
      "gsk": 4242,
      "oriesg": 4243,
      "struggl": 4244,
      "hors": 4245,
      "exhib": 4246,
      "amentg": 4247,
      "knowledg": 4248,
      "raing": 4249,
      "gport": 4250,
      "ategs": 4251,
      "sa": 4252,
      "atoryg": 4253,
      "g2007": 4254,
      "gsinc": 4255,
      "bodyg": 4256,
      "vehic": 4257,
      "lap": 4258,
      "gcarol": 4259,
      "egitg": 4260,
      "gjust": 4261,
      "stadium": 4262,
      "she": 4263,
      "incorpor": 4264,
      "egtrans": 4265,
      "side": 4266,
      "likely": 4267,
      "characters": 4268,
      "render": 4269,
      "ethod": 4270,
      "strict": 4271,
      "yph": 4272,
      "classg": 4273,
      "isedg": 4274,
      "gresult": 4275,
      "inggof": 4276,
      "species": 4277,
      "encesg": 4278,
      "childreng": 4279,
      "ically": 4280,
      "glow": 4281,
      "ser": 4282,
      "tging": 4283,
      "iateg": 4284,
      "1990": 4285,
      "gtheirgf": 4286,
      "insteadg": 4287,
      "michael": 4288,
      "gyearsg": 4289,
      "gprovid": 4290,
      "edgthegsong": 4291,
      "gandgwas": 4292,
      "numb": 4293,
      "inguish": 4294,
      "powerful": 4295,
      "emperor": 4296,
      "tog": 4297,
      "waterg": 4298,
      "ringg": 4299,
      "necess": 4300,
      "uregofg": 4301,
      "heghadg": 4302,
      "latter": 4303,
      "gandgtog": 4304,
      "ondg": 4305,
      "epart": 4306,
      "ll": 4307,
      "egagj": 4308,
      "gpolit": 4309,
      "gut": 4310,
      "anger": 4311,
      "countryg": 4312,
      "environment": 4313,
      "gadopt": 4314,
      "gbegang": 4315,
      "gthegstorm": 4316,
      "gattemptgtog": 4317,
      "gfeat": 4318,
      "gsign": 4319,
      "pli": 4320,
      "pring": 4321,
      "gadvis": 4322,
      "risong": 4323,
      "egwrit": 4324,
      "performanceg": 4325,
      "enjoy": 4326,
      "ini": 4327,
      "losgangel": 4328,
      "acu": 4329,
      "decision": 4330,
      "sor": 4331,
      "72": 4332,
      "appoint": 4333,
      "itleg": 4334,
      "1970": 4335,
      "ica": 4336,
      "ailyg": 4337,
      "rand": 4338,
      "gadmir": 4339,
      "fair": 4340,
      "risk": 4341,
      "agesg": 4342,
      "utiong": 4343,
      "gthemselv": 4344,
      "1stg": 4345,
      "emorial": 4346,
      "gwinn": 4347,
      "merg": 4348,
      "99": 4349,
      "egongtheg": 4350,
      "host": 4351,
      "libr": 4352,
      "strik": 4353,
      "restor": 4354,
      "edgback": 4355,
      "owl": 4356,
      "itl": 4357,
      "ea": 4358,
      "casg": 4359,
      "gduegtog": 4360,
      "gkill": 4361,
      "ufact": 4362,
      "appe": 4363,
      "shoot": 4364,
      "iff": 4365,
      "1980": 4366,
      "geveng": 4367,
      "lands": 4368,
      "model": 4369,
      "egandgtheg": 4370,
      "stan": 4371,
      "regiment": 4372,
      "name": 4373,
      "g00": 4374,
      "erag": 4375,
      "gtotal": 4376,
      "gtex": 4377,
      "da": 4378,
      "usedgfor": 4379,
      "decla": 4380,
      "ati": 4381,
      "metg": 4382,
      "edgatgnumberg": 4383,
      "areag": 4384,
      "past": 4385,
      "gforg": 4386,
      "unity": 4387,
      "gthegsamegtim": 4388,
      "glaw": 4389,
      "injur": 4390,
      "beach": 4391,
      "word": 4392,
      "gpublish": 4393,
      "lieuten": 4394,
      "derg": 4395,
      "localg": 4396,
      "ghear": 4397,
      "gwil": 4398,
      "1995": 4399,
      "sm": 4400,
      "iza": 4401,
      "stay": 4402,
      "ancegofg": 4403,
      "edguntil": 4404,
      "gmanag": 4405,
      "ggen": 4406,
      "estival": 4407,
      "mis": 4408,
      "2016": 4409,
      "egserv": 4410,
      "perf": 4411,
      "primaryg": 4412,
      "actor": 4413,
      "ersong": 4414,
      "master": 4415,
      "tv": 4416,
      "tak": 4417,
      "steam": 4418,
      "league": 4419,
      "issiong": 4420,
      "sgcang": 4421,
      "eli": 4422,
      "ynth": 4423,
      "egmoreg": 4424,
      "gcas": 4425,
      "comed": 4426,
      "ategofg": 4427,
      "listg": 4428,
      "market": 4429,
      "oz": 4430,
      "oleg": 4431,
      "aster": 4432,
      "gaglargeg": 4433,
      "gcity": 4434,
      "68": 4435,
      "gartill": 4436,
      "74": 4437,
      "gthatgitg": 4438,
      "hi": 4439,
      "gperi": 4440,
      "immediatelyg": 4441,
      "grac": 4442,
      "cut": 4443,
      "gfiveg": 4444,
      "gfac": 4445,
      "sgisg": 4446,
      "1996": 4447,
      "ellig": 4448,
      "gavegtheg": 4449,
      "product": 4450,
      "habit": 4451,
      "gasgofg": 4452,
      "gtemper": 4453,
      "1994": 4454,
      "gisgtheg": 4455,
      "gthegsub": 4456,
      "avail": 4457,
      "bag": 4458,
      "gtal": 4459,
      "egwheng": 4460,
      "debut": 4461,
      "christiang": 4462,
      "maximum": 4463,
      "600": 4464,
      "ably": 4465,
      "pursu": 4466,
      "150": 4467,
      "appro": 4468,
      "while": 4469,
      "giveg": 4470,
      "gali": 4471,
      "var": 4472,
      "glist": 4473,
      "front": 4474,
      "gactg": 4475,
      "finalg": 4476,
      "singleg": 4477,
      "lightlyg": 4478,
      "gtry": 4479,
      "uls": 4480,
      "bridge": 4481,
      "bird": 4482,
      "ongandg": 4483,
      "gthegk": 4484,
      "best": 4485,
      "ideag": 4486,
      "ilitary": 4487,
      "canada": 4488,
      "egthisg": 4489,
      "digit": 4490,
      "ghelp": 4491,
      "progress": 4492,
      "ocratic": 4493,
      "railwayg": 4494,
      "gtel": 4495,
      "historyg": 4496,
      "ances": 4497,
      "urviv": 4498,
      "egypt": 4499,
      "billboardg": 4500,
      "electiong": 4501,
      "gallgtheg": 4502,
      "gconsist": 4503,
      "surviv": 4504,
      "explor": 4505,
      "g2013": 4506,
      "ouredg": 4507,
      "largelyg": 4508,
      "town": 4509,
      "astic": 4510,
      "gla": 4511,
      "ogandg": 4512,
      "imet": 4513,
      "1940": 4514,
      "gfound": 4515,
      "aliz": 4516,
      "gandgthegb": 4517,
      "cult": 4518,
      "decidedgtog": 4519,
      "gthegj": 4520,
      "gwheregtheg": 4521,
      "cott": 4522,
      "confirm": 4523,
      "g12": 4524,
      "edgor": 4525,
      "gfollowinggtheg": 4526,
      "ingham": 4527,
      "withoutg": 4528,
      "egfin": 4529,
      "ski": 4530,
      "acy": 4531,
      "summ": 4532,
      "gjamesg": 4533,
      "greeng": 4534,
      "egsp": 4535,
      "gthisgisg": 4536,
      "gnon": 4537,
      "evil": 4538,
      "gaglong": 4539,
      "sil": 4540,
      "roman": 4541,
      "strength": 4542,
      "hy": 4543,
      "gthous": 4544,
      "bodi": 4545,
      "gthegcityg": 4546,
      "gbritish": 4547,
      "gclaim": 4548,
      "compar": 4549,
      "gunivers": 4550,
      "detail": 4551,
      "cours": 4552,
      "personal": 4553,
      "earlier": 4554,
      "err": 4555,
      "regul": 4556,
      "gtookgplac": 4557,
      "gafrica": 4558,
      "sgwithgtheg": 4559,
      "identifi": 4560,
      "uffer": 4561,
      "ginchesg": 4562,
      "inggre": 4563,
      "gsupport": 4564,
      "egr": 4565,
      "experiment": 4566,
      "flood": 4567,
      "poem": 4568,
      "current": 4569,
      "gtraffic": 4570,
      "edom": 4571,
      "edgoff": 4572,
      "esgin": 4573,
      "gincre": 4574,
      "glob": 4575,
      "declin": 4576,
      "volum": 4577,
      "corpor": 4578,
      "stoneg": 4579,
      "gcreat": 4580,
      "creen": 4581,
      "recogniz": 4582,
      "awk": 4583,
      "egg": 4584,
      "ggames": 4585,
      "brother": 4586,
      "gcommand": 4587,
      "aughterg": 4588,
      "cest": 4589,
      "gofgwhich": 4590,
      "gtouch": 4591,
      "galleg": 4592,
      "occurredg": 4593,
      "gleagu": 4594,
      "legislat": 4595,
      "pel": 4596,
      "numerousg": 4597,
      "gqu": 4598,
      "earl": 4599,
      "fullyg": 4600,
      "gtheregareg": 4601,
      "ubb": 4602,
      "felt": 4603,
      "udg": 4604,
      "the": 4605,
      "locatedg": 4606,
      "twog": 4607,
      "ultimatelyg": 4608,
      "batg": 4609,
      "entireg": 4610,
      "gpost": 4611,
      "edgafter": 4612,
      "aries": 4613,
      "69": 4614,
      "russiang": 4615,
      "plain": 4616,
      "egon": 4617,
      "edgover": 4618,
      "aircraftg": 4619,
      "gathlet": 4620,
      "gaircraft": 4621,
      "gtank": 4622,
      "gasga": 4623,
      "wil": 4624,
      "mit": 4625,
      "entir": 4626,
      "enns": 4627,
      "invas": 4628,
      "independentg": 4629,
      "gbur": 4630,
      "ging18": 4631,
      "betweengtheg": 4632,
      "center": 4633,
      "gwouldgbeg": 4634,
      "middleg": 4635,
      "ivegm": 4636,
      "gopen": 4637,
      "nick": 4638,
      "inspiredg": 4639,
      "gbecameg": 4640,
      "gamb": 4641,
      "egor": 4642,
      "shortg": 4643,
      "1960": 4644,
      "73": 4645,
      "1942": 4646,
      "industri": 4647,
      "2ndg": 4648,
      "standardg": 4649,
      "cafterg": 4650,
      "gchart": 4651,
      "pin": 4652,
      "gasgan": 4653,
      "beaut": 4654,
      "newspap": 4655,
      "protest": 4656,
      "special": 4657,
      "polish": 4658,
      "graph": 4659,
      "privateg": 4660,
      "inforc": 4661,
      "equip": 4662,
      "chan": 4663,
      "gdr": 4664,
      "exchang": 4665,
      "gchrist": 4666,
      "g0": 4667,
      "ension": 4668,
      "agl": 4669,
      "greport": 4670,
      "gmetresg": 4671,
      "gacrossgtheg": 4672,
      "arget": 4673,
      "diam": 4674,
      "upperg": 4675,
      "wick": 4676,
      "gthird": 4677,
      "gassum": 4678,
      "71": 4679,
      "yellow": 4680,
      "wher": 4681,
      "aughtg": 4682,
      "1944": 4683,
      "oud": 4684,
      "erself": 4685,
      "gtrail": 4686,
      "wong": 4687,
      "esgto": 4688,
      "gcast": 4689,
      "nuc": 4690,
      "geu": 4691,
      "enz": 4692,
      "york": 4693,
      "havegbeen": 4694,
      "oppon": 4695,
      "gcali": 4696,
      "ighter": 4697,
      "super": 4698,
      "egthegh": 4699,
      "thgandg": 4700,
      "aintg": 4701,
      "subsequentlyg": 4702,
      "ennsylvan": 4703,
      "expos": 4704,
      "development": 4705,
      "gprim": 4706,
      "gphil": 4707,
      "gaccordinggtogtheg": 4708,
      "egwasgag": 4709,
      "required": 4710,
      "knowngasgtheg": 4711,
      "contin": 4712,
      "chesterg": 4713,
      "pack": 4714,
      "defens": 4715,
      "gur": 4716,
      "vess": 4717,
      "shor": 4718,
      "lower": 4719,
      "egdevelop": 4720,
      "second": 4721,
      "loy": 4722,
      "ification": 4723,
      "egweek": 4724,
      "ication": 4725,
      "gmmg": 4726,
      "coastg": 4727,
      "gha": 4728,
      "gbus": 4729,
      "amily": 4730,
      "gthroughoutgtheg": 4731,
      "gwasgalsog": 4732,
      "holdg": 4733,
      "different": 4734,
      "creek": 4735,
      "gasgtheyg": 4736,
      "iai": 4737,
      "earlierg": 4738,
      "edit": 4739,
      "gmal": 4740,
      "gmac": 4741,
      "atis": 4742,
      "britain": 4743,
      "expans": 4744,
      "ewh": 4745,
      "frequ": 4746,
      "walk": 4747,
      "ency": 4748,
      "gnav": 4749,
      "gaverag": 4750,
      "sghad": 4751,
      "photograph": 4752,
      "sentg": 4753,
      "retg": 4754,
      "umn": 4755,
      "egcount": 4756,
      "gincreas": 4757,
      "obtain": 4758,
      "grespectively": 4759,
      "convert": 4760,
      "gval": 4761,
      "gprof": 4762,
      "consideredg": 4763,
      "gga": 4764,
      "sav": 4765,
      "ucceed": 4766,
      "ators": 4767,
      "more": 4768,
      "duegto": 4769,
      "ogen": 4770,
      "inessg": 4771,
      "eparateg": 4772,
      "ploy": 4773,
      "italiang": 4774,
      "ocean": 4775,
      "forcedgtog": 4776,
      "institut": 4777,
      "purpos": 4778,
      "farm": 4779,
      "newg": 4780,
      "pecial": 4781,
      "uter": 4782,
      "gmajor": 4783,
      "apon": 4784,
      "ships": 4785,
      "gbeliev": 4786,
      "uct": 4787,
      "india": 4788,
      "hood": 4789,
      "ira": 4790,
      "gvis": 4791,
      "ificationg": 4792,
      "inggforgtheg": 4793,
      "raz": 4794,
      "bishop": 4795,
      "gaffair": 4796,
      "forest": 4797,
      "princip": 4798,
      "gkilomet": 4799,
      "fell": 4800,
      "populationg": 4801,
      "rescu": 4802,
      "bear": 4803,
      "gtalk": 4804,
      "ghop": 4805,
      "vocal": 4806,
      "ottom": 4807,
      "rg": 4808,
      "plyg": 4809,
      "gstand": 4810,
      "eldg": 4811,
      "place": 4812,
      "gings": 4813,
      "mostgofgtheg": 4814,
      "calledgtheg": 4815,
      "gabandon": 4816,
      "victoryg": 4817,
      "grav": 4818,
      "dram": 4819,
      "och": 4820,
      "1992": 4821,
      "followingg": 4822,
      "gil": 4823,
      "structure": 4824,
      "1920": 4825,
      "gareas": 4826,
      "ites": 4827,
      "begtheg": 4828,
      "newgzeal": 4829,
      "branch": 4830,
      "gwall": 4831,
      "queen": 4832,
      "vdg": 4833,
      "dar": 4834,
      "pu": 4835,
      "egthegw": 4836,
      "couldgbeg": 4837,
      "occupi": 4838,
      "captaing": 4839,
      "ersgingtheg": 4840,
      "brigad": 4841,
      "encourag": 4842,
      "antasyg": 4843,
      "mary": 4844,
      "gthegonlyg": 4845,
      "gunderg": 4846,
      "central": 4847,
      "went": 4848,
      "dead": 4849,
      "bob": 4850,
      "supportg": 4851,
      "58": 4852,
      "56": 4853,
      "gtheregar": 4854,
      "urtherg": 4855,
      "gsuggest": 4856,
      "gtheirgs": 4857,
      "egbecam": 4858,
      "impactg": 4859,
      "eghav": 4860,
      "raid": 4861,
      "sgbetweeng": 4862,
      "ami": 4863,
      "g17": 4864,
      "pleas": 4865,
      "iig": 4866,
      "cum": 4867,
      "hal": 4868,
      "peopleg": 4869,
      "gx": 4870,
      "iansg": 4871,
      "gposs": 4872,
      "battle": 4873,
      "gagjg2": 4874,
      "drew": 4875,
      "inggan": 4876,
      "strip": 4877,
      "contrast": 4878,
      "followinggtheg": 4879,
      "sgtogbeg": 4880,
      "egdef": 4881,
      "1991": 4882,
      "oment": 4883,
      "lic": 4884,
      "ualt": 4885,
      "courtg": 4886,
      "gdavidg": 4887,
      "nament": 4888,
      "path": 4889,
      "akeg": 4890,
      "request": 4891,
      "usingg": 4892,
      "porter": 4893,
      "mind": 4894,
      "gdespiteg": 4895,
      "aa": 4896,
      "onna": 4897,
      "oes": 4898,
      "gasgh": 4899,
      "demon": 4900,
      "behav": 4901,
      "ardi": 4902,
      "iusg": 4903,
      "noth": 4904,
      "gthegsystem": 4905,
      "ogwasg": 4906,
      "counter": 4907,
      "edgwithgag": 4908,
      "orm": 4909,
      "edgtogag": 4910,
      "ganalys": 4911,
      "1941": 4912,
      "wat": 4913,
      "material": 4914,
      "writtengbyg": 4915,
      "1993": 4916,
      "gcmg": 4917,
      "practic": 4918,
      "estimat": 4919,
      "gvol": 4920,
      "gcityg": 4921,
      "american": 4922,
      "formation": 4923,
      "gthegband": 4924,
      "estic": 4925,
      "preserv": 4926,
      "gespeciallyg": 4927,
      "allel": 4928,
      "gwithoutg": 4929,
      "egfilm": 4930,
      "itygandg": 4931,
      "joinedgtheg": 4932,
      "azz": 4933,
      "engin": 4934,
      "istsg": 4935,
      "ruit": 4936,
      "calthough": 4937,
      "wordg": 4938,
      "marin": 4939,
      "gjers": 4940,
      "gasgagresult": 4941,
      "stageg": 4942,
      "aylor": 4943,
      "gfirst": 4944,
      "gtestg": 4945,
      "sgat": 4946,
      "gepisod": 4947,
      "concert": 4948,
      "g16": 4949,
      "eghist": 4950,
      "outherng": 4951,
      "interview": 4952,
      "mann": 4953,
      "would": 4954,
      "instrument": 4955,
      "esgtogtheg": 4956,
      "bad": 4957,
      "kar": 4958,
      "recentg": 4959,
      "ghill": 4960,
      "shot": 4961,
      "gthatgheg": 4962,
      "esgthat": 4963,
      "gknow": 4964,
      "parliament": 4965,
      "findg": 4966,
      "gissu": 4967,
      "gchampionship": 4968,
      "itiongofg": 4969,
      "gwood": 4970,
      "antsg": 4971,
      "gparticularlyg": 4972,
      "frontg": 4973,
      "ging198": 4974,
      "1945": 4975,
      "olution": 4976,
      "gthegbook": 4977,
      "utch": 4978,
      "behindg": 4979,
      "plang": 4980,
      "currentg": 4981,
      "gben": 4982,
      "gtheirgowng": 4983,
      "journal": 4984,
      "asgag": 4985,
      "channel": 4986,
      "ivegt": 4987,
      "grepresent": 4988,
      "mosph": 4989,
      "retain": 4990,
      "ictiong": 4991,
      "bey": 4992,
      "ostlyg": 4993,
      "ivesg": 4994,
      "gthroughout": 4995,
      "homeg": 4996,
      "ofgherg": 4997,
      "gthegbestg": 4998,
      "gdidgnotg": 4999,
      "multi": 5000,
      "gcontrol": 5001,
      "nearlyg": 5002,
      "orgs": 5003,
      "cy": 5004,
      "izabeth": 5005,
      "sectiong": 5006,
      "ense": 5007,
      "gbegan": 5008,
      "timeg": 5009,
      "egmonth": 5010,
      "inggthegf": 5011,
      "ofgthisg": 5012,
      "probablyg": 5013,
      "rainfall": 5014,
      "rical": 5015,
      "inger": 5016,
      "gappeal": 5017,
      "ritical": 5018,
      "bleg": 5019,
      "gthegmusic": 5020,
      "gpaul": 5021,
      "accord": 5022,
      "eer": 5023,
      "gseveral": 5024,
      "initial": 5025,
      "sgup": 5026,
      "emat": 5027,
      "avor": 5028,
      "gaglgsg": 5029,
      "lood": 5030,
      "gsaw": 5031,
      "engtog": 5032,
      "whiteg": 5033,
      "recordingg": 5034,
      "gandgtwog": 5035,
      "ilitiesg": 5036,
      "tgwasg": 5037,
      "gcomment": 5038,
      "gorgan": 5039,
      "1943": 5040,
      "includeg": 5041,
      "afet": 5042,
      "forcesg": 5043,
      "negot": 5044,
      "orchest": 5045,
      "gthegfirstgtim": 5046,
      "withg": 5047,
      "fus": 5048,
      "gagyear": 5049,
      "gbackgroundg": 5050,
      "gconn": 5051,
      "ghall": 5052,
      "atureg": 5053,
      "gandgang": 5054,
      "gsmith": 5055,
      "elimin": 5056,
      "resul": 5057,
      "gconsider": 5058,
      "eriousg": 5059,
      "cart": 5060,
      "98": 5061,
      "han": 5062,
      "goper": 5063,
      "associ": 5064,
      "adelph": 5065,
      "ee": 5066,
      "egtri": 5067,
      "jud": 5068,
      "ony": 5069,
      "abilityg": 5070,
      "hang": 5071,
      "danc": 5072,
      "gsmall": 5073,
      "gtowng": 5074,
      "96": 5075,
      "compared": 5076,
      "gwal": 5077,
      "imateg": 5078,
      "igr": 5079,
      "villag": 5080,
      "unnel": 5081,
      "gtv": 5082,
      "activ": 5083,
      "cruis": 5084,
      "platform": 5085,
      "peac": 5086,
      "dens": 5087,
      "spac": 5088,
      "suit": 5089,
      "greli": 5090,
      "gtoward": 5091,
      "mention": 5092,
      "france": 5093,
      "isgalsog": 5094,
      "ghenryg": 5095,
      "gtakingg": 5096,
      "cutg": 5097,
      "whengtheg": 5098,
      "begin": 5099,
      "psych": 5100,
      "gpeak": 5101,
      "egcol": 5102,
      "gandgi": 5103,
      "egher": 5104,
      "repe": 5105,
      "gmostgofgtheg": 5106,
      "pressg": 5107,
      "completelyg": 5108,
      "shir": 5109,
      "gcre": 5110,
      "oo": 5111,
      "pros": 5112,
      "cot": 5113,
      "umang": 5114,
      "jer": 5115,
      "gtoldg": 5116,
      "orical": 5117,
      "distinguish": 5118,
      "imit": 5119,
      "ecutiveg": 5120,
      "rapid": 5121,
      "gthegepisod": 5122,
      "umentg": 5123,
      "ghegisg": 5124,
      "gaustraliag": 5125,
      "uggest": 5126,
      "gah": 5127,
      "enag": 5128,
      "gprogram": 5129,
      "deck": 5130,
      "gtogw": 5131,
      "steel": 5132,
      "reject": 5133,
      "egdescrib": 5134,
      "gthegmon": 5135,
      "apang": 5136,
      "vertis": 5137,
      "egit": 5138,
      "g2014": 5139,
      "hadgag": 5140,
      "etball": 5141,
      "greceptiong": 5142,
      "gandgthegf": 5143,
      "gasgthegs": 5144,
      "document": 5145,
      "doubl": 5146,
      "sgandgtheg": 5147,
      "among": 5148,
      "particularlyg": 5149,
      "iagandg": 5150,
      "gthroughoutg": 5151,
      "grew": 5152,
      "mic": 5153,
      "missiong": 5154,
      "gtend": 5155,
      "richardg": 5156,
      "kel": 5157,
      "akes": 5158,
      "eatg": 5159,
      "health": 5160,
      "convinc": 5161,
      "gtoday": 5162,
      "seveng": 5163,
      "gbro": 5164,
      "rin": 5165,
      "comic": 5166,
      "iful": 5167,
      "latterg": 5168,
      "compani": 5169,
      "bay": 5170,
      "idag": 5171,
      "ing19": 5172,
      "releasedgong": 5173,
      "gclos": 5174,
      "gattemptedgtog": 5175,
      "gstill": 5176,
      "ector": 5177,
      "scient": 5178,
      "g2006": 5179,
      "undg": 5180,
      "responsib": 5181,
      "gcir": 5182,
      "push": 5183,
      "burgh": 5184,
      "itness": 5185,
      "gcritics": 5186,
      "raft": 5187,
      "ervic": 5188,
      "mr": 5189,
      "olympic": 5190,
      "edgthisg": 5191,
      "gandgitg": 5192,
      "leetg": 5193,
      "geven": 5194,
      "eventh": 5195,
      "gandgwereg": 5196,
      "ginflu": 5197,
      "gexc": 5198,
      "panish": 5199,
      "settl": 5200,
      "etsg": 5201,
      "sga": 5202,
      "base": 5203,
      "gtwelv": 5204,
      "gwheregh": 5205,
      "gdays": 5206,
      "gwashingt": 5207,
      "mightg": 5208,
      "saidg": 5209,
      "mentgofgtheg": 5210,
      "marsh": 5211,
      "also": 5212,
      "constitution": 5213,
      "glond": 5214,
      "rov": 5215,
      "gagjg3": 5216,
      "cw": 5217,
      "eigh": 5218,
      "ville": 5219,
      "simp": 5220,
      "egbas": 5221,
      "basedg": 5222,
      "deliver": 5223,
      "campaigng": 5224,
      "ault": 5225,
      "gtoghaveg": 5226,
      "eep": 5227,
      "executiveg": 5228,
      "din": 5229,
      "constant": 5230,
      "edgher": 5231,
      "ghon": 5232,
      "iongandg": 5233,
      "edgintogtheg": 5234,
      "gcompet": 5235,
      "egsub": 5236,
      "gprinc": 5237,
      "hind": 5238,
      "effectg": 5239,
      "yard": 5240,
      "agk": 5241,
      "galthoughgtheg": 5242,
      "nearbyg": 5243,
      "52": 5244,
      "confer": 5245,
      "bygag": 5246,
      "zon": 5247,
      "gpat": 5248,
      "cthegt": 5249,
      "peciesg": 5250,
      "gthreaten": 5251,
      "ablegfor": 5252,
      "servic": 5253,
      "glos": 5254,
      "gduringg": 5255,
      "59": 5256,
      "gmart": 5257,
      "irish": 5258,
      "gcal": 5259,
      "ridge": 5260,
      "interpret": 5261,
      "ius": 5262,
      "collabor": 5263,
      "edic": 5264,
      "illustr": 5265,
      "gtogmak": 5266,
      "gdet": 5267,
      "playersg": 5268,
      "becamegag": 5269,
      "loss": 5270,
      "incol": 5271,
      "gagsecondg": 5272,
      "fil": 5273,
      "positivegreview": 5274,
      "gmiss": 5275,
      "events": 5276,
      "egthatgtheg": 5277,
      "ountain": 5278,
      "mustg": 5279,
      "onym": 5280,
      "gandgst": 5281,
      "gett": 5282,
      "ensu": 5283,
      "anz": 5284,
      "mem": 5285,
      "evacu": 5286,
      "corn": 5287,
      "idea": 5288,
      "reform": 5289,
      "forgs": 5290,
      "thre": 5291,
      "ocusg": 5292,
      "gandgthegt": 5293,
      "officialg": 5294,
      "cool": 5295,
      "reallyg": 5296,
      "important": 5297,
      "gos": 5298,
      "ing18": 5299,
      "galexand": 5300,
      "iorg": 5301,
      "ops": 5302,
      "script": 5303,
      "hit": 5304,
      "800": 5305,
      "blood": 5306,
      "diseas": 5307,
      "recall": 5308,
      "ghistory": 5309,
      "54": 5310,
      "pp": 5311,
      "gandgtheir": 5312,
      "mouth": 5313,
      "sel": 5314,
      "gdiffer": 5315,
      "seek": 5316,
      "ofgang": 5317,
      "gcit": 5318,
      "what": 5319,
      "edwardg": 5320,
      "gdebut": 5321,
      "osoph": 5322,
      "ome": 5323,
      "ingapor": 5324,
      "guid": 5325,
      "policeg": 5326,
      "responsiblegfor": 5327,
      "interg": 5328,
      "revolution": 5329,
      "anth": 5330,
      "gkore": 5331,
      "gofgag": 5332,
      "gstateg": 5333,
      "elevisiong": 5334,
      "ariesg": 5335,
      "53": 5336,
      "perman": 5337,
      "directg": 5338,
      "brown": 5339,
      "meg": 5340,
      "playingg": 5341,
      "careerg": 5342,
      "ime": 5343,
      "raf": 5344,
      "gchurch": 5345,
      "history": 5346,
      "gmur": 5347,
      "again": 5348,
      "gjos": 5349,
      "cn": 5350,
      "celebr": 5351,
      "egco": 5352,
      "61": 5353,
      "invit": 5354,
      "meant": 5355,
      "sgcouldg": 5356,
      "nominatedg": 5357,
      "sgperg": 5358,
      "gthisgtime": 5359,
      "breed": 5360,
      "dy": 5361,
      "membersg": 5362,
      "population": 5363,
      "beyon": 5364,
      "gti": 5365,
      "gandgan": 5366,
      "linesg": 5367,
      "aust": 5368,
      "gfl": 5369,
      "51": 5370,
      "ingl": 5371,
      "gpress": 5372,
      "ulation": 5373,
      "quir": 5374,
      "egmostg": 5375,
      "vey": 5376,
      "relativelyg": 5377,
      "ergthang": 5378,
      "birth": 5379,
      "gtogf": 5380,
      "garmor": 5381,
      "gactiveg": 5382,
      "groupgofg": 5383,
      "gwin": 5384,
      "industry": 5385,
      "itiveg": 5386,
      "gandghasg": 5387,
      "premi": 5388,
      "passeng": 5389,
      "goinggtog": 5390,
      "67": 5391,
      "bury": 5392,
      "gplan": 5393,
      "adow": 5394,
      "edgduringgtheg": 5395,
      "entialg": 5396,
      "finallyg": 5397,
      "gmyg": 5398,
      "communityg": 5399,
      "62": 5400,
      "zant": 5401,
      "usical": 5402,
      "untilgtheg": 5403,
      "leadership": 5404,
      "gliv": 5405,
      "eastgofg": 5406,
      "sgofgag": 5407,
      "days": 5408,
      "emphas": 5409,
      "success": 5410,
      "inggisg": 5411,
      "gcover": 5412,
      "volunt": 5413,
      "sound": 5414,
      "chronic": 5415,
      "gway": 5416,
      "china": 5417,
      "gvir": 5418,
      "screen": 5419,
      "gdeath": 5420,
      "ginsteadg": 5421,
      "ingle": 5422,
      "gscen": 5423,
      "resign": 5424,
      "tyg": 5425,
      "directedgbyg": 5426,
      "geast": 5427,
      "virginia": 5428,
      "ginfantryg": 5429,
      "gthegbas": 5430,
      "pared": 5431,
      "ken": 5432,
      "gingthisg": 5433,
      "gandrew": 5434,
      "regiong": 5435,
      "igwasg": 5436,
      "groad": 5437,
      "slow": 5438,
      "oir": 5439,
      "egheg": 5440,
      "ropicalgdep": 5441,
      "internationalg": 5442,
      "love": 5443,
      "gwomen": 5444,
      "heim": 5445,
      "intogag": 5446,
      "gundergtheg": 5447,
      "gthegsup": 5448,
      "egbeliev": 5449,
      "categ": 5450,
      "contractg": 5451,
      "standg": 5452,
      "impact": 5453,
      "gmeng": 5454,
      "continent": 5455,
      "gagseriesgofg": 5456,
      "gaid": 5457,
      "someth": 5458,
      "grat": 5459,
      "gperg": 5460,
      "grobertg": 5461,
      "leadingg": 5462,
      "southerng": 5463,
      "soong": 5464,
      "bab": 5465,
      "gyoung": 5466,
      "gairgforc": 5467,
      "aly": 5468,
      "promis": 5469,
      "gwhichgwereg": 5470,
      "gpal": 5471,
      "museum": 5472,
      "gly": 5473,
      "1939": 5474,
      "ingghis": 5475,
      "stein": 5476,
      "noglong": 5477,
      "ington": 5478,
      "erm": 5479,
      "gsam": 5480,
      "63": 5481,
      "gattach": 5482,
      "century": 5483,
      "wongtheg": 5484,
      "display": 5485,
      "prev": 5486,
      "g11": 5487,
      "88": 5488,
      "isong": 5489,
      "egsong": 5490,
      "gafterghisg": 5491,
      "riesg": 5492,
      "doesgnotg": 5493,
      "youth": 5494,
      "gshegs": 5495,
      "victory": 5496,
      "havingg": 5497,
      "glevel": 5498,
      "vang": 5499,
      "iliz": 5500,
      "gfeatur": 5501,
      "navyg": 5502,
      "gagsub": 5503,
      "via": 5504,
      "sgwor": 5505,
      "batter": 5506,
      "gol": 5507,
      "gtelevision": 5508,
      "everyth": 5509,
      "cab": 5510,
      "wis": 5511,
      "rollingg": 5512,
      "otyp": 5513,
      "players": 5514,
      "lieutenantg": 5515,
      "prominentg": 5516,
      "empire": 5517,
      "dropp": 5518,
      "ingthegt": 5519,
      "next": 5520,
      "located": 5521,
      "foot": 5522,
      "gseptember": 5523,
      "entuck": 5524,
      "uniqu": 5525,
      "bowl": 5526,
      "commod": 5527,
      "egbecameg": 5528,
      "ging197": 5529,
      "withdraw": 5530,
      "oria": 5531,
      "entire": 5532,
      "leep": 5533,
      "cort": 5534,
      "wal": 5535,
      "gchang": 5536,
      "ingtong": 5537,
      "gbc": 5538,
      "gham": 5539,
      "liff": 5540,
      "northwest": 5541,
      "gamonggtheg": 5542,
      "ports": 5543,
      "officer": 5544,
      "ghalf": 5545,
      "childg": 5546,
      "gthegseriesg": 5547,
      "cycl": 5548,
      "hoodg": 5549,
      "gpur": 5550,
      "smith": 5551,
      "gthing": 5552,
      "laidg": 5553,
      "agisg": 5554,
      "educationg": 5555,
      "ygfor": 5556,
      "greaterg": 5557,
      "esgasg": 5558,
      "ountgofg": 5559,
      "gthus": 5560,
      "1989": 5561,
      "edghis": 5562,
      "gasgwellgas": 5563,
      "ging196": 5564,
      "cf": 5565,
      "gassociatedgwith": 5566,
      "agd": 5567,
      "gthegcity": 5568,
      "gaftergag": 5569,
      "gatgthegs": 5570,
      "possess": 5571,
      "contemporaryg": 5572,
      "gtakesg": 5573,
      "wealth": 5574,
      "gmeanwhile": 5575,
      "grouteg": 5576,
      "foreigng": 5577,
      "orgofg": 5578,
      "radio": 5579,
      "ogd": 5580,
      "movement": 5581,
      "concentr": 5582,
      "pell": 5583,
      "surround": 5584,
      "gfinish": 5585,
      "chel": 5586,
      "gthegcan": 5587,
      "gros": 5588,
      "gavoid": 5589,
      "worldgwar": 5590,
      "explos": 5591,
      "classic": 5592,
      "religiousg": 5593,
      "wa": 5594,
      "stopp": 5595,
      "egback": 5596,
      "gtogthegf": 5597,
      "criticiz": 5598,
      "entiong": 5599,
      "radition": 5600,
      "vell": 5601,
      "broth": 5602,
      "mort": 5603,
      "gworldgwargii": 5604,
      "boat": 5605,
      "gandgherg": 5606,
      "soldi": 5607,
      "awa": 5608,
      "ganginterview": 5609,
      "cod": 5610,
      "gwithghisg": 5611,
      "bruary": 5612,
      "startg": 5613,
      "scot": 5614,
      "directlyg": 5615,
      "gtitleg": 5616,
      "labor": 5617,
      "gadvent": 5618,
      "flag": 5619,
      "57": 5620,
      "basedgong": 5621,
      "profess": 5622,
      "gposition": 5623,
      "body": 5624,
      "enteredgtheg": 5625,
      "gbetween": 5626,
      "comeg": 5627,
      "undred": 5628,
      "gmer": 5629,
      "gsaidg": 5630,
      "gtheggroup": 5631,
      "ibleg": 5632,
      "examin": 5633,
      "rativeg": 5634,
      "gnumberg": 5635,
      "inggthatgtheg": 5636,
      "mechan": 5637,
      "bed": 5638,
      "receptiong": 5639,
      "standingg": 5640,
      "gfurtherg": 5641,
      "boundg": 5642,
      "officiallyg": 5643,
      "egteam": 5644,
      "gmot": 5645,
      "gofteng": 5646,
      "agong": 5647,
      "garthur": 5648,
      "growth": 5649,
      "riang": 5650,
      "gactuallyg": 5651,
      "masg": 5652,
      "becauseg": 5653,
      "gtheyghadg": 5654,
      "brook": 5655,
      "rust": 5656,
      "christian": 5657,
      "sgings": 5658,
      "ingtheir": 5659,
      "algin": 5660,
      "sgmostg": 5661,
      "oging": 5662,
      "humang": 5663,
      "cg": 5664,
      "gtechniqu": 5665,
      "criptiong": 5666,
      "urbang": 5667,
      "siz": 5668,
      "rend": 5669,
      "cduringgtheg": 5670,
      "stone": 5671,
      "inggher": 5672,
      "ious": 5673,
      "gflor": 5674,
      "gshortly": 5675,
      "gtwenty": 5676,
      "ergisg": 5677,
      "gsty": 5678,
      "itag": 5679,
      "postg": 5680,
      "borough": 5681,
      "usedging": 5682,
      "gbeforegtheg": 5683,
      "gaccordinggto": 5684,
      "women": 5685,
      "steph": 5686,
      "entertainmentg": 5687,
      "egturn": 5688,
      "gmass": 5689,
      "gru": 5690,
      "ena": 5691,
      "dieg": 5692,
      "gability": 5693,
      "gtherefor": 5694,
      "goutgofg": 5695,
      "gox": 5696,
      "gdog": 5697,
      "emotion": 5698,
      "office": 5699,
      "crimin": 5700,
      "edgaboutg": 5701,
      "gthegsecond": 5702,
      "releasedging": 5703,
      "gcolleg": 5704,
      "gseriesg": 5705,
      "gthegfourth": 5706,
      "alis": 5707,
      "gthreegs": 5708,
      "urround": 5709,
      "debutg": 5710,
      "didgnot": 5711,
      "starg": 5712,
      "referenc": 5713,
      "ationgtog": 5714,
      "achus": 5715,
      "fleet": 5716,
      "ghost": 5717,
      "gshouldg": 5718,
      "olish": 5719,
      "glb": 5720,
      "edgafterg": 5721,
      "edgbyghisg": 5722,
      "ghergs": 5723,
      "mountain": 5724,
      "gwat": 5725,
      "ade": 5726,
      "seeg": 5727,
      "matter": 5728,
      "gingg": 5729,
      "editor": 5730,
      "garegf": 5731,
      "northeast": 5732,
      "nineg": 5733,
      "ider": 5734,
      "inggasg": 5735,
      "unitg": 5736,
      "ichigang": 5737,
      "seng": 5738,
      "garegtheg": 5739,
      "etgofg": 5740,
      "gattribut": 5741,
      "gnever": 5742,
      "patch": 5743,
      "gbor": 5744,
      "ugh": 5745,
      "izen": 5746,
      "ewayg": 5747,
      "nik": 5748,
      "ersgfrom": 5749,
      "hitg": 5750,
      "gservic": 5751,
      "garrest": 5752,
      "sometimesg": 5753,
      "infantryg": 5754,
      "dream": 5755,
      "egwrot": 5756,
      "gcong": 5757,
      "estimated": 5758,
      "igm": 5759,
      "angandg": 5760,
      "iesgandg": 5761,
      "folk": 5762,
      "politicalg": 5763,
      "gwheregheg": 5764,
      "gjapan": 5765,
      "got": 5766,
      "atinggtheg": 5767,
      "rill": 5768,
      "manufact": 5769,
      "forces": 5770,
      "gtrib": 5771,
      "gcomplet": 5772,
      "ansgtog": 5773,
      "ligh": 5774,
      "patter": 5775,
      "entsg": 5776,
      "gdeg": 5777,
      "ghomeg": 5778,
      "states": 5779,
      "sgwill": 5780,
      "partner": 5781,
      "achusett": 5782,
      "lordg": 5783,
      "const": 5784,
      "business": 5785,
      "canadiang": 5786,
      "gandgheg": 5787,
      "cultur": 5788,
      "120": 5789,
      "egmod": 5790,
      "scap": 5791,
      "units": 5792,
      "studyg": 5793,
      "pag": 5794,
      "gthegmaing": 5795,
      "gprior": 5796,
      "gappearanceg": 5797,
      "ledgtheg": 5798,
      "rationg": 5799,
      "gcross": 5800,
      "who": 5801,
      "gshar": 5802,
      "weightg": 5803,
      "capital": 5804,
      "focus": 5805,
      "gcm": 5806,
      "gaim": 5807,
      "gsquar": 5808,
      "egsystem": 5809,
      "movedgtog": 5810,
      "describedgasg": 5811,
      "gfootball": 5812,
      "magazin": 5813,
      "caccord": 5814,
      "demonstr": 5815,
      "gtorped": 5816,
      "iber": 5817,
      "retch": 5818,
      "gbroad": 5819,
      "plot": 5820,
      "poet": 5821,
      "receivedgag": 5822,
      "gassociationg": 5823,
      "member": 5824,
      "isa": 5825,
      "gthegthirdg": 5826,
      "arygofg": 5827,
      "renam": 5828,
      "capturedg": 5829,
      "gupong": 5830,
      "washingtong": 5831,
      "estiv": 5832,
      "g14": 5833,
      "inum": 5834,
      "shire": 5835,
      "g13": 5836,
      "kick": 5837,
      "reachedg": 5838,
      "proceed": 5839,
      "sterg": 5840,
      "orient": 5841,
      "eghadgbeeng": 5842,
      "virt": 5843,
      "lord": 5844,
      "originally": 5845,
      "paidg": 5846,
      "kindg": 5847,
      "pull": 5848,
      "regimentg": 5849,
      "victim": 5850,
      "jim": 5851,
      "exclus": 5852,
      "suchgas": 5853,
      "duringgthegs": 5854,
      "ocietyg": 5855,
      "gandgal": 5856,
      "gtrip": 5857,
      "vessel": 5858,
      "placedg": 5859,
      "reck": 5860,
      "gulf": 5861,
      "plotg": 5862,
      "egwant": 5863,
      "varietygofg": 5864,
      "stage": 5865,
      "junc": 5866,
      "veyg": 5867,
      "california": 5868,
      "gtropicalgstorm": 5869,
      "guard": 5870,
      "egforc": 5871,
      "planet": 5872,
      "clark": 5873,
      "gthatgisg": 5874,
      "edgbetweeng": 5875,
      "spok": 5876,
      "intendedgtog": 5877,
      "stol": 5878,
      "ingwhich": 5879,
      "likegtheg": 5880,
      "philadelph": 5881,
      "unicip": 5882,
      "gnyg": 5883,
      "estimatedg": 5884,
      "iec": 5885,
      "rus": 5886,
      "veal": 5887,
      "gwhat": 5888,
      "gandgtheyg": 5889,
      "resourc": 5890,
      "urt": 5891,
      "empir": 5892,
      "ongaugustg": 5893,
      "gwhichgwas": 5894,
      "versiongofg": 5895,
      "gproblem": 5896,
      "gtask": 5897,
      "premier": 5898,
      "irl": 5899,
      "styl": 5900,
      "olid": 5901,
      "sgofghisg": 5902,
      "94": 5903,
      "sghavegbeeng": 5904,
      "performance": 5905,
      "gfurther": 5906,
      "ementgofg": 5907,
      "hurrican": 5908,
      "rett": 5909,
      "incident": 5910,
      "cordg": 5911,
      "gthegsoutherng": 5912,
      "gguitar": 5913,
      "convention": 5914,
      "gpresidentg": 5915,
      "createdg": 5916,
      "hann": 5917,
      "gpercentg": 5918,
      "gaccompani": 5919,
      "ationgingtheg": 5920,
      "ustain": 5921,
      "eeg": 5922,
      "za": 5923,
      "thegs": 5924,
      "goutg": 5925,
      "gren": 5926,
      "endingg": 5927,
      "shouldgbeg": 5928,
      "gandgthat": 5929,
      "goverall": 5930,
      "ingitsg": 5931,
      "gatlantic": 5932,
      "onegofgthegmostg": 5933,
      "luc": 5934,
      "encegf": 5935,
      "imperial": 5936,
      "roph": 5937,
      "egmusic": 5938,
      "gprais": 5939,
      "seen": 5940,
      "fleetg": 5941,
      "district": 5942,
      "catholic": 5943,
      "cow": 5944,
      "asc": 5945,
      "gwasgnotg": 5946,
      "otic": 5947,
      "seag": 5948,
      "gkg": 5949,
      "referredgto": 5950,
      "lerg": 5951,
      "angfranc": 5952,
      "rik": 5953,
      "carry": 5954,
      "eventually": 5955,
      "secret": 5956,
      "glin": 5957,
      "gallgofgtheg": 5958,
      "ginstead": 5959,
      "ghor": 5960,
      "islands": 5961,
      "originalgs": 5962,
      "ongwasg": 5963,
      "chartg": 5964,
      "gthegbuild": 5965,
      "records": 5966,
      "sgsh": 5967,
      "wed": 5968,
      "ofgthegt": 5969,
      "upgrad": 5970,
      "location": 5971,
      "usual": 5972,
      "gthisgtim": 5973,
      "gthatgsh": 5974,
      "gfail": 5975,
      "iah": 5976,
      "conclus": 5977,
      "gbomb": 5978,
      "gwheregtheyg": 5979,
      "1988": 5980,
      "formula": 5981,
      "musical": 5982,
      "sourc": 5983,
      "cloth": 5984,
      "remainedg": 5985,
      "programm": 5986,
      "schedul": 5987,
      "glikeg": 5988,
      "gwhichginclud": 5989,
      "notedgthatg": 5990,
      "egsom": 5991,
      "makesg": 5992,
      "ghimself": 5993,
      "onder": 5994,
      "wear": 5995,
      "eghous": 5996,
      "cry": 5997,
      "ientg": 5998,
      "attempt": 5999,
      "gwritteng": 6000,
      "gandgsouth": 6001,
      "nativeg": 6002,
      "chester": 6003,
      "bng": 6004,
      "magn": 6005,
      "edgoverg": 6006,
      "egofgitsg": 6007,
      "modern": 6008,
      "ingthisg": 6009,
      "ongoctoberg": 6010,
      "iverg": 6011,
      "narrow": 6012,
      "wrest": 6013,
      "unitsg": 6014,
      "galmost": 6015,
      "egdo": 6016,
      "delay": 6017,
      "gmat": 6018,
      "gseries": 6019,
      "croat": 6020,
      "gadvertis": 6021,
      "demand": 6022,
      "ugu": 6023,
      "gtext": 6024,
      "eghighwayg": 6025,
      "89": 6026,
      "gsuccess": 6027,
      "immediately": 6028,
      "gnovember": 6029,
      "usband": 6030,
      "stategofg": 6031,
      "gaud": 6032,
      "deploy": 6033,
      "gconstructiong": 6034,
      "gmain": 6035,
      "disput": 6036,
      "iar": 6037,
      "resembl": 6038,
      "g2005": 6039,
      "consum": 6040,
      "ynast": 6041,
      "gtrainingg": 6042,
      "rar": 6043,
      "ardin": 6044,
      "colonel": 6045,
      "crow": 6046,
      "enry": 6047,
      "ockeyg": 6048,
      "gshegwas": 6049,
      "gturng": 6050,
      "rigad": 6051,
      "morn": 6052,
      "gsen": 6053,
      "gmilitaryg": 6054,
      "parallel": 6055,
      "gthoughtg": 6056,
      "lyn": 6057,
      "plantg": 6058,
      "extensiveg": 6059,
      "eghasgbeeng": 6060,
      "honor": 6061,
      "g2015": 6062,
      "1987": 6063,
      "gasgpartgofgtheg": 6064,
      "moregs": 6065,
      "gmoregthang": 6066,
      "recommend": 6067,
      "esc": 6068,
      "leet": 6069,
      "formationg": 6070,
      "gfranc": 6071,
      "contest": 6072,
      "gtransferred": 6073,
      "ality": 6074,
      "withingtheg": 6075,
      "ologicalg": 6076,
      "isra": 6077,
      "poll": 6078,
      "ralg": 6079,
      "landfall": 6080,
      "irk": 6081,
      "iet": 6082,
      "oak": 6083,
      "idesg": 6084,
      "style": 6085,
      "sghisg": 6086,
      "here": 6087,
      "odes": 6088,
      "rak": 6089,
      "250": 6090,
      "recordedg": 6091,
      "energyg": 6092,
      "sgwheng": 6093,
      "gtu": 6094,
      "understand": 6095,
      "chrisg": 6096,
      "gcamp": 6097,
      "showng": 6098,
      "gkilometresg": 6099,
      "gthegtrack": 6100,
      "headquarter": 6101,
      "ho": 6102,
      "sit": 6103,
      "award": 6104,
      "97": 6105,
      "arriv": 6106,
      "1986": 6107,
      "gitgalsog": 6108,
      "eman": 6109,
      "galt": 6110,
      "scott": 6111,
      "buryg": 6112,
      "soon": 6113,
      "atedgfrom": 6114,
      "proces": 6115,
      "weaken": 6116,
      "written": 6117,
      "captur": 6118,
      "upportg": 6119,
      "agb": 6120,
      "edgp": 6121,
      "gtogd": 6122,
      "isol": 6123,
      "primarilyg": 6124,
      "depict": 6125,
      "gtons": 6126,
      "subject": 6127,
      "egwouldgbeg": 6128,
      "gfr": 6129,
      "hem": 6130,
      "broadcastg": 6131,
      "either": 6132,
      "gliveg": 6133,
      "sim": 6134,
      "ixedg": 6135,
      "likelyg": 6136,
      "160": 6137,
      "gsquadron": 6138,
      "gather": 6139,
      "gruss": 6140,
      "700": 6141,
      "egmed": 6142,
      "hap": 6143,
      "gthegshow": 6144,
      "esgongtheg": 6145,
      "door": 6146,
      "dismiss": 6147,
      "iesgwereg": 6148,
      "grail": 6149,
      "lation": 6150,
      "isgnotg": 6151,
      "study": 6152,
      "ongthegf": 6153,
      "deadg": 6154,
      "requiredg": 6155,
      "cer": 6156,
      "ingang": 6157,
      "edgbygthegs": 6158,
      "ires": 6159,
      "gplat": 6160,
      "gfeel": 6161,
      "ossil": 6162,
      "quit": 6163,
      "gplotg": 6164,
      "gelect": 6165,
      "pas": 6166,
      "ms": 6167,
      "gaij": 6168,
      "jour": 6169,
      "godg": 6170,
      "uman": 6171,
      "gwentg": 6172,
      "capac": 6173,
      "gseveng": 6174,
      "ply": 6175,
      "gbreak": 6176,
      "ingsgandg": 6177,
      "wasgalsog": 6178,
      "ymph": 6179,
      "g25": 6180,
      "mainlyg": 6181,
      "galongsid": 6182,
      "railway": 6183,
      "membersgofgtheg": 6184,
      "gproc": 6185,
      "edghimgtog": 6186,
      "ettg": 6187,
      "gpresent": 6188,
      "grank": 6189,
      "capit": 6190,
      "exerc": 6191,
      "gknot": 6192,
      "gtotalg": 6193,
      "further": 6194,
      "msg": 6195,
      "gagtotalgofg": 6196,
      "gatgthegendgofgtheg": 6197,
      "gband": 6198,
      "brought": 6199,
      "preadg": 6200,
      "atedgtog": 6201,
      "stev": 6202,
      "ougl": 6203,
      "egwar": 6204,
      "gongseptemberg": 6205,
      "ador": 6206,
      "gpartg": 6207,
      "ghors": 6208,
      "see": 6209,
      "gairedg": 6210,
      "gassembl": 6211,
      "3rdg": 6212,
      "stain": 6213,
      "remainingg": 6214,
      "royalg": 6215,
      "gsim": 6216,
      "losgangeles": 6217,
      "gatgthegsamegtim": 6218,
      "broadcast": 6219,
      "gprevi": 6220,
      "spanish": 6221,
      "ghegc": 6222,
      "gthousand": 6223,
      "cp": 6224,
      "ategandg": 6225,
      "iform": 6226,
      "alityg": 6227,
      "ingthegs": 6228,
      "gpeople": 6229,
      "algw": 6230,
      "gtogthegsouth": 6231,
      "inggback": 6232,
      "ging195": 6233,
      "estin": 6234,
      "intellig": 6235,
      "magazine": 6236,
      "rangegofg": 6237,
      "gwheregitg": 6238,
      "esgwasg": 6239,
      "upong": 6240,
      "change": 6241,
      "features": 6242,
      "ocialg": 6243,
      "gross": 6244,
      "item": 6245,
      "operations": 6246,
      "budg": 6247,
      "openingg": 6248,
      "gindivid": 6249,
      "jeff": 6250,
      "conflict": 6251,
      "etterg": 6252,
      "egwer": 6253,
      "chicago": 6254,
      "gsil": 6255,
      "gtogtheir": 6256,
      "reyg": 6257,
      "gattention": 6258,
      "grathergthang": 6259,
      "gwhengh": 6260,
      "consci": 6261,
      "cthegfirstg": 6262,
      "gawaygfrom": 6263,
      "mess": 6264,
      "reflect": 6265,
      "itgofg": 6266,
      "egme": 6267,
      "returngtog": 6268,
      "egduringgtheg": 6269,
      "upper": 6270,
      "egdu": 6271,
      "financial": 6272,
      "bloodg": 6273,
      "maind": 6274,
      "gtravell": 6275,
      "rathergthang": 6276,
      "oftg": 6277,
      "effectiveg": 6278,
      "icketg": 6279,
      "1980s": 6280,
      "eath": 6281,
      "compil": 6282,
      "competition": 6283,
      "shortly": 6284,
      "viewers": 6285,
      "wife": 6286,
      "gaddress": 6287,
      "ko": 6288,
      "ruth": 6289,
      "enned": 6290,
      "amb": 6291,
      "19thgcentury": 6292,
      "mu": 6293,
      "forgthegs": 6294,
      "offens": 6295,
      "decisiong": 6296,
      "gthegnorth": 6297,
      "ado": 6298,
      "ricultur": 6299,
      "districtg": 6300,
      "joseph": 6301,
      "ergd": 6302,
      "gaustri": 6303,
      "gaccident": 6304,
      "irong": 6305,
      "gaer": 6306,
      "rug": 6307,
      "gamericag": 6308,
      "ze": 6309,
      "bridgeg": 6310,
      "studiog": 6311,
      "fun": 6312,
      "producedg": 6313,
      "ible": 6314,
      "recording": 6315,
      "gtogtakeg": 6316,
      "inju": 6317,
      "000g": 6318,
      "ygwith": 6319,
      "gannual": 6320,
      "organization": 6321,
      "portsg": 6322,
      "catch": 6323,
      "gthegfollowinggyear": 6324,
      "gver": 6325,
      "releasedg": 6326,
      "ta": 6327,
      "extremelyg": 6328,
      "gthegclub": 6329,
      "confeder": 6330,
      "vic": 6331,
      "atlantic": 6332,
      "gartistg": 6333,
      "algfantasyg": 6334,
      "gwhoseg": 6335,
      "voy": 6336,
      "ixth": 6337,
      "inner": 6338,
      "gtraining": 6339,
      "least": 6340,
      "gthosegwhog": 6341,
      "litt": 6342,
      "vas": 6343,
      "rur": 6344,
      "vietnam": 6345,
      "buri": 6346,
      "1968": 6347,
      "ancesg": 6348,
      "gtaylor": 6349,
      "formgofg": 6350,
      "inggthrough": 6351,
      "000gcop": 6352,
      "boatg": 6353,
      "gsubsequ": 6354,
      "egremain": 6355,
      "ato": 6356,
      "gcalifornia": 6357,
      "ofgan": 6358,
      "gappeared": 6359,
      "volcan": 6360,
      "itledg": 6361,
      "edgall": 6362,
      "encegof": 6363,
      "primegmin": 6364,
      "brokeng": 6365,
      "fitt": 6366,
      "ationsgofg": 6367,
      "gob": 6368,
      "sky": 6369,
      "ulag": 6370,
      "egcar": 6371,
      "forniag": 6372,
      "gdamag": 6373,
      "osh": 6374,
      "sgout": 6375,
      "idenceg": 6376,
      "includingg": 6377,
      "fifth": 6378,
      "iltg": 6379,
      "elic": 6380,
      "provideg": 6381,
      "doub": 6382,
      "galter": 6383,
      "gsetg": 6384,
      "usesg": 6385,
      "crash": 6386,
      "gthor": 6387,
      "inog": 6388,
      "gartilleryg": 6389,
      "gtryinggtog": 6390,
      "gber": 6391,
      "gdespitegtheg": 6392,
      "keptg": 6393,
      "attleg": 6394,
      "ees": 6395,
      "ghard": 6396,
      "gwhichghadg": 6397,
      "heart": 6398,
      "northgamerica": 6399,
      "1970s": 6400,
      "lant": 6401,
      "elizabeth": 6402,
      "encegandg": 6403,
      "about": 6404,
      "edgwheng": 6405,
      "mut": 6406,
      "label": 6407,
      "spentg": 6408,
      "ollar": 6409,
      "gbecauseg": 6410,
      "credit": 6411,
      "sold": 6412,
      "psg": 6413,
      "garden": 6414,
      "gthegtowng": 6415,
      "andgtheg": 6416,
      "gthisgwas": 6417,
      "93": 6418,
      "weak": 6419,
      "western": 6420,
      "gthegscen": 6421,
      "gheavyg": 6422,
      "mediag": 6423,
      "icientg": 6424,
      "gest": 6425,
      "1985": 6426,
      "diss": 6427,
      "neighbor": 6428,
      "notgtog": 6429,
      "japang": 6430,
      "gthirt": 6431,
      "gadditionalg": 6432,
      "eighth": 6433,
      "cub": 6434,
      "gduegto": 6435,
      "goctober": 6436,
      "gwaterg": 6437,
      "structureg": 6438,
      "physical": 6439,
      "ingan": 6440,
      "gandgalsog": 6441,
      "fromgag": 6442,
      "extra": 6443,
      "draft": 6444,
      "relig": 6445,
      "implement": 6446,
      "ghold": 6447,
      "gandgags": 6448,
      "gwing": 6449,
      "gdecid": 6450,
      "iddleg": 6451,
      "vit": 6452,
      "eem": 6453,
      "magazineg": 6454,
      "aultg": 6455,
      "gotg": 6456,
      "ertaing": 6457,
      "readg": 6458,
      "gsquadrong": 6459,
      "gball": 6460,
      "kyg": 6461,
      "gbank": 6462,
      "shown": 6463,
      "praisedgtheg": 6464,
      "entirelyg": 6465,
      "g40": 6466,
      "thegb": 6467,
      "money": 6468,
      "pian": 6469,
      "adog": 6470,
      "gadult": 6471,
      "sgandgs": 6472,
      "vin": 6473,
      "edgsom": 6474,
      "mob": 6475,
      "gden": 6476,
      "groy": 6477,
      "gtempl": 6478,
      "nationalgs": 6479,
      "negativeg": 6480,
      "constitut": 6481,
      "ization": 6482,
      "hab": 6483,
      "gannouncedgthatg": 6484,
      "candid": 6485,
      "ghours": 6486,
      "ichigan": 6487,
      "jul": 6488,
      "medical": 6489,
      "86": 6490,
      "edgk": 6491,
      "gfrank": 6492,
      "gking": 6493,
      "producedgbyg": 6494,
      "len": 6495,
      "gthegmed": 6496,
      "egmar": 6497,
      "highestg": 6498,
      "columb": 6499,
      "placeg": 6500,
      "expedition": 6501,
      "happen": 6502,
      "jackson": 6503,
      "egtrack": 6504,
      "athergthan": 6505,
      "glook": 6506,
      "g100": 6507,
      "pilot": 6508,
      "gtogthegnorth": 6509,
      "specific": 6510,
      "grecordg": 6511,
      "egfeat": 6512,
      "killed": 6513,
      "chicagog": 6514,
      "doctor": 6515,
      "cthereg": 6516,
      "rud": 6517,
      "fellow": 6518,
      "egcan": 6519,
      "unsuccessful": 6520,
      "gandghad": 6521,
      "halfgofgtheg": 6522,
      "gtogthatg": 6523,
      "plitg": 6524,
      "gthrow": 6525,
      "etter": 6526,
      "shell": 6527,
      "gfrench": 6528,
      "isgang": 6529,
      "gavoidg": 6530,
      "coverg": 6531,
      "face": 6532,
      "gthegschool": 6533,
      "castleg": 6534,
      "garticleg": 6535,
      "1990s": 6536,
      "below": 6537,
      "thginfantryg": 6538,
      "beautiful": 6539,
      "catg": 6540,
      "chas": 6541,
      "home": 6542,
      "performedg": 6543,
      "1984": 6544,
      "earliestg": 6545,
      "gref": 6546,
      "gaghalf": 6547,
      "rim": 6548,
      "wich": 6549,
      "angel": 6550,
      "1960s": 6551,
      "sex": 6552,
      "rights": 6553,
      "sons": 6554,
      "neut": 6555,
      "fox": 6556,
      "innerg": 6557,
      "pon": 6558,
      "rival": 6559,
      "georgeg": 6560,
      "gatgthegb": 6561,
      "romantic": 6562,
      "controll": 6563,
      "eor": 6564,
      "gsecondg": 6565,
      "centralg": 6566,
      "daughter": 6567,
      "illyg": 6568,
      "gequ": 6569,
      "concertg": 6570,
      "gmarri": 6571,
      "ynthes": 6572,
      "hag": 6573,
      "gnatur": 6574,
      "bigg": 6575,
      "failedgtog": 6576,
      "paris": 6577,
      "ril": 6578,
      "situ": 6579,
      "crim": 6580,
      "egcent": 6581,
      "victori": 6582,
      "gtriedgtog": 6583,
      "pok": 6584,
      "valley": 6585,
      "gthegfinal": 6586,
      "enix": 6587,
      "lift": 6588,
      "force": 6589,
      "publishedging": 6590,
      "construction": 6591,
      "jok": 6592,
      "gfish": 6593,
      "activeg": 6594,
      "gandgsom": 6595,
      "gaglg": 6596,
      "hotg100": 6597,
      "gthegcap": 6598,
      "likegag": 6599,
      "gtitledg": 6600,
      "eway": 6601,
      "battlegofg": 6602,
      "worldgwarg": 6603,
      "gagnumbergofg": 6604,
      "consequ": 6605,
      "announc": 6606,
      "gafrican": 6607,
      "goldeng": 6608,
      "lot": 6609,
      "jewish": 6610,
      "gsci": 6611,
      "iterran": 6612,
      "orph": 6613,
      "forceg": 6614,
      "preced": 6615,
      "gdestroy": 6616,
      "friendg": 6617,
      "gcarolina": 6618,
      "quart": 6619,
      "gcompos": 6620,
      "actic": 6621,
      "leader": 6622,
      "footg": 6623,
      "gthegdef": 6624,
      "gmel": 6625,
      "ivisiong": 6626,
      "sinc": 6627,
      "valleyg": 6628,
      "heavilyg": 6629,
      "arag": 6630,
      "gdivision": 6631,
      "washington": 6632,
      "galwaysg": 6633,
      "diedging": 6634,
      "gfeature": 6635,
      "climb": 6636,
      "yang": 6637,
      "1946": 6638,
      "gdevelopmentg": 6639,
      "ghegd": 6640,
      "gamend": 6641,
      "jon": 6642,
      "pun": 6643,
      "comingg": 6644,
      "shark": 6645,
      "predict": 6646,
      "ola": 6647,
      "gcommitt": 6648,
      "gperiod": 6649,
      "gii": 6650,
      "gchildren": 6651,
      "grelationship": 6652,
      "makingg": 6653,
      "whol": 6654,
      "houseg": 6655,
      "uan": 6656,
      "yt": 6657,
      "gareagofg": 6658,
      "grichardg": 6659,
      "cook": 6660,
      "gmax": 6661,
      "won": 6662,
      "gagfour": 6663,
      "gadvoc": 6664,
      "attend": 6665,
      "battalion": 6666,
      "isgnow": 6667,
      "marketg": 6668,
      "fatherg": 6669,
      "ginternational": 6670,
      "ygingtheg": 6671,
      "gapart": 6672,
      "usi": 6673,
      "gagsong": 6674,
      "eur": 6675,
      "communic": 6676,
      "becomegag": 6677,
      "portion": 6678,
      "remegc": 6679,
      "college": 6680,
      "ji": 6681,
      "gtransportg": 6682,
      "gariang": 6683,
      "guns": 6684,
      "embr": 6685,
      "91": 6686,
      "modi": 6687,
      "rome": 6688,
      "sgus": 6689,
      "gtogh": 6690,
      "ackgofg": 6691,
      "drum": 6692,
      "opportunity": 6693,
      "ghy": 6694,
      "gandgfor": 6695,
      "plic": 6696,
      "esgatg": 6697,
      "unityg": 6698,
      "87": 6699,
      "1948": 6700,
      "81": 6701,
      "gdev": 6702,
      "quot": 6703,
      "penins": 6704,
      "gcivil": 6705,
      "shop": 6706,
      "gonegof": 6707,
      "films": 6708,
      "edgbygs": 6709,
      "govergtheg": 6710,
      "gjuly": 6711,
      "episodegofgtheg": 6712,
      "gknotsg": 6713,
      "gwhichgheg": 6714,
      "teen": 6715,
      "philipp": 6716,
      "fast": 6717,
      "ipl": 6718,
      "gandgin": 6719,
      "gutc": 6720,
      "visual": 6721,
      "gattemptsgtog": 6722,
      "graduallyg": 6723,
      "gplayersg": 6724,
      "ker": 6725,
      "20thgcentury": 6726,
      "eghaveg": 6727,
      "gregard": 6728,
      "gmadeg": 6729,
      "etch": 6730,
      "newlyg": 6731,
      "gthegmin": 6732,
      "nuclear": 6733,
      "gwhos": 6734,
      "eastgofgtheg": 6735,
      "eon": 6736,
      "wasgnotg": 6737,
      "solut": 6738,
      "1967": 6739,
      "gty": 6740,
      "1914": 6741,
      "gannivers": 6742,
      "gforghisg": 6743,
      "rear": 6744,
      "olutiong": 6745,
      "dal": 6746,
      "ool": 6747,
      "ingseptemberg": 6748,
      "ikeg": 6749,
      "deriv": 6750,
      "yearsglater": 6751,
      "undredg": 6752,
      "cwheng": 6753,
      "yetg": 6754,
      "wide": 6755,
      "gstated": 6756,
      "peech": 6757,
      "gay": 6758,
      "1964": 6759,
      "aingtheg": 6760,
      "gthegcast": 6761,
      "egofteng": 6762,
      "moregthan": 6763,
      "ghegm": 6764,
      "released": 6765,
      "ographic": 6766,
      "ggovernmentg": 6767,
      "coal": 6768,
      "g190": 6769,
      "highwayg": 6770,
      "gconnect": 6771,
      "gandghadg": 6772,
      "rare": 6773,
      "sghasg": 6774,
      "gsincegtheg": 6775,
      "adiang": 6776,
      "adeg": 6777,
      "gtonsg": 6778,
      "itter": 6779,
      "ghg": 6780,
      "inggsh": 6781,
      "gthegbo": 6782,
      "92": 6783,
      "orang": 6784,
      "ree": 6785,
      "ears": 6786,
      "gbeginn": 6787,
      "ridgeg": 6788,
      "gdecember": 6789,
      "ative": 6790,
      "community": 6791,
      "badg": 6792,
      "gagmembergofgtheg": 6793,
      "refus": 6794,
      "strang": 6795,
      "ographyg": 6796,
      "anti": 6797,
      "voiceg": 6798,
      "gta": 6799,
      "atory": 6800,
      "ularg": 6801,
      "status": 6802,
      "gminutes": 6803,
      "guestg": 6804,
      "edgof": 6805,
      "moneyg": 6806,
      "playstationg": 6807,
      "oceang": 6808,
      "iesgofgtheg": 6809,
      "isions": 6810,
      "radi": 6811,
      "plom": 6812,
      "mail": 6813,
      "gop": 6814,
      "withghisg": 6815,
      "ensur": 6816,
      "glad": 6817,
      "oslav": 6818,
      "battleship": 6819,
      "130": 6820,
      "egwhereg": 6821,
      "characteristic": 6822,
      "gagshortg": 6823,
      "gvariousg": 6824,
      "egtow": 6825,
      "iesging": 6826,
      "amm": 6827,
      "gacclaim": 6828,
      "grh": 6829,
      "ty": 6830,
      "ementgofgtheg": 6831,
      "brand": 6832,
      "1969": 6833,
      "cientg": 6834,
      "egsever": 6835,
      "cand": 6836,
      "olec": 6837,
      "esgbyg": 6838,
      "gbey": 6839,
      "gofgthegt": 6840,
      "gsa": 6841,
      "gasgwellgasgtheg": 6842,
      "stronom": 6843,
      "gtypicallyg": 6844,
      "latergs": 6845,
      "gassociation": 6846,
      "gpower": 6847,
      "thisg": 6848,
      "gaven": 6849,
      "sgagk": 6850,
      "gcult": 6851,
      "sgwrit": 6852,
      "issip": 6853,
      "rif": 6854,
      "rub": 6855,
      "egbutg": 6856,
      "gown": 6857,
      "gdraw": 6858,
      "gnetwork": 6859,
      "vinc": 6860,
      "gpen": 6861,
      "ummer": 6862,
      "ota": 6863,
      "esgar": 6864,
      "wel": 6865,
      "duegtogtheg": 6866,
      "increasinglyg": 6867,
      "gpolic": 6868,
      "captain": 6869,
      "gtogitsg": 6870,
      "rece": 6871,
      "sens": 6872,
      "combatg": 6873,
      "gangin": 6874,
      "gthegcar": 6875,
      "decor": 6876,
      "gdivisiong": 6877,
      "garsen": 6878,
      "agas": 6879,
      "roop": 6880,
      "spr": 6881,
      "gongaugustg": 6882,
      "nest": 6883,
      "ingags": 6884,
      "gpoints": 6885,
      "esgofgs": 6886,
      "gadmitt": 6887,
      "gthegcor": 6888,
      "personnel": 6889,
      "gagjg4": 6890,
      "gandgbyg": 6891,
      "gtoghav": 6892,
      "beatg": 6893,
      "negoti": 6894,
      "promotion": 6895,
      "atell": 6896,
      "gthegfinalg": 6897,
      "sghigh": 6898,
      "ghavegbeeng": 6899,
      "conferenc": 6900,
      "garchae": 6901,
      "brotherg": 6902,
      "isgofg": 6903,
      "py": 6904,
      "gagweek": 6905,
      "egtra": 6906,
      "gagloc": 6907,
      "gsuper": 6908,
      "eesg": 6909,
      "egman": 6910,
      "mostlyg": 6911,
      "guardi": 6912,
      "conqu": 6913,
      "gtheregwas": 6914,
      "gantic": 6915,
      "egcam": 6916,
      "engandg": 6917,
      "ancegofgtheg": 6918,
      "buildingg": 6919,
      "nessg": 6920,
      "sgingag": 6921,
      "pent": 6922,
      "ggold": 6923,
      "gdriv": 6924,
      "philosoph": 6925,
      "ergof": 6926,
      "significantg": 6927,
      "gdisc": 6928,
      "repair": 6929,
      "gstrong": 6930,
      "eachgother": 6931,
      "strengthen": 6932,
      "better": 6933,
      "84": 6934,
      "gtogtak": 6935,
      "ghouse": 6936,
      "iesgingtheg": 6937,
      "ousgandg": 6938,
      "resum": 6939,
      "prote": 6940,
      "commonlyg": 6941,
      "edgongag": 6942,
      "enterpris": 6943,
      "gthegsonggwasg": 6944,
      "atom": 6945,
      "gthegfact": 6946,
      "knock": 6947,
      "1966": 6948,
      "captured": 6949,
      "ignificantlyg": 6950,
      "fortun": 6951,
      "decreas": 6952,
      "mondg": 6953,
      "studentg": 6954,
      "ygof": 6955,
      "sgcall": 6956,
      "distinct": 6957,
      "bos": 6958,
      "separ": 6959,
      "inggtwog": 6960,
      "ergfrom": 6961,
      "feltg": 6962,
      "gaspect": 6963,
      "abel": 6964,
      "gjr": 6965,
      "ledgtog": 6966,
      "gtowardsg": 6967,
      "ghighwayg": 6968,
      "contactg": 6969,
      "ertog": 6970,
      "flightg": 6971,
      "gmil": 6972,
      "atal": 6973,
      "edgboth": 6974,
      "gphys": 6975,
      "possible": 6976,
      "egbecaus": 6977,
      "outsidegtheg": 6978,
      "cbyg": 6979,
      "garn": 6980,
      "quant": 6981,
      "appearedg": 6982,
      "neargtheg": 6983,
      "vul": 6984,
      "gran": 6985,
      "gasghisg": 6986,
      "gthegtwo": 6987,
      "gfemal": 6988,
      "check": 6989,
      "egmanyg": 6990,
      "1983": 6991,
      "aught": 6992,
      "nap": 6993,
      "algfor": 6994,
      "pg": 6995,
      "gtrial": 6996,
      "gwhiteg": 6997,
      "1979": 6998,
      "nesg": 6999,
      "groups": 7000,
      "ynd": 7001,
      "remark": 7002,
      "gtowardsgtheg": 7003,
      "gsuchgas": 7004,
      "gappli": 7005,
      "onsor": 7006,
      "natural": 7007,
      "ongjulyg": 7008,
      "morning": 7009,
      "bach": 7010,
      "garab": 7011,
      "awar": 7012,
      "geightg": 7013,
      "edgdown": 7014,
      "pastg": 7015,
      "gsl": 7016,
      "1918": 7017,
      "benef": 7018,
      "ignor": 7019,
      "mun": 7020,
      "uit": 7021,
      "erick": 7022,
      "1982": 7023,
      "criticism": 7024,
      "1972": 7025,
      "ingd": 7026,
      "ized": 7027,
      "gcharlesg": 7028,
      "1971": 7029,
      "commander": 7030,
      "gforgag": 7031,
      "writerg": 7032,
      "theless": 7033,
      "inking": 7034,
      "thew": 7035,
      "gfield": 7036,
      "gthegseries": 7037,
      "1976": 7038,
      "gcareerg": 7039,
      "edgthegfirstg": 7040,
      "insg": 7041,
      "82": 7042,
      "irement": 7043,
      "emblyg": 7044,
      "eav": 7045,
      "direction": 7046,
      "ns": 7047,
      "aneg": 7048,
      "gwid": 7049,
      "gread": 7050,
      "gbutgitg": 7051,
      "edghimself": 7052,
      "gheghad": 7053,
      "choic": 7054,
      "marchg19": 7055,
      "ku": 7056,
      "classifi": 7057,
      "ggame": 7058,
      "gacrossg": 7059,
      "reasong": 7060,
      "sgchart": 7061,
      "ropp": 7062,
      "griver": 7063,
      "gtheghighestg": 7064,
      "mok": 7065,
      "rash": 7066,
      "ouri": 7067,
      "statu": 7068,
      "gdam": 7069,
      "gairport": 7070,
      "cipl": 7071,
      "returnedgtogtheg": 7072,
      "gaheadg": 7073,
      "territ": 7074,
      "chineseg": 7075,
      "gagtwo": 7076,
      "playoff": 7077,
      "namentg": 7078,
      "yag": 7079,
      "gbrown": 7080,
      "indian": 7081,
      "competitiong": 7082,
      "preventg": 7083,
      "gboy": 7084,
      "hou": 7085,
      "gandgingtheg": 7086,
      "inspir": 7087,
      "1975": 7088,
      "equipp": 7089,
      "geith": 7090,
      "bb": 7091,
      "cept": 7092,
      "members": 7093,
      "ygisg": 7094,
      "1965": 7095,
      "gsol": 7096,
      "gadditionally": 7097,
      "gingordergtog": 7098,
      "gone": 7099,
      "gdepart": 7100,
      "equival": 7101,
      "gmagaz": 7102,
      "hergs": 7103,
      "gtogthegt": 7104,
      "robert": 7105,
      "egthegfirstg": 7106,
      "vision": 7107,
      "concept": 7108,
      "liver": 7109,
      "gwhere": 7110,
      "arab": 7111,
      "startedg": 7112,
      "gthegtour": 7113,
      "ds": 7114,
      "thegf": 7115,
      "ria": 7116,
      "ichol": 7117,
      "majorityg": 7118,
      "onto": 7119,
      "gtarget": 7120,
      "gcondition": 7121,
      "paredg": 7122,
      "hur": 7123,
      "ks": 7124,
      "igur": 7125,
      "gpropert": 7126,
      "cann": 7127,
      "lifegandg": 7128,
      "cz": 7129,
      "gasgpartg": 7130,
      "scul": 7131,
      "grap": 7132,
      "restrict": 7133,
      "stories": 7134,
      "partsgofgtheg": 7135,
      "gbrit": 7136,
      "essiong": 7137,
      "gintens": 7138,
      "eving": 7139,
      "gless": 7140,
      "gingitsg": 7141,
      "ireland": 7142,
      "favour": 7143,
      "ongtheir": 7144,
      "guest": 7145,
      "echan": 7146,
      "gset": 7147,
      "certaing": 7148,
      "viag": 7149,
      "ways": 7150,
      "pain": 7151,
      "antry": 7152,
      "gisbng": 7153,
      "gcolon": 7154,
      "gord": 7155,
      "should": 7156,
      "ita": 7157,
      "gpot": 7158,
      "letterg": 7159,
      "gdesigng": 7160,
      "ginvest": 7161,
      "ottomang": 7162,
      "1938": 7163,
      "sgfollow": 7164,
      "dutch": 7165,
      "hanc": 7166,
      "ient": 7167,
      "reak": 7168,
      "ghegsaid": 7169,
      "1974": 7170,
      "gsurviv": 7171,
      "gwav": 7172,
      "gfind": 7173,
      "media": 7174,
      "ofgthem": 7175,
      "encegofgtheg": 7176,
      "awn": 7177,
      "highgschool": 7178,
      "secur": 7179,
      "gthegst": 7180,
      "gthegair": 7181,
      "imagin": 7182,
      "begh": 7183,
      "egwithgag": 7184,
      "battl": 7185,
      "potential": 7186,
      "gdifferentg": 7187,
      "jump": 7188,
      "rateg": 7189,
      "eginghisg": 7190,
      "oldestg": 7191,
      "gcangbeg": 7192,
      "gsoldi": 7193,
      "nether": 7194,
      "ging17": 7195,
      "gthatgtime": 7196,
      "manygofgtheg": 7197,
      "ggeneralg": 7198,
      "bong": 7199,
      "serviceg": 7200,
      "proposal": 7201,
      "bornging": 7202,
      "roughtg": 7203,
      "avalryg": 7204,
      "ender": 7205,
      "lywoodg": 7206,
      "1973": 7207,
      "gsuchgasgtheg": 7208,
      "sett": 7209,
      "outbreak": 7210,
      "floor": 7211,
      "gongoctoberg": 7212,
      "meetg": 7213,
      "standard": 7214,
      "ghegmad": 7215,
      "brad": 7216,
      "case": 7217,
      "greceivedg": 7218,
      "chapel": 7219,
      "gvirgin": 7220,
      "gthatgwouldg": 7221,
      "flank": 7222,
      "gstreet": 7223,
      "leaf": 7224,
      "liqu": 7225,
      "gpri": 7226,
      "1936": 7227,
      "gcalledg": 7228,
      "roth": 7229,
      "gcriticalg": 7230,
      "blueg": 7231,
      "g24": 7232,
      "countries": 7233,
      "suchgasgtheg": 7234,
      "egang": 7235,
      "sgover": 7236,
      "oust": 7237,
      "mist": 7238,
      "gbasedgong": 7239,
      "reinforc": 7240,
      "ux": 7241,
      "ghealth": 7242,
      "gcommerc": 7243,
      "emeter": 7244,
      "gproject": 7245,
      "nas": 7246,
      "uspect": 7247,
      "ifyg": 7248,
      "cohol": 7249,
      "gins": 7250,
      "gthegplayerg": 7251,
      "roof": 7252,
      "grepublic": 7253,
      "november": 7254,
      "agegofgtheg": 7255,
      "gbest": 7256,
      "zen": 7257,
      "gwalk": 7258,
      "quare": 7259,
      "memberg": 7260,
      "gnar": 7261,
      "gawardedgtheg": 7262,
      "wound": 7263,
      "ofgitsg": 7264,
      "ontog": 7265,
      "gjoin": 7266,
      "loop": 7267,
      "egagainstg": 7268,
      "ih": 7269,
      "ilog": 7270,
      "ghegh": 7271,
      "edghigh": 7272,
      "stars": 7273,
      "egdesign": 7274,
      "jes": 7275,
      "egthis": 7276,
      "g2004": 7277,
      "closelyg": 7278,
      "gmonths": 7279,
      "edgbec": 7280,
      "listen": 7281,
      "gestablish": 7282,
      "map": 7283,
      "prompt": 7284,
      "gthegmatch": 7285,
      "startgofgtheg": 7286,
      "highlyg": 7287,
      "offensiveg": 7288,
      "gthegdep": 7289,
      "sail": 7290,
      "gassess": 7291,
      "gspecial": 7292,
      "navy": 7293,
      "gearn": 7294,
      "gsomegofgtheg": 7295,
      "gtexas": 7296,
      "excell": 7297,
      "betterg": 7298,
      "gstreetg": 7299,
      "rook": 7300,
      "register": 7301,
      "sgk": 7302,
      "orth": 7303,
      "recentlyg": 7304,
      "raceg": 7305,
      "ferredg": 7306,
      "gnavyg": 7307,
      "germany": 7308,
      "gtoghelp": 7309,
      "gjune": 7310,
      "lah": 7311,
      "istan": 7312,
      "nob": 7313,
      "rey": 7314,
      "admir": 7315,
      "gtheghighwayg": 7316,
      "gprem": 7317,
      "includesg": 7318,
      "hasgag": 7319,
      "ecurityg": 7320,
      "quickly": 7321,
      "gsinglesg": 7322,
      "fred": 7323,
      "greplac": 7324,
      "rena": 7325,
      "itesg": 7326,
      "bbc": 7327,
      "inggout": 7328,
      "gshortg": 7329,
      "created": 7330,
      "single": 7331,
      "madegag": 7332,
      "gtroops": 7333,
      "chand": 7334,
      "gcontribut": 7335,
      "increasedg": 7336,
      "wideg": 7337,
      "duk": 7338,
      "arygofgtheg": 7339,
      "egbatt": 7340,
      "detect": 7341,
      "namedgtheg": 7342,
      "dognotg": 7343,
      "catgtheg": 7344,
      "ganimal": 7345,
      "arah": 7346,
      "sun": 7347,
      "come": 7348,
      "egdecid": 7349,
      "iron": 7350,
      "gthegcompanyg": 7351,
      "inggand": 7352,
      "extendedg": 7353,
      "army": 7354,
      "confront": 7355,
      "qualityg": 7356,
      "ganyth": 7357,
      "genusg": 7358,
      "extinc": 7359,
      "eds": 7360,
      "inggwithgtheg": 7361,
      "asong": 7362,
      "uses": 7363,
      "norweg": 7364,
      "gcarri": 7365,
      "asketball": 7366,
      "ggoal": 7367,
      "inggat": 7368,
      "edgagt": 7369,
      "egfe": 7370,
      "egfromgtheg": 7371,
      "gthegcur": 7372,
      "ulationg": 7373,
      "ny": 7374,
      "gtogt": 7375,
      "descend": 7376,
      "gagreedgtog": 7377,
      "gbr": 7378,
      "esty": 7379,
      "gvo": 7380,
      "protagon": 7381,
      "gserviceg": 7382,
      "venu": 7383,
      "gandgong": 7384,
      "pric": 7385,
      "gsteph": 7386,
      "ympt": 7387,
      "veter": 7388,
      "egagainst": 7389,
      "gagtim": 7390,
      "did": 7391,
      "gawardgfor": 7392,
      "widelyg": 7393,
      "hospital": 7394,
      "gaverageg": 7395,
      "egbygtheg": 7396,
      "producerg": 7397,
      "gmillionging": 7398,
      "payg": 7399,
      "gagjg10": 7400,
      "atern": 7401,
      "gapparent": 7402,
      "ize": 7403,
      "usedgtheg": 7404,
      "glac": 7405,
      "contact": 7406,
      "simpl": 7407,
      "portgofg": 7408,
      "oundsg": 7409,
      "ghadgag": 7410,
      "commissiong": 7411,
      "oudg": 7412,
      "gagfull": 7413,
      "itiongofgtheg": 7414,
      "gtransform": 7415,
      "ourg": 7416,
      "coldg": 7417,
      "issues": 7418,
      "democratic": 7419,
      "peterg": 7420,
      "olph": 7421,
      "ame": 7422,
      "egmark": 7423,
      "function": 7424,
      "ofghis": 7425,
      "setgup": 7426,
      "gstudio": 7427,
      "cholar": 7428,
      "1947": 7429,
      "inst": 7430,
      "gofgitsg": 7431,
      "begt": 7432,
      "ensg": 7433,
      "vd": 7434,
      "forwardg": 7435,
      "erviceg": 7436,
      "intendog": 7437,
      "garg": 7438,
      "gasgheg": 7439,
      "gaccommod": 7440,
      "cthegd": 7441,
      "ablegto": 7442,
      "hadgbeen": 7443,
      "orygofg": 7444,
      "gwould": 7445,
      "1937": 7446,
      "naz": 7447,
      "ano": 7448,
      "egmet": 7449,
      "assin": 7450,
      "jag": 7451,
      "grul": 7452,
      "beinggs": 7453,
      "gthings": 7454,
      "83": 7455,
      "five": 7456,
      "egtakeng": 7457,
      "gca": 7458,
      "gvoc": 7459,
      "gweg": 7460,
      "backgtog": 7461,
      "politic": 7462,
      "gasia": 7463,
      "louis": 7464,
      "drag": 7465,
      "bron": 7466,
      "flo": 7467,
      "completeg": 7468,
      "portiongofgtheg": 7469,
      "shear": 7470,
      "erog": 7471,
      "utureg": 7472,
      "notgbeeng": 7473,
      "utur": 7474,
      "ruitg": 7475,
      "officers": 7476,
      "section": 7477,
      "couldgnotg": 7478,
      "easilyg": 7479,
      "sgback": 7480,
      "gwhengheg": 7481,
      "disappoint": 7482,
      "imately": 7483,
      "g50": 7484,
      "white": 7485,
      "ells": 7486,
      "gongag": 7487,
      "ventiong": 7488,
      "ginvolv": 7489,
      "egcor": 7490,
      "egtoog": 7491,
      "1981": 7492,
      "gthegbattlegofg": 7493,
      "emang": 7494,
      "nd": 7495,
      "grid": 7496,
      "parentg": 7497,
      "edgagnew": 7498,
      "difficultg": 7499,
      "gautom": 7500,
      "feed": 7501,
      "gtall": 7502,
      "zo": 7503,
      "colour": 7504,
      "gaglotg": 7505,
      "uterg": 7506,
      "uad": 7507,
      "olderg": 7508,
      "replacedgbyg": 7509,
      "cwhil": 7510,
      "cdespit": 7511,
      "acific": 7512,
      "gthegdevelop": 7513,
      "permanentg": 7514,
      "igandg": 7515,
      "jord": 7516,
      "gthegcountry": 7517,
      "gindividual": 7518,
      "ancegandg": 7519,
      "pecially": 7520,
      "herit": 7521,
      "gavailableg": 7522,
      "elm": 7523,
      "ggovernment": 7524,
      "manchesterg": 7525,
      "egcoll": 7526,
      "representativ": 7527,
      "ghumang": 7528,
      "bath": 7529,
      "gitghasg": 7530,
      "ennes": 7531,
      "gtold": 7532,
      "madonna": 7533,
      "rell": 7534,
      "ergthan": 7535,
      "inggfromgtheg": 7536,
      "membergofgtheg": 7537,
      "christmasg": 7538,
      "igs": 7539,
      "republicang": 7540,
      "gim": 7541,
      "gvot": 7542,
      "sgbefor": 7543,
      "inggoff": 7544,
      "ultane": 7545,
      "enemyg": 7546,
      "argu": 7547,
      "dustr": 7548,
      "metro": 7549,
      "alu": 7550,
      "gthegcam": 7551,
      "ymptom": 7552,
      "geng": 7553,
      "egtyp": 7554,
      "possibleg": 7555,
      "gmeet": 7556,
      "110": 7557,
      "knowngas": 7558,
      "sher": 7559,
      "gvideo": 7560,
      "numbergof": 7561,
      "along": 7562,
      "esgfromgtheg": 7563,
      "defeatedg": 7564,
      "describedgtheg": 7565,
      "custom": 7566,
      "kish": 7567,
      "ingsouth": 7568,
      "inggsystem": 7569,
      "ganimals": 7570,
      "gwithgs": 7571,
      "patrol": 7572,
      "browng": 7573,
      "gapp": 7574,
      "choos": 7575,
      "gaveragegofg": 7576,
      "gapplic": 7577,
      "gris": 7578,
      "oard": 7579,
      "sghav": 7580,
      "ona": 7581,
      "inggoutg": 7582,
      "ilitygofg": 7583,
      "agegandg": 7584,
      "desir": 7585,
      "aker": 7586,
      "egboth": 7587,
      "platinum": 7588,
      "gtheygar": 7589,
      "athang": 7590,
      "edgforc": 7591,
      "electedg": 7592,
      "gdirector": 7593,
      "beginninggofgtheg": 7594,
      "tw": 7595,
      "izedgtheg": 7596,
      "retiredg": 7597,
      "ugoslav": 7598,
      "nhl": 7599,
      "izationg": 7600,
      "third": 7601,
      "isging": 7602,
      "gmid": 7603,
      "gmulti": 7604,
      "umin": 7605,
      "gauth": 7606,
      "gtheghous": 7607,
      "1978": 7608,
      "lessgthang": 7609,
      "armyg": 7610,
      "gintogtheg": 7611,
      "arr": 7612,
      "gbutgh": 7613,
      "icgs": 7614,
      "grunn": 7615,
      "900": 7616,
      "iongof": 7617,
      "minim": 7618,
      "sung": 7619,
      "franch": 7620,
      "shel": 7621,
      "edginghisg": 7622,
      "si": 7623,
      "clin": 7624,
      "rolegingtheg": 7625,
      "sgun": 7626,
      "ongnovemberg": 7627,
      "writing": 7628,
      "northern": 7629,
      "knight": 7630,
      "ratedg": 7631,
      "gtap": 7632,
      "combat": 7633,
      "sgsecondg": 7634,
      "istryg": 7635,
      "releaseg": 7636,
      "alism": 7637,
      "closeg": 7638,
      "egofgtheir": 7639,
      "gingjanuaryg": 7640,
      "ghegwrot": 7641,
      "mond": 7642,
      "gongjulyg": 7643,
      "gthegbattleg": 7644,
      "gterritory": 7645,
      "adag": 7646,
      "currentlyg": 7647,
      "hr": 7648,
      "gast": 7649,
      "gtheregis": 7650,
      "stayg": 7651,
      "gbi": 7652,
      "electronic": 7653,
      "declared": 7654,
      "gwongtheg": 7655,
      "egcritic": 7656,
      "comot": 7657,
      "gtogbegag": 7658,
      "insist": 7659,
      "gnovel": 7660,
      "presidentgofgtheg": 7661,
      "reportg": 7662,
      "gburn": 7663,
      "bitg": 7664,
      "glangu": 7665,
      "gthega": 7666,
      "receiveg": 7667,
      "hatt": 7668,
      "ingandg": 7669,
      "egtogag": 7670,
      "ately": 7671,
      "ised": 7672,
      "ending": 7673,
      "gcombin": 7674,
      "ountaing": 7675,
      "range": 7676,
      "murder": 7677,
      "gindic": 7678,
      "edgbecaus": 7679,
      "gwithingtheg": 7680,
      "computer": 7681,
      "ginst": 7682,
      "gcameg": 7683,
      "sgbel": 7684,
      "edgsouth": 7685,
      "apons": 7686,
      "gwhichgis": 7687,
      "content": 7688,
      "indow": 7689,
      "vong": 7690,
      "gcultur": 7691,
      "accept": 7692,
      "pav": 7693,
      "steing": 7694,
      "critics": 7695,
      "complish": 7696,
      "egcas": 7697,
      "surpris": 7698,
      "rapp": 7699,
      "oughtgtog": 7700,
      "uringg": 7701,
      "gfestival": 7702,
      "gadultg": 7703,
      "inggweek": 7704,
      "runk": 7705,
      "gjersey": 7706,
      "illeg": 7707,
      "bring": 7708,
      "gradiog": 7709,
      "lyingg": 7710,
      "statusg": 7711,
      "usegtheg": 7712,
      "ginc": 7713,
      "sgmusic": 7714,
      "casualt": 7715,
      "galign": 7716,
      "evolv": 7717,
      "relief": 7718,
      "vocals": 7719,
      "ghan": 7720,
      "gandgwith": 7721,
      "awayg": 7722,
      "guardg": 7723,
      "marineg": 7724,
      "ethodg": 7725,
      "gatom": 7726,
      "gintroduc": 7727,
      "awardg": 7728,
      "human": 7729,
      "gvietnam": 7730,
      "usion": 7731,
      "gmarchg19": 7732,
      "foodg": 7733,
      "echn": 7734,
      "gbattal": 7735,
      "gatgnumberg": 7736,
      "rhyth": 7737,
      "edgonlyg": 7738,
      "pectg": 7739,
      "pecific": 7740,
      "gax": 7741,
      "ala": 7742,
      "mexico": 7743,
      "remix": 7744,
      "ester": 7745,
      "conflictg": 7746,
      "umng": 7747,
      "gwithgang": 7748,
      "iscog": 7749,
      "gthegepisodeg": 7750,
      "elebr": 7751,
      "ellingg": 7752,
      "nu": 7753,
      "agic": 7754,
      "gits": 7755,
      "gtogm": 7756,
      "addition": 7757,
      "johnson": 7758,
      "ura": 7759,
      "ginstitut": 7760,
      "centerg": 7761,
      "eghead": 7762,
      "unctiong": 7763,
      "stretch": 7764,
      "pregn": 7765,
      "boyg": 7766,
      "stated": 7767,
      "naiss": 7768,
      "westgofg": 7769,
      "gmetersg": 7770,
      "gthegu": 7771,
      "fromghisg": 7772,
      "ennsylvania": 7773,
      "ingly": 7774,
      "elin": 7775,
      "mooth": 7776,
      "eigng": 7777,
      "legwasg": 7778,
      "glittleg": 7779,
      "effects": 7780,
      "gfall": 7781,
      "opposition": 7782,
      "carryg": 7783,
      "continuedg": 7784,
      "gmr": 7785,
      "geventuallyg": 7786,
      "gpred": 7787,
      "resolv": 7788,
      "gwhichgl": 7789,
      "1977": 7790,
      "dang": 7791,
      "operat": 7792,
      "gexpl": 7793,
      "writer": 7794,
      "altim": 7795,
      "gappointedg": 7796,
      "fif": 7797,
      "ades": 7798,
      "fuel": 7799,
      "ationsgandg": 7800,
      "gpropos": 7801,
      "expens": 7802,
      "onceg": 7803,
      "gindustr": 7804,
      "gassert": 7805,
      "gpeopleg": 7806,
      "july": 7807,
      "ofgags": 7808,
      "news": 7809,
      "ubeg": 7810,
      "instruct": 7811,
      "edging19": 7812,
      "episodes": 7813,
      "destruc": 7814,
      "uregtog": 7815,
      "gmig": 7816,
      "ipit": 7817,
      "mong": 7818,
      "ersgareg": 7819,
      "fiv": 7820,
      "gpresident": 7821,
      "fron": 7822,
      "ggirl": 7823,
      "equipment": 7824,
      "aggteam": 7825,
      "usegof": 7826,
      "cros": 7827,
      "gandgall": 7828,
      "grequ": 7829,
      "warn": 7830,
      "declar": 7831,
      "egfollow": 7832,
      "g21": 7833,
      "centg": 7834,
      "gwales": 7835,
      "gnevertheless": 7836,
      "realg": 7837,
      "largerg": 7838,
      "gandglaterg": 7839,
      "libert": 7840,
      "orialg": 7841,
      "personalg": 7842,
      "gactivityg": 7843,
      "ceremon": 7844,
      "gthegsit": 7845,
      "sidegofgtheg": 7846,
      "killedg": 7847,
      "military": 7848,
      "foundging": 7849,
      "ablegs": 7850,
      "ensiong": 7851,
      "gago": 7852,
      "gig": 7853,
      "egmatch": 7854,
      "parish": 7855,
      "newgyorkgcity": 7856,
      "egbetween": 7857,
      "ersgfor": 7858,
      "feature": 7859,
      "declaredg": 7860,
      "onse": 7861,
      "penalt": 7862,
      "reput": 7863,
      "eland": 7864,
      "patri": 7865,
      "usgandg": 7866,
      "ationgisg": 7867,
      "gthegmov": 7868,
      "perfectg": 7869,
      "gtropicalgcycl": 7870,
      "threeg": 7871,
      "sn": 7872,
      "academ": 7873,
      "handg": 7874,
      "enior": 7875,
      "gmexic": 7876,
      "gles": 7877,
      "forestg": 7878,
      "gdig": 7879,
      "sgbutg": 7880,
      "eastern": 7881,
      "onsg": 7882,
      "glat": 7883,
      "integr": 7884,
      "italy": 7885,
      "cientific": 7886,
      "formedg": 7887,
      "wasgtog": 7888,
      "ingger": 7889,
      "grantg": 7890,
      "belief": 7891,
      "pilotg": 7892,
      "faith": 7893,
      "grelat": 7894,
      "egbecom": 7895,
      "distinctg": 7896,
      "disturb": 7897,
      "utter": 7898,
      "joingtheg": 7899,
      "edgthatgh": 7900,
      "zil": 7901,
      "ghun": 7902,
      "stick": 7903,
      "eler": 7904,
      "undertak": 7905,
      "gassistantg": 7906,
      "succeed": 7907,
      "glondon": 7908,
      "osph": 7909,
      "gfar": 7910,
      "ggrow": 7911,
      "ified": 7912,
      "newgzealand": 7913,
      "ghighgschool": 7914,
      "fresh": 7915,
      "mes": 7916,
      "ablegofg": 7917,
      "ulliv": 7918,
      "featured": 7919,
      "orders": 7920,
      "gthegcas": 7921,
      "correspond": 7922,
      "ghit": 7923,
      "ologistg": 7924,
      "helm": 7925,
      "gress": 7926,
      "medal": 7927,
      "gheav": 7928,
      "gmary": 7929,
      "points": 7930,
      "yet": 7931,
      "gcost": 7932,
      "gtheggame": 7933,
      "gbob": 7934,
      "gliter": 7935,
      "bern": 7936,
      "gheadg": 7937,
      "drawng": 7938,
      "managedgtog": 7939,
      "parliamentg": 7940,
      "viceg": 7941,
      "stew": 7942,
      "ongjuneg": 7943,
      "gagŀ": 7944,
      "mand": 7945,
      "isgtog": 7946,
      "gthegball": 7947,
      "gavi": 7948,
      "eleg": 7949,
      "gstr": 7950,
      "egthre": 7951,
      "statement": 7952,
      "canal": 7953,
      "realiz": 7954,
      "gprob": 7955,
      "cwith": 7956,
      "ingthegfirstg": 7957,
      "rankedg": 7958,
      "4g": 7959,
      "dailyg": 7960,
      "edon": 7961,
      "gwhichgwouldg": 7962,
      "publishedg": 7963,
      "genough": 7964,
      "sgn": 7965,
      "arant": 7966,
      "egingwhich": 7967,
      "inggthisg": 7968,
      "ords": 7969,
      "knew": 7970,
      "sy": 7971,
      "very": 7972,
      "students": 7973,
      "tour": 7974,
      "puls": 7975,
      "egwell": 7976,
      "roughlyg": 7977,
      "gcomed": 7978,
      "emergencyg": 7979,
      "gmach": 7980,
      "inggor": 7981,
      "gproduction": 7982,
      "zeg": 7983,
      "spent": 7984,
      "pressureg": 7985,
      "remaing": 7986,
      "illag": 7987,
      "gthegnextgday": 7988,
      "exercis": 7989,
      "cos": 7990,
      "fix": 7991,
      "upt": 7992,
      "egthey": 7993,
      "embark": 7994,
      "samegyear": 7995,
      "cred": 7996,
      "hot": 7997,
      "edgofgtheg": 7998,
      "time": 7999,
      "shift": 8000,
      "eghar": 8001,
      "gmul": 8002,
      "140": 8003,
      "ivision": 8004,
      "gsav": 8005,
      "dialog": 8006,
      "ecretg": 8007,
      "umber": 8008,
      "gtwogweek": 8009,
      "speech": 8010,
      "commandgofg": 8011,
      "baseball": 8012,
      "gongnovemberg": 8013,
      "egworldg": 8014,
      "mack": 8015,
      "gwong": 8016,
      "acqu": 8017,
      "gfull": 8018,
      "1935": 8019,
      "gtogallow": 8020,
      "gindepend": 8021,
      "gamount": 8022,
      "somegofgtheg": 8023,
      "social": 8024,
      "royg": 8025,
      "gpers": 8026,
      "1963": 8027,
      "motherg": 8028,
      "isgandg": 8029,
      "egsaid": 8030,
      "limitedg": 8031,
      "liverpool": 8032,
      "angwasg": 8033,
      "aki": 8034,
      "1956": 8035,
      "gpolitical": 8036,
      "agcup": 8037,
      "gmeas": 8038,
      "indones": 8039,
      "groom": 8040,
      "gteams": 8041,
      "gtheggameg": 8042,
      "augur": 8043,
      "degre": 8044,
      "ei": 8045,
      "geg": 8046,
      "illa": 8047,
      "machin": 8048,
      "gingmayg": 8049,
      "approach": 8050,
      "wav": 8051,
      "gtheglargestg": 8052,
      "cthisg": 8053,
      "basedgongtheg": 8054,
      "gclark": 8055,
      "gtrek": 8056,
      "gtogwork": 8057,
      "gcg": 8058,
      "option": 8059,
      "gwebs": 8060,
      "raaf": 8061,
      "istgofg": 8062,
      "sgremain": 8063,
      "gbrowng": 8064,
      "interior": 8065,
      "iraq": 8066,
      "entiallyg": 8067,
      "gmembersg": 8068,
      "gfoundg": 8069,
      "ificallyg": 8070,
      "gagsimilar": 8071,
      "1933": 8072,
      "gthomp": 8073,
      "occasionallyg": 8074,
      "gfeatures": 8075,
      "ewhatg": 8076,
      "gacknowledg": 8077,
      "gwhilegs": 8078,
      "warm": 8079,
      "gandgthen": 8080,
      "gargent": 8081,
      "iph": 8082,
      "duringghisg": 8083,
      "rolegofg": 8084,
      "dim": 8085,
      "indicat": 8086,
      "gacademic": 8087,
      "cock": 8088,
      "unknown": 8089,
      "medic": 8090,
      "occurred": 8091,
      "gafterwards": 8092,
      "onor": 8093,
      "gwatch": 8094,
      "gabovegtheg": 8095,
      "dong": 8096,
      "ashion": 8097,
      "kentuck": 8098,
      "merc": 8099,
      "lean": 8100,
      "shipp": 8101,
      "gingang": 8102,
      "mayghaveg": 8103,
      "criptg": 8104,
      "window": 8105,
      "vac": 8106,
      "gthesegs": 8107,
      "champion": 8108,
      "gafricang": 8109,
      "gresearch": 8110,
      "normal": 8111,
      "carl": 8112,
      "domestic": 8113,
      "chemical": 8114,
      "gthegin": 8115,
      "entryg": 8116,
      "gthegfeder": 8117,
      "ateging": 8118,
      "iblyg": 8119,
      "ropicalgdepressiong": 8120,
      "oyg": 8121,
      "gatgthegm": 8122,
      "gisland": 8123,
      "lakeg": 8124,
      "yphoong": 8125,
      "myst": 8126,
      "anium": 8127,
      "odd": 8128,
      "chant": 8129,
      "mans": 8130,
      "refusedgtog": 8131,
      "gdeep": 8132,
      "kag": 8133,
      "ghegt": 8134,
      "gtoga": 8135,
      "opter": 8136,
      "eart": 8137,
      "winter": 8138,
      "gthank": 8139,
      "uregofgtheg": 8140,
      "collaps": 8141,
      "gauthorityg": 8142,
      "edgasgang": 8143,
      "gtroph": 8144,
      "eavyg": 8145,
      "esghisg": 8146,
      "ibbe": 8147,
      "uz": 8148,
      "pecies": 8149,
      "5g": 8150,
      "flight": 8151,
      "gtower": 8152,
      "compon": 8153,
      "buff": 8154,
      "ggermang": 8155,
      "wantedgtog": 8156,
      "gmodel": 8157,
      "kind": 8158,
      "gthegwork": 8159,
      "completed": 8160,
      "communistg": 8161,
      "chamber": 8162,
      "gbandg": 8163,
      "chi": 8164,
      "egcaus": 8165,
      "forgitsg": 8166,
      "conferenceg": 8167,
      "gcart": 8168,
      "uppl": 8169,
      "gsupportg": 8170,
      "beyond": 8171,
      "gagp": 8172,
      "gonghisg": 8173,
      "equel": 8174,
      "subsequentg": 8175,
      "egbuild": 8176,
      "shock": 8177,
      "gingan": 8178,
      "movementg": 8179,
      "ympath": 8180,
      "inem": 8181,
      "1915": 8182,
      "mangofgtheg": 8183,
      "raftg": 8184,
      "clock": 8185,
      "gtheor": 8186,
      "ighterg": 8187,
      "inggl": 8188,
      "manng": 8189,
      "cancell": 8190,
      "food": 8191,
      "legend": 8192,
      "dun": 8193,
      "rific": 8194,
      "gder": 8195,
      "ivegandg": 8196,
      "edgwithg": 8197,
      "citygofg": 8198,
      "apol": 8199,
      "gthegrout": 8200,
      "g28": 8201,
      "runs": 8202,
      "egags": 8203,
      "ulk": 8204,
      "gtroubl": 8205,
      "wild": 8206,
      "egan": 8207,
      "islam": 8208,
      "ationgfrom": 8209,
      "expectedgtog": 8210,
      "fan": 8211,
      "gacresg": 8212,
      "gknowng": 8213,
      "escort": 8214,
      "corp": 8215,
      "administ": 8216,
      "gfriend": 8217,
      "mediev": 8218,
      "sgduringgtheg": 8219,
      "ongmayg": 8220,
      "shaw": 8221,
      "lackgofg": 8222,
      "usedgingtheg": 8223,
      "consult": 8224,
      "gthatghisg": 8225,
      "sgfirst": 8226,
      "compris": 8227,
      "gadditional": 8228,
      "gsound": 8229,
      "geurope": 8230,
      "assist": 8231,
      "1962": 8232,
      "gjoseph": 8233,
      "usgofg": 8234,
      "stem": 8235,
      "1917": 8236,
      "ielseng": 8237,
      "1949": 8238,
      "gthemselves": 8239,
      "method": 8240,
      "emic": 8241,
      "edging18": 8242,
      "gcampaign": 8243,
      "gtaken": 8244,
      "enceging": 8245,
      "g2003": 8246,
      "giantg": 8247,
      "gbra": 8248,
      "commemor": 8249,
      "sgsong": 8250,
      "illiong": 8251,
      "jenn": 8252,
      "remaind": 8253,
      "gaccur": 8254,
      "gtheygalsog": 8255,
      "bayg": 8256,
      "ghegscor": 8257,
      "gweapon": 8258,
      "december": 8259,
      "fireg": 8260,
      "bes": 8261,
      "gdefeat": 8262,
      "sgintog": 8263,
      "gatmosph": 8264,
      "predecess": 8265,
      "edgasgags": 8266,
      "eghegwasg": 8267,
      "queens": 8268,
      "becomesg": 8269,
      "ancyg": 8270,
      "whether": 8271,
      "deni": 8272,
      "notic": 8273,
      "numer": 8274,
      "legandg": 8275,
      "ghasgag": 8276,
      "virginiag": 8277,
      "g2001": 8278,
      "months": 8279,
      "naval": 8280,
      "bang": 8281,
      "garegnotg": 8282,
      "gparticular": 8283,
      "lating": 8284,
      "dat": 8285,
      "gattain": 8286,
      "centre": 8287,
      "sgwithgag": 8288,
      "depth": 8289,
      "sgnew": 8290,
      "sghist": 8291,
      "enemy": 8292,
      "uspend": 8293,
      "gfeder": 8294,
      "innings": 8295,
      "ertogric": 8296,
      "could": 8297,
      "gaccountg": 8298,
      "gadministration": 8299,
      "comfort": 8300,
      "producer": 8301,
      "gthatgday": 8302,
      "gred": 8303,
      "gmaint": 8304,
      "establishedg": 8305,
      "imeg": 8306,
      "gdeal": 8307,
      "difficultgtog": 8308,
      "noglongerg": 8309,
      "galang": 8310,
      "gbilliong": 8311,
      "geastg": 8312,
      "chedul": 8313,
      "beam": 8314,
      "flict": 8315,
      "inggsever": 8316,
      "gtraing": 8317,
      "gaga": 8318,
      "freedom": 8319,
      "orc": 8320,
      "them": 8321,
      "gwhogisg": 8322,
      "ideasg": 8323,
      "dock": 8324,
      "ervis": 8325,
      "sgthatgtheg": 8326,
      "riev": 8327,
      "remn": 8328,
      "defeatg": 8329,
      "especiallyg": 8330,
      "gaust": 8331,
      "consid": 8332,
      "gate": 8333,
      "garchitectur": 8334,
      "lang": 8335,
      "ais": 8336,
      "cles": 8337,
      "firedg": 8338,
      "ledgbyg": 8339,
      "labour": 8340,
      "inggall": 8341,
      "impos": 8342,
      "gium": 8343,
      "resultgofgtheg": 8344,
      "carg": 8345,
      "hunt": 8346,
      "gfinal": 8347,
      "gactivities": 8348,
      "gear": 8349,
      "intention": 8350,
      "died": 8351,
      "gtranslat": 8352,
      "itgtog": 8353,
      "shall": 8354,
      "pecialg": 8355,
      "defensiveg": 8356,
      "agtog": 8357,
      "diedg": 8358,
      "gingdecemberg": 8359,
      "gatgthegagegofg": 8360,
      "edgforgag": 8361,
      "g22": 8362,
      "hg": 8363,
      "cav": 8364,
      "cond": 8365,
      "scop": 8366,
      "rix": 8367,
      "gcoach": 8368,
      "1958": 8369,
      "heavy": 8370,
      "orped": 8371,
      "gardeng": 8372,
      "works": 8373,
      "inchg": 8374,
      "erk": 8375,
      "gbow": 8376,
      "enseg": 8377,
      "gwhogwereg": 8378,
      "gdiscover": 8379,
      "scholar": 8380,
      "ypoth": 8381,
      "periodgofg": 8382,
      "ble": 8383,
      "cog": 8384,
      "connaiss": 8385,
      "gongjuneg": 8386,
      "aterialg": 8387,
      "uzz": 8388,
      "ideas": 8389,
      "gattor": 8390,
      "gthereafter": 8391,
      "departmentg": 8392,
      "revers": 8393,
      "inggover": 8394,
      "inggingag": 8395,
      "recruit": 8396,
      "popularg": 8397,
      "earthqu": 8398,
      "incoln": 8399,
      "rapidlyg": 8400,
      "idence": 8401,
      "gingtheir": 8402,
      "sgher": 8403,
      "solv": 8404,
      "ests": 8405,
      "gluc": 8406,
      "iesgtog": 8407,
      "gthomas": 8408,
      "typ": 8409,
      "villageg": 8410,
      "influenceg": 8411,
      "gtogbegs": 8412,
      "beyonca": 8413,
      "sgan": 8414,
      "wish": 8415,
      "gthir": 8416,
      "usinggtheg": 8417,
      "causedg": 8418,
      "enging": 8419,
      "itgfor": 8420,
      "gblu": 8421,
      "gbrad": 8422,
      "egthere": 8423,
      "damage": 8424,
      "gthegroadg": 8425,
      "gbutgheg": 8426,
      "effectivelyg": 8427,
      "gtheregisgnog": 8428,
      "egreview": 8429,
      "gheldg": 8430,
      "gingoctoberg": 8431,
      "gthegsongg": 8432,
      "castle": 8433,
      "resultedging": 8434,
      "manager": 8435,
      "eghom": 8436,
      "gcoast": 8437,
      "excit": 8438,
      "henryg": 8439,
      "ionsgofg": 8440,
      "guilt": 8441,
      "newgyorkgtimesg": 8442,
      "lett": 8443,
      "sgherg": 8444,
      "eadg": 8445,
      "designedgtog": 8446,
      "ofgtheseg": 8447,
      "changesg": 8448,
      "gthegcrew": 8449,
      "curv": 8450,
      "culpt": 8451,
      "gduringgthegs": 8452,
      "gnin": 8453,
      "egscor": 8454,
      "border": 8455,
      "diplom": 8456,
      "gtheygwouldg": 8457,
      "deem": 8458,
      "yan": 8459,
      "ofgwhich": 8460,
      "ategingtheg": 8461,
      "egandghisg": 8462,
      "gnational": 8463,
      "gigh": 8464,
      "sgoff": 8465,
      "gthegotherg": 8466,
      "advanc": 8467,
      "yank": 8468,
      "gtheory": 8469,
      "gacademy": 8470,
      "cfor": 8471,
      "gwomeng": 8472,
      "gsuffer": 8473,
      "egagl": 8474,
      "before": 8475,
      "gveryg": 8476,
      "gray": 8477,
      "elig": 8478,
      "landscap": 8479,
      "ggamesg": 8480,
      "gisgang": 8481,
      "featuresg": 8482,
      "blow": 8483,
      "loveg": 8484,
      "experienceg": 8485,
      "abilitygtog": 8486,
      "egthen": 8487,
      "rectg": 8488,
      "caftergtheg": 8489,
      "fighter": 8490,
      "gingseptemberg": 8491,
      "gandgon": 8492,
      "adi": 8493,
      "gfarm": 8494,
      "egfoundg": 8495,
      "gep": 8496,
      "osevel": 8497,
      "cliff": 8498,
      "myth": 8499,
      "gvehic": 8500,
      "1953": 8501,
      "gblock": 8502,
      "composition": 8503,
      "1916": 8504,
      "galcohol": 8505,
      "doesg": 8506,
      "gtitl": 8507,
      "existingg": 8508,
      "diagn": 8509,
      "greatlyg": 8510,
      "ason": 8511,
      "edgthegfilm": 8512,
      "gthegcourtg": 8513,
      "egagaing": 8514,
      "ingerg": 8515,
      "itygtog": 8516,
      "lieg": 8517,
      "civilgwar": 8518,
      "pip": 8519,
      "gknowngasg": 8520,
      "wan": 8521,
      "1957": 8522,
      "restaur": 8523,
      "sglik": 8524,
      "enberg": 8525,
      "engwasg": 8526,
      "antlyg": 8527,
      "gtheghurrican": 8528,
      "1961": 8529,
      "veget": 8530,
      "ginitiallyg": 8531,
      "sgby": 8532,
      "gthegtitleg": 8533,
      "united": 8534,
      "gparticip": 8535,
      "ofgwar": 8536,
      "gbon": 8537,
      "brick": 8538,
      "directly": 8539,
      "egment": 8540,
      "gongmayg": 8541,
      "pron": 8542,
      "dress": 8543,
      "ofgsh": 8544,
      "flam": 8545,
      "congress": 8546,
      "dvdg": 8547,
      "edgnorth": 8548,
      "aph": 8549,
      "gage": 8550,
      "grim": 8551,
      "gabsor": 8552,
      "ingthegunitedgstates": 8553,
      "ging190": 8554,
      "ing17": 8555,
      "gmaterial": 8556,
      "glaunch": 8557,
      "fromgs": 8558,
      "egfound": 8559,
      "flash": 8560,
      "atedgby": 8561,
      "weeklyg": 8562,
      "gcrew": 8563,
      "gmcc": 8564,
      "scrip": 8565,
      "gfebruary": 8566,
      "extrag": 8567,
      "gaustralian": 8568,
      "gfig": 8569,
      "gandghis": 8570,
      "argetg": 8571,
      "mediterran": 8572,
      "1934": 8573,
      "witch": 8574,
      "gtub": 8575,
      "gingjuneg": 8576,
      "gofgfam": 8577,
      "often": 8578,
      "jar": 8579,
      "ersgwhog": 8580,
      "gedg": 8581,
      "xbox": 8582,
      "enthusi": 8583,
      "immediateg": 8584,
      "gjohnsong": 8585,
      "ylind": 8586,
      "studios": 8587,
      "relatedg": 8588,
      "information": 8589,
      "esgthrough": 8590,
      "gformerg": 8591,
      "1932": 8592,
      "esgs": 8593,
      "idegofgtheg": 8594,
      "mul": 8595,
      "fromgthegs": 8596,
      "edgtogs": 8597,
      "groadg": 8598,
      "marriag": 8599,
      "kans": 8600,
      "chick": 8601,
      "gdom": 8602,
      "womeng": 8603,
      "fromg19": 8604,
      "gshegalsog": 8605,
      "gphot": 8606,
      "je": 8607,
      "usegofgtheg": 8608,
      "galsogbeg": 8609,
      "gthatghegwasg": 8610,
      "inggbyg": 8611,
      "entranc": 8612,
      "g23": 8613,
      "depos": 8614,
      "gtail": 8615,
      "gthegcre": 8616,
      "philli": 8617,
      "yugoslav": 8618,
      "ghegwouldg": 8619,
      "gwasgre": 8620,
      "gthegnational": 8621,
      "gthegfifth": 8622,
      "ography": 8623,
      "conditions": 8624,
      "nh": 8625,
      "galsogbeeng": 8626,
      "housegofg": 8627,
      "gevengthough": 8628,
      "gingnovemberg": 8629,
      "egdep": 8630,
      "gmus": 8631,
      "storiesg": 8632,
      "gthegfollowinggday": 8633,
      "costg": 8634,
      "garyg": 8635,
      "itzer": 8636,
      "gangamericang": 8637,
      "gsea": 8638,
      "tail": 8639,
      "enabl": 8640,
      "egworld": 8641,
      "sgshow": 8642,
      "ilverg": 8643,
      "gthegtown": 8644,
      "gallgof": 8645,
      "4th": 8646,
      "gduegtogtheg": 8647,
      "gatgthegsamegtime": 8648,
      "anng": 8649,
      "gthegtri": 8650,
      "ike": 8651,
      "gentertain": 8652,
      "brazil": 8653,
      "1950s": 8654,
      "arily": 8655,
      "gthegtrans": 8656,
      "issue": 8657,
      "invad": 8658,
      "circul": 8659,
      "eles": 8660,
      "gbox": 8661,
      "gmo": 8662,
      "gsoon": 8663,
      "aseball": 8664,
      "igam": 8665,
      "gloss": 8666,
      "aux": 8667,
      "opponent": 8668,
      "yer": 8669,
      "statedg": 8670,
      "spirit": 8671,
      "gnick": 8672,
      "otag": 8673,
      "gtimegtog": 8674,
      "ganalysisg": 8675,
      "enderg": 8676,
      "sustain": 8677,
      "reasur": 8678,
      "gingaugustg": 8679,
      "consideredgtheg": 8680,
      "ongitsg": 8681,
      "garc": 8682,
      "5gmilliong": 8683,
      "sgaboutg": 8684,
      "gwesterng": 8685,
      "gworldgwargi": 8686,
      "robin": 8687,
      "gaskedg": 8688,
      "sgnorth": 8689,
      "loadg": 8690,
      "saidgthatg": 8691,
      "gthemgtog": 8692,
      "gincludinggag": 8693,
      "gradeg": 8694,
      "gcareer": 8695,
      "peter": 8696,
      "usiness": 8697,
      "providedg": 8698,
      "edward": 8699,
      "played": 8700,
      "distanc": 8701,
      "gthunder": 8702,
      "gbetweengtheg": 8703,
      "obiograph": 8704,
      "umul": 8705,
      "gaccomplish": 8706,
      "gtwentyg": 8707,
      "persuad": 8708,
      "hibit": 8709,
      "caughtg": 8710,
      "gacid": 8711,
      "retreat": 8712,
      "sgcam": 8713,
      "gconduct": 8714,
      "brieflyg": 8715,
      "ose": 8716,
      "hotel": 8717,
      "gary": 8718,
      "certain": 8719,
      "g27": 8720,
      "navigat": 8721,
      "goriginallyg": 8722,
      "gpercent": 8723,
      "informationg": 8724,
      "edgtoghaveg": 8725,
      "grain": 8726,
      "gcollect": 8727,
      "stal": 8728,
      "urther": 8729,
      "gthegmid": 8730,
      "rd": 8731,
      "zeng": 8732,
      "sure": 8733,
      "studiogalbum": 8734,
      "stoodg": 8735,
      "urpris": 8736,
      "statedgthat": 8737,
      "camer": 8738,
      "does": 8739,
      "portra": 8740,
      "edgtogthegs": 8741,
      "gturret": 8742,
      "gsand": 8743,
      "gwasgreleasedgong": 8744,
      "scal": 8745,
      "gshegisg": 8746,
      "1959": 8747,
      "suppl": 8748,
      "rict": 8749,
      "gsir": 8750,
      "gitghasgbeeng": 8751,
      "gvictoryg": 8752,
      "bann": 8753,
      "fal": 8754,
      "gmic": 8755,
      "opol": 8756,
      "goh": 8757,
      "gexceptg": 8758,
      "ologist": 8759,
      "jay": 8760,
      "kat": 8761,
      "notes": 8762,
      "sgforc": 8763,
      "imprison": 8764,
      "gpriv": 8765,
      "gandgareg": 8766,
      "byzant": 8767,
      "cumst": 8768,
      "sidegtheg": 8769,
      "fear": 8770,
      "gow": 8771,
      "gthegvideog": 8772,
      "irementg": 8773,
      "gancientg": 8774,
      "gandgitgwasg": 8775,
      "gingfebruaryg": 8776,
      "femaleg": 8777,
      "gmuseum": 8778,
      "galonggwithgtheg": 8779,
      "gdram": 8780,
      "gsett": 8781,
      "madegtheg": 8782,
      "gpartyg": 8783,
      "philip": 8784,
      "newgzealandg": 8785,
      "ongapril": 8786,
      "aqu": 8787,
      "warf": 8788,
      "imilarg": 8789,
      "aud": 8790,
      "gkong": 8791,
      "processg": 8792,
      "gavenu": 8793,
      "explo": 8794,
      "grey": 8795,
      "odel": 8796,
      "essions": 8797,
      "inggsom": 8798,
      "gexp": 8799,
      "rightgtog": 8800,
      "russia": 8801,
      "australian": 8802,
      "machineg": 8803,
      "gthegfre": 8804,
      "hero": 8805,
      "gscot": 8806,
      "gengland": 8807,
      "surfac": 8808,
      "choseng": 8809,
      "charactersg": 8810,
      "fram": 8811,
      "gongdecemberg": 8812,
      "imperialg": 8813,
      "atedgasg": 8814,
      "openedging": 8815,
      "rhodes": 8816,
      "sang": 8817,
      "waysg": 8818,
      "1955": 8819,
      "gcompanyg": 8820,
      "gpan": 8821,
      "briang": 8822,
      "initialg": 8823,
      "gpowerg": 8824,
      "algtog": 8825,
      "wheel": 8826,
      "orian": 8827,
      "impson": 8828,
      "gnumber": 8829,
      "aº": 8830,
      "gatgthegc": 8831,
      "gapprec": 8832,
      "operationsg": 8833,
      "afetyg": 8834,
      "ingginto": 8835,
      "gactions": 8836,
      "ateur": 8837,
      "recre": 8838,
      "gthegfamilyg": 8839,
      "creategag": 8840,
      "gthegnam": 8841,
      "ofgthes": 8842,
      "galf": 8843,
      "stateghighwayg": 8844,
      "junctiong": 8845,
      "eghis": 8846,
      "ationgofgs": 8847,
      "gbutgalsog": 8848,
      "ready": 8849,
      "premierg": 8850,
      "exter": 8851,
      "gagreementg": 8852,
      "gmanygofgtheg": 8853,
      "gbal": 8854,
      "1954": 8855,
      "quality": 8856,
      "gthegv": 8857,
      "gkingg": 8858,
      "gatghisg": 8859,
      "sgwhil": 8860,
      "gline": 8861,
      "gdar": 8862,
      "galax": 8863,
      "gwashington": 8864,
      "onging": 8865,
      "utyg": 8866,
      "cloud": 8867,
      "phras": 8868,
      "iana": 8869,
      "gmont": 8870,
      "famousg": 8871,
      "completedging": 8872,
      "gsomegof": 8873,
      "biograph": 8874,
      "gancest": 8875,
      "egway": 8876,
      "principl": 8877,
      "gcaptaing": 8878,
      "sac": 8879,
      "gtogse": 8880,
      "bull": 8881,
      "gandgun": 8882,
      "large": 8883,
      "sand": 8884,
      "mainstream": 8885,
      "gsometh": 8886,
      "gthegfilmgwasg": 8887,
      "rustr": 8888,
      "g2000": 8889,
      "egdown": 8890,
      "ferr": 8891,
      "made": 8892,
      "writingg": 8893,
      "gcanada": 8894,
      "eral": 8895,
      "egsuch": 8896,
      "ydro": 8897,
      "gwhogwas": 8898,
      "erect": 8899,
      "gfa": 8900,
      "gongthegs": 8901,
      "response": 8902,
      "gthegback": 8903,
      "moveg": 8904,
      "gspac": 8905,
      "frequentlyg": 8906,
      "caccordinggtog": 8907,
      "criticalg": 8908,
      "ghegtheng": 8909,
      "usbandg": 8910,
      "gassault": 8911,
      "gbell": 8912,
      "gingjulyg": 8913,
      "1931": 8914,
      "gflo": 8915,
      "aka": 8916,
      "gingthegfirstg": 8917,
      "iour": 8918,
      "gwindg": 8919,
      "ginn": 8920,
      "issuesg": 8921,
      "gweeks": 8922,
      "destroyed": 8923,
      "kept": 8924,
      "maz": 8925,
      "poin": 8926,
      "closegtog": 8927,
      "egasgag": 8928,
      "neith": 8929,
      "glam": 8930,
      "eign": 8931,
      "coin": 8932,
      "gexplain": 8933,
      "gactivitiesg": 8934,
      "paper": 8935,
      "ingsgofg": 8936,
      "gexperi": 8937,
      "ingh": 8938,
      "gtruck": 8939,
      "bothgtheg": 8940,
      "qualify": 8941,
      "songs": 8942,
      "g26": 8943,
      "books": 8944,
      "root": 8945,
      "effici": 8946,
      "remember": 8947,
      "planetg": 8948,
      "resultgofg": 8949,
      "atholic": 8950,
      "sgbas": 8951,
      "ganticip": 8952,
      "aria": 8953,
      "legal": 8954,
      "gagjg12": 8955,
      "receivedgtheg": 8956,
      "controlgofgtheg": 8957,
      "opinion": 8958,
      "lob": 8959,
      "correct": 8960,
      "carol": 8961,
      "gprofession": 8962,
      "lit": 8963,
      "atog": 8964,
      "gattacks": 8965,
      "gtogang": 8966,
      "greveal": 8967,
      "recur": 8968,
      "gedwardg": 8969,
      "ggeneral": 8970,
      "recognis": 8971,
      "gofficial": 8972,
      "search": 8973,
      "invent": 8974,
      "egthereg": 8975,
      "ggood": 8976,
      "gtheatreg": 8977,
      "nominatedgfor": 8978,
      "shadow": 8979,
      "uge": 8980,
      "enhanc": 8981,
      "gthatgwereg": 8982,
      "gstory": 8983,
      "qualifi": 8984,
      "gandgar": 8985,
      "itging": 8986,
      "inggatgtheg": 8987,
      "gingparticular": 8988,
      "physic": 8989,
      "5th": 8990,
      "bond": 8991,
      "itchell": 8992,
      "fightg": 8993,
      "neck": 8994,
      "oler": 8995,
      "galone": 8996,
      "gredg": 8997,
      "artic": 8998,
      "committee": 8999,
      "1919": 9000,
      "gainedg": 9001,
      "gtowardg": 9002,
      "gabilitygtog": 9003,
      "nature": 9004,
      "ongjanuaryg": 9005,
      "grog": 9006,
      "gleftg": 9007,
      "elag": 9008,
      "includegtheg": 9009,
      "gpil": 9010,
      "convict": 9011,
      "gtracks": 9012,
      "cottish": 9013,
      "jones": 9014,
      "intersect": 9015,
      "hadgtog": 9016,
      "gagjg5": 9017,
      "gingthegunitedgstates": 9018,
      "service": 9019,
      "becomegtheg": 9020,
      "israel": 9021,
      "esgor": 9022,
      "gthegsmall": 9023,
      "gpartgofgtheg": 9024,
      "florida": 9025,
      "greduc": 9026,
      "gkw": 9027,
      "gstev": 9028,
      "1952": 9029,
      "proposedg": 9030,
      "gdegre": 9031,
      "gshe": 9032,
      "gtrac": 9033,
      "lanc": 9034,
      "inhabit": 9035,
      "erge": 9036,
      "gofgh": 9037,
      "buy": 9038,
      "gtun": 9039,
      "gaglittleg": 9040,
      "growingg": 9041,
      "ectgofg": 9042,
      "gyour": 9043,
      "gresident": 9044,
      "languag": 9045,
      "ferg": 9046,
      "includedgtheg": 9047,
      "gtechnical": 9048,
      "masterg": 9049,
      "kore": 9050,
      "gasgagt": 9051,
      "gconstruct": 9052,
      "continued": 9053,
      "scotland": 9054,
      "structures": 9055,
      "ancy": 9056,
      "sgforg": 9057,
      "gsometimesg": 9058,
      "norwegiang": 9059,
      "1930s": 9060,
      "edicat": 9061,
      "belong": 9062,
      "gdistribut": 9063,
      "gbridg": 9064,
      "gshell": 9065,
      "naturalg": 9066,
      "uniform": 9067,
      "percent": 9068,
      "gthegdem": 9069,
      "oxfordg": 9070,
      "gtournament": 9071,
      "iger": 9072,
      "sgbatt": 9073,
      "rebel": 9074,
      "untilg19": 9075,
      "oid": 9076,
      "ario": 9077,
      "egfinish": 9078,
      "sginto": 9079,
      "assign": 9080,
      "egreach": 9081,
      "stronglyg": 9082,
      "library": 9083,
      "egitsg": 9084,
      "iven": 9085,
      "videoggam": 9086,
      "gwound": 9087,
      "inggnew": 9088,
      "lodg": 9089,
      "roleging": 9090,
      "elessg": 9091,
      "gingearlyg": 9092,
      "ariog": 9093,
      "gtribut": 9094,
      "ongdecemberg": 9095,
      "james": 9096,
      "egfac": 9097,
      "parts": 9098,
      "gtownship": 9099,
      "wheregtheg": 9100,
      "gandgtook": 9101,
      "gheart": 9102,
      "gjul": 9103,
      "g2002": 9104,
      "redi": 9105,
      "asterg": 9106,
      "scoredg": 9107,
      "gscott": 9108,
      "etail": 9109,
      "gatgleast": 9110,
      "g2016": 9111,
      "gpasseng": 9112,
      "memorial": 9113,
      "sayg": 9114,
      "oma": 9115,
      "coordin": 9116,
      "cfollowinggtheg": 9117,
      "mileg": 9118,
      "gthreegd": 9119,
      "requir": 9120,
      "esghim": 9121,
      "galbert": 9122,
      "integ": 9123,
      "ggi": 9124,
      "aily": 9125,
      "inggaboutg": 9126,
      "gment": 9127,
      "gpoll": 9128,
      "lon": 9129,
      "owerg": 9130,
      "conceptg": 9131,
      "edgagh": 9132,
      "gsaying": 9133,
      "forward": 9134,
      "galternativeg": 9135,
      "isd": 9136,
      "gyardsg": 9137,
      "gsayinggthatg": 9138,
      "gingmarch": 9139,
      "abin": 9140,
      "volunte": 9141,
      "kog": 9142,
      "usedgbyg": 9143,
      "gorder": 9144,
      "grevol": 9145,
      "conservativeg": 9146,
      "necessary": 9147,
      "kal": 9148,
      "vag": 9149,
      "gtheggovernmentg": 9150,
      "eleph": 9151,
      "sgdevelop": 9152,
      "buildg": 9153,
      "immigr": 9154,
      "areer": 9155,
      "gthegcentr": 9156,
      "pup": 9157,
      "ivegtog": 9158,
      "organizationg": 9159,
      "dan": 9160,
      "sum": 9161,
      "gandgis": 9162,
      "discipl": 9163,
      "ganton": 9164,
      "gparty": 9165,
      "gseconds": 9166,
      "partnership": 9167,
      "gthegcours": 9168,
      "youngerg": 9169,
      "drink": 9170,
      "nak": 9171,
      "galph": 9172,
      "atedgtogtheg": 9173,
      "californiag": 9174,
      "gyard": 9175,
      "ggovernor": 9176,
      "gconserv": 9177,
      "railroadg": 9178,
      "gdevelopment": 9179,
      "gtheglos": 9180,
      "gtitle": 9181,
      "goth": 9182,
      "atedgbygtheg": 9183,
      "gthatgthegs": 9184,
      "sgwho": 9185,
      "journ": 9186,
      "gbrok": 9187,
      "gtam": 9188,
      "stood": 9189,
      "gvirginia": 9190,
      "pion": 9191,
      "chantg": 9192,
      "gingcontrast": 9193,
      "episodegwasg": 9194,
      "dor": 9195,
      "gsummerg": 9196,
      "prosecut": 9197,
      "hindg": 9198,
[...]
